<pad>	0
<unk>	0
<s>	0
</s>	0
▁t	-0
on	-1
▁d	-2
es	-3
en	-4
▁a	-5
▁p	-6
▁c	-7
▁l	-8
▁th	-9
in	-10
re	-11
▁s	-12
ti	-13
is	-14
er	-15
ou	-16
▁the	-17
an	-18
▁m	-19
ent	-20
it	-21
▁de	-22
or	-23
▁e	-24
qu	-25
tion	-26
▁n	-27
▁w	-28
▁f	-29
ro	-30
ar	-31
le	-32
at	-33
▁b	-34
▁o	-35
▁in	-36
om	-37
al	-38
ment	-39
un	-40
si	-41
▁qu	-42
▁la	-43
il	-44
▁to	-45
ur	-46
▁r	-47
▁of	-48
▁an	-49
ve	-50
te	-51
▁le	-52
ation	-53
▁h	-54
ic	-55
▁con	-56
as	-57
▁com	-58
us	-59
▁re	-60
ing	-61
▁and	-62
▁un	-63
our	-64
el	-65
▁pro	-66
▁en	-67
▁et	-68
▁i	-69
▁v	-70
ce	-71
ra	-72
▁les	-73
et	-74
▁à	-75
ed	-76
▁par	-77
ous	-78
▁des	-79
▁g	-80
▁pr	-81
▁comm	-82
▁is	-83
pe	-84
▁j	-85
ir	-86
ol	-87
▁be	-88
est	-89
▁that	-90
▁on	-91
ut	-92
▁que	-93
ant	-94
ort	-95
os	-96
ons	-97
▁é	-98
pp	-99
ot	-100
▁eu	-101
me	-102
ans	-103
id	-104
ch	-105
▁wh	-106
mp	-107
▁for	-108
sion	-109
▁we	-110
ly	-111
▁euro	-112
ci	-113
ire	-114
ul	-115
▁ma	-116
tr	-117
▁dé	-118
▁au	-119
▁nous	-120
▁it	-121
ct	-122
▁ne	-123
ig	-124
▁this	-125
▁pour	-126
▁al	-127
▁se	-128
▁fa	-129
ab	-130
▁su	-131
és	-132
ter	-133
▁as	-134
▁commis	-135
▁du	-136
▁ex	-137
end	-138
ess	-139
ie	-140
▁ce	-141
ers	-142
que	-143
ff	-144
lement	-145
▁dans	-146
▁not	-147
▁me	-148
ion	-149
ag	-150
▁commission	-151
ne	-152
se	-153
▁ha	-154
mb	-155
out	-156
op	-157
ain	-158
▁je	-159
oul	-160
iti	-161
▁pl	-162
ure	-163
▁est	-164
▁are	-165
▁qui	-166
▁une	-167
ver	-168
ill	-169
▁pas	-170
ér	-171
de	-172
ay	-173
ont	-174
▁ré	-175
ith	-176
ow	-177
▁il	-178
ate	-179
▁y	-180
▁with	-181
▁ra	-182
▁sur	-183
ould	-184
▁ac	-185
▁ch	-186
ité	-187
li	-188
▁have	-189
ux	-190
▁europe	-191
ore	-192
▁st	-193
▁so	-194
res	-195
tre	-196
▁do	-197
▁ét	-198
oun	-199
tions	-200
pé	-201
▁pré	-202
ich	-203
▁imp	-204
ue	-205
▁pol	-206
st	-207
tive	-208
and	-209
ations	-210
▁tr	-211
▁at	-212
▁mon	-213
▁which	-214
im	-215
ac	-216
di	-217
▁prop	-218
▁res	-219
ke	-220
▁pe	-221
sid	-222
ence	-223
les	-224
ée	-225
▁sa	-226
ord	-227
ity	-228
ement	-229
pr	-230
iv	-231
th	-232
ens	-233
ad	-234
oin	-235
▁sh	-236
▁conc	-237
▁will	-238
▁am	-239
ère	-240
▁europé	-241
▁cet	-242
▁ag	-243
▁mr	-244
▁dis	-245
▁by	-246
▁cons	-247
pport	-248
mes	-249
▁pres	-250
▁tra	-251
ance	-252
aire	-253
urs	-254
▁european	-255
du	-256
able	-257
▁av	-258
▁-	-259
▁has	-260
ble	-261
ts	-262
▁européen	-263
00	-264
ust	-265
tic	-266
▁coun	-267
ven	-268
▁li	-269
▁plus	-270
am	-271
▁memb	-272
oc	-273
vel	-274
▁gr	-275
▁app	-276
▁ad	-277
osi	-278
▁all	-279
▁cette	-280
▁there	-281
igh	-282
▁comp	-283
▁1	-284
▁inter	-285
con	-286
ait	-287
ard	-288
ies	-289
▁or	-290
au	-291
▁politi	-292
port	-293
ments	-294
for	-295
▁ser	-296
ction	-297
ted	-298
sie	-299
▁mo	-300
ques	-301
▁présid	-302
ident	-303
ès	-304
ces	-305
ud	-306
bl	-307
um	-308
elle	-309
ert	-310
ten	-311
so	-312
▁di	-313
ég	-314
tit	-315
▁fin	-316
ution	-317
cess	-318
▁co	-319
ist	-320
▁ques	-321
▁si	-322
ise	-323
▁dire	-324
▁2	-325
ern	-326
rom	-327
ament	-328
▁ab	-329
ient	-330
▁import	-331
tif	-332
▁would	-333
ées	-334
une	-335
▁aux	-336
▁can	-337
être	-338
▁mais	-339
ays	-340
▁dev	-341
air	-342
ult	-343
▁sont	-344
▁président	-345
ves	-346
▁cr	-347
ats	-348
▁ent	-349
ien	-350
▁reg	-351
age	-352
▁propos	-353
▁cont	-354
▁he	-355
▁eff	-356
▁but	-357
▁also	-358
▁pre	-359
▁us	-360
ique	-361
▁ave	-362
▁our	-363
ge	-364
▁int	-365
▁must	-366
▁should	-367
cial	-368
oir	-369
ale	-370
▁mar	-371
▁president	-372
▁som	-373
▁man	-374
ions	-375
▁ta	-376
▁pu	-377
ctive	-378
▁aut	-379
▁no	-380
sieur	-381
▁monsieur	-382
▁tout	-383
ite	-384
▁dem	-385
je	-386
▁pos	-387
up	-388
▁don	-389
ors	-390
▁from	-391
▁poin	-392
ates	-393
erm	-394
▁wor	-395
▁commun	-396
lo	-397
ures	-398
▁avec	-399
▁ces	-400
▁acc	-401
▁ins	-402
cl	-403
ign	-404
▁vo	-405
▁européenne	-406
▁been	-407
▁str	-408
cis	-409
▁go	-410
▁parlement	-411
▁union	-412
▁rapport	-413
▁te	-414
▁ob	-415
ais	-416
ib	-417
form	-418
ally	-419
▁cl	-420
osition	-421
▁you	-422
▁sou	-423
ière	-424
▁être	-425
▁parli	-426
▁k	-427
▁question	-428
ap	-429
ét	-430
fic	-431
ish	-432
ose	-433
▁pays	-434
ier	-435
▁report	-436
▁cel	-437
▁prog	-438
ussi	-439
▁parliament	-440
▁cert	-441
aut	-442
all	-443
og	-444
alement	-445
aux	-446
▁ou	-447
ese	-448
▁ar	-449
▁trans	-450
▁important	-451
▁diff	-452
▁was	-453
▁fait	-454
▁conse	-455
od	-456
ational	-457
▁été	-458
ace	-459
ond	-460
cil	-461
velop	-462
use	-463
▁certain	-464
▁vous	-465
▁part	-466
conom	-467
▁amend	-468
ong	-469
▁ver	-470
its	-471
▁ég	-472
▁countr	-473
com	-474
▁its	-475
▁these	-476
▁ont	-477
aires	-478
▁mes	-479
▁more	-480
ème	-481
union	-482
gh	-483
cep	-484
ary	-485
fin	-486
orte	-487
▁comme	-488
ail	-489
oup	-490
king	-491
ive	-492
pect	-493
▁parti	-494
▁they	-495
▁conseil	-496
▁what	-497
ues	-498
ang	-499
én	-500
▁(	-501
▁cour	-502
ime	-503
ight	-504
▁rel	-505
▁conf	-506
▁politique	-507
ther	-508
av	-509
ati	-510
▁council	-511
▁concern	-512
▁like	-513
▁pers	-514
▁states	-515
▁how	-516
ême	-517
▁produ	-518
ice	-519
▁el	-520
ear	-521
ésent	-522
ine	-523
▁états	-524
▁out	-525
che	-526
reat	-527
ouv	-528
▁tou	-529
▁op	-530
▁need	-531
▁point	-532
▁sit	-533
ticul	-534
▁if	-535
fore	-536
èg	-537
▁rem	-538
▁entre	-539
cip	-540
▁col	-541
ase	-542
ell	-543
▁particul	-544
ai	-545
sible	-546
isation	-547
ui	-548
▁sy	-549
lic	-550
▁dro	-551
arg	-552
til	-553
▁également	-554
▁my	-555
ide	-556
uation	-557
▁trav	-558
her	-559
▁very	-560
▁min	-561
▁aussi	-562
ative	-563
▁their	-564
▁exp	-565
▁member	-566
▁than	-567
are	-568
▁rapp	-569
par	-570
▁200	-571
▁sub	-572
▁ter	-573
▁intern	-574
ca	-575
▁cela	-576
▁rés	-577
▁one	-578
▁who	-579
▁notre	-580
éd	-581
▁contr	-582
olution	-583
▁disc	-584
get	-585
▁bien	-586
ms	-587
ants	-588
ois	-589
▁polic	-590
▁nom	-591
jet	-592
ram	-593
ough	-594
nement	-595
▁rég	-596
▁car	-597
ense	-598
▁up	-599
▁bud	-600
onn	-601
▁faire	-602
▁prin	-603
▁fe	-604
▁membres	-605
cur	-606
▁resp	-607
ric	-608
▁commit	-609
ités	-610
vent	-611
cy	-612
▁countries	-613
enti	-614
▁other	-615
▁fr	-616
▁enc	-617
▁br	-618
vir	-619
▁program	-620
jour	-621
titu	-622
▁peut	-623
ex	-624
els	-625
▁about	-626
bre	-627
▁?	-628
▁ind	-629
▁situation	-630
▁nou	-631
▁doit	-632
ated	-633
▁dép	-634
▁iss	-635
▁très	-636
tru	-637
ande	-638
▁spe	-639
abil	-640
▁work	-641
iter	-642
▁avons	-643
▁consid	-644
ely	-645
▁directive	-646
▁appro	-647
▁und	-648
▁tous	-649
oud	-650
▁même	-651
ieve	-652
eu	-653
▁act	-654
viron	-655
▁jus	-656
▁peop	-657
▁:	-658
▁agre	-659
▁bel	-660
▁es	-661
▁proposal	-662
bil	-663
▁son	-664
▁deux	-665
blic	-666
vis	-667
▁only	-668
▁year	-669
oi	-670
▁rec	-671
ouver	-672
▁non	-673
endre	-674
▁aff	-675
ach	-676
▁now	-677
▁leg	-678
▁bet	-679
▁adop	-680
▁policy	-681
▁fir	-682
▁people	-683
isl	-684
rais	-685
▁rapporte	-686
▁leur	-687
ante	-688
▁lors	-689
mple	-690
▁inc	-691
rois	-692
vention	-693
▁time	-694
▁any	-695
▁therefore	-696
▁perm	-697
euro	-698
▁finan	-699
gan	-700
▁présent	-701
▁hum	-702
ced	-703
min	-704
▁develop	-705
▁sé	-706
▁new	-707
▁né	-708
cal	-709
▁again	-710
ever	-711
▁ass	-712
▁social	-713
ost	-714
▁some	-715
ements	-716
ises	-717
▁public	-718
▁probl	-719
cte	-720
rait	-721
▁obje	-722
▁support	-723
ocra	-724
▁déb	-725
if	-726
elles	-727
▁vot	-728
▁budget	-729
▁emp	-730
▁main	-731
▁"	-732
und	-733
▁cas	-734
▁soci	-735
ici	-736
▁ref	-737
▁per	-738
we	-739
▁group	-740
oy	-741
▁nos	-742
act	-743
lear	-744
▁év	-745
▁process	-746
▁voud	-747
▁travail	-748
▁first	-749
99	-750
▁however	-751
app	-752
ks	-753
ities	-754
▁rep	-755
lé	-756
▁possible	-757
iques	-758
▁long	-759
ner	-760
ious	-761
▁vote	-762
▁elle	-763
▁coll	-764
▁coop	-765
▁beca	-766
▁inform	-767
▁take	-768
ille	-769
ind	-770
▁donc	-771
▁ro	-772
acc	-773
▁rapporteur	-774
▁men	-775
▁devons	-776
ères	-777
cept	-778
sions	-779
▁prote	-780
▁because	-781
▁serv	-782
▁vie	-783
ia	-784
▁accord	-785
▁ann	-786
▁contin	-787
▁committe	-788
▁sign	-789
▁pouv	-790
▁toute	-791
▁voudrais	-792
isse	-793
▁make	-794
▁see	-795
alis	-796
▁inv	-797
▁fond	-798
▁when	-799
tis	-800
▁deb	-801
aine	-802
ress	-803
▁contre	-804
ulation	-805
▁u	-806
érie	-807
▁princip	-808
▁mad	-809
▁prem	-810
▁mat	-811
▁disp	-812
cision	-813
▁nombre	-814
▁proposition	-815
ob	-816
ere	-817
tière	-818
mm	-819
pend	-820
▁such	-821
▁encore	-822
▁committee	-823
ustr	-824
▁being	-825
▁fact	-826
ents	-827
▁environ	-828
▁national	-829
▁commiss	-830
mber	-831
▁dom	-832
▁clear	-833
▁respect	-834
▁proble	-835
▁gu	-836
order	-837
▁terr	-838
ights	-839
▁organ	-840
▁into	-841
alité	-842
ences	-843
now	-844
▁econom	-845
▁rais	-846
▁actu	-847
▁say	-848
▁form	-849
iss	-850
rer	-851
▁place	-852
▁nécess	-853
▁ca	-854
▁effe	-855
▁commissioner	-856
▁gen	-857
▁rép	-858
▁march	-859
▁met	-860
▁pri	-861
▁fund	-862
lu	-863
▁commissaire	-864
sibil	-865
ices	-866
▁3	-867
▁those	-868
▁bas	-869
▁faut	-870
▁lib	-871
▁position	-872
titution	-873
▁way	-874
ween	-875
▁between	-876
ph	-877
▁rights	-878
▁programme	-879
▁règ	-880
ards	-881
▁lég	-882
ink	-883
▁human	-884
day	-885
▁droits	-886
céd	-887
▁ses	-888
larg	-889
▁nu	-890
▁particular	-891
▁fut	-892
▁made	-893
▁vis	-894
▁dém	-895
ctif	-896
▁mark	-897
▁af	-898
▁ren	-899
▁great	-900
▁mill	-901
cti	-902
xt	-903
vern	-904
ency	-905
▁them	-906
ree	-907
▁were	-908
▁demand	-909
▁soit	-910
▁permet	-911
▁sans	-912
▁over	-913
chn	-914
▁quel	-915
ound	-916
ken	-917
iste	-918
▁personn	-919
ld	-920
▁économ	-921
▁questions	-922
urr	-923
▁know	-924
veloppe	-925
▁political	-926
ast	-927
led	-928
▁dont	-929
▁ain	-930
one	-931
cer	-932
ivent	-933
gr	-934
mps	-935
▁ainsi	-936
jourd	-937
▁believe	-938
ass	-939
▁ess	-940
ip	-941
▁peu	-942
oins	-943
▁many	-944
arm	-945
▁repr	-946
cu	-947
▁state	-948
ositions	-949
abl	-950
ting	-951
ied	-952
▁sol	-953
▁communaut	-954
▁débat	-955
▁développe	-956
ural	-957
eration	-958
ération	-959
▁international	-960
erci	-961
▁requ	-962
▁cap	-963
▁issue	-964
▁dern	-965
▁debate	-966
▁contrib	-967
olog	-968
▁right	-969
▁pra	-970
ann	-971
▁matière	-972
▁ever	-973
▁tw	-974
europe	-975
▁vi	-976
▁market	-977
curité	-978
ject	-979
▁protection	-980
ame	-981
▁sp	-982
cr	-983
ôle	-984
mble	-985
▁too	-986
▁prov	-987
▁initi	-988
équ	-989
▁déj	-990
come	-991
▁att	-992
eral	-993
▁déjà	-994
ales	-995
ug	-996
▁supp	-997
▁ve	-998
ating	-999
tique	-1000
int	-1001
▁sécurité	-1002
▁cent	-1003
ins	-1004
▁just	-1005
▁collèg	-1006
▁rest	-1007
▁développement	-1008
tention	-1009
200	-1010
ables	-1011
itoy	-1012
▁even	-1013
ctions	-1014
▁condi	-1015
▁tur	-1016
▁aujourd	-1017
loy	-1018
ved	-1019
auc	-1020
ful	-1021
▁suis	-1022
oupe	-1023
▁ens	-1024
▁against	-1025
erne	-1026
▁mal	-1027
aient	-1028
▁govern	-1029
▁sav	-1030
▁sommes	-1031
ope	-1032
venir	-1033
onne	-1034
▁does	-1035
wn	-1036
adre	-1037
▁cor	-1038
ellement	-1039
ste	-1040
▁agric	-1041
red	-1042
▁aid	-1043
▁ris	-1044
▁respons	-1045
read	-1046
ulture	-1047
▁techn	-1048
ances	-1049
hui	-1050
▁jour	-1051
ième	-1052
dies	-1053
▁incl	-1054
▁port	-1055
tiv	-1056
uct	-1057
▁citoy	-1058
▁maj	-1059
▁199	-1060
imin	-1061
ange	-1062
▁under	-1063
▁secon	-1064
▁major	-1065
atives	-1066
▁regard	-1067
▁concerne	-1068
▁nouvel	-1069
▁seu	-1070
▁syste	-1071
▁gén	-1072
▁doivent	-1073
ited	-1074
▁fra	-1075
islation	-1076
▁dur	-1077
▁meas	-1078
▁pense	-1079
not	-1080
▁want	-1081
éra	-1082
▁prof	-1083
▁convention	-1084
▁future	-1085
oris	-1086
▁nat	-1087
▁prom	-1088
▁two	-1089
▁groupe	-1090
▁manière	-1091
▁economic	-1092
▁here	-1093
ak	-1094
iers	-1095
ute	-1096
▁cannot	-1097
erg	-1098
▁transport	-1099
▁every	-1100
▁well	-1101
èmes	-1102
▁souh	-1103
arge	-1104
▁services	-1105
cher	-1106
▁view	-1107
ack	-1108
▁pass	-1109
▁mrs	-1110
▁mu	-1111
tes	-1112
iment	-1113
▁community	-1114
▁institu	-1115
▁discus	-1116
▁end	-1117
ret	-1118
▁development	-1119
▁aur	-1120
▁think	-1121
▁essenti	-1122
oth	-1123
anti	-1124
▁syst	-1125
▁good	-1126
rodu	-1127
▁where	-1128
▁gouver	-1129
▁action	-1130
▁matter	-1131
▁could	-1132
▁giv	-1133
▁last	-1134
▁second	-1135
▁droit	-1136
uer	-1137
▁mesures	-1138
ving	-1139
▁expr	-1140
▁years	-1141
▁had	-1142
▁afin	-1143
go	-1144
▁4	-1145
▁effort	-1146
▁fav	-1147
▁tant	-1148
ety	-1149
ils	-1150
ings	-1151
ical	-1152
▁order	-1153
▁prior	-1154
▁today	-1155
▁où	-1156
▁5	-1157
▁same	-1158
ication	-1159
▁institutions	-1160
▁crois	-1161
lem	-1162
▁term	-1163
▁amendments	-1164
▁fi	-1165
▁souhait	-1166
▁lim	-1167
▁environment	-1168
▁members	-1169
▁nouve	-1170
▁problème	-1171
till	-1172
▁avant	-1173
▁may	-1174
▁nive	-1175
ready	-1176
▁already	-1177
▁différ	-1178
▁exe	-1179
▁mod	-1180
▁much	-1181
▁incre	-1182
▁said	-1183
▁sera	-1184
ateurs	-1185
▁world	-1186
▁procéd	-1187
▁dit	-1188
elf	-1189
nes	-1190
sive	-1191
▁points	-1192
▁high	-1193
▁within	-1194
▁'	-1195
▁grand	-1196
▁why	-1197
eng	-1198
▁cadre	-1199
▁use	-1200
abilité	-1201
▁leurs	-1202
▁organis	-1203
mis	-1204
▁off	-1205
bli	-1206
cted	-1207
▁most	-1208
quer	-1209
▁accept	-1210
▁still	-1211
uses	-1212
▁conv	-1213
itiz	-1214
▁citiz	-1215
▁present	-1216
▁course	-1217
▁minis	-1218
imp	-1219
hing	-1220
▁mont	-1221
près	-1222
▁plan	-1223
▁gar	-1224
▁souti	-1225
▁autres	-1226
▁simp	-1227
ente	-1228
▁diffic	-1229
▁industr	-1230
▁marché	-1231
▁ach	-1232
▁ten	-1233
ory	-1234
▁set	-1235
▁madame	-1236
fe	-1237
▁citoyens	-1238
▁country	-1239
▁hope	-1240
quoi	-1241
▁ext	-1242
mbl	-1243
ticle	-1244
▁pourquoi	-1245
▁your	-1246
▁struct	-1247
▁imm	-1248
▁sin	-1249
▁fur	-1250
▁mme	-1251
▁dou	-1252
▁suff	-1253
▁conditions	-1254
ari	-1255
▁temps	-1256
ently	-1257
agit	-1258
▁mis	-1259
▁mé	-1260
▁common	-1261
/200	-1262
▁eng	-1263
▁déf	-1264
autres	-1265
▁auc	-1266
▁pa	-1267
▁sein	-1268
▁cré	-1269
▁ret	-1270
▁objectif	-1271
▁contra	-1272
uis	-1273
ieu	-1274
-0	-1275
▁dra	-1276
▁put	-1277
▁politiques	-1278
ources	-1279
▁conclu	-1280
▁ils	-1281
▁measures	-1282
▁then	-1283
▁information	-1284
fois	-1285
▁far	-1286
▁certains	-1287
▁thank	-1288
he	-1289
▁pop	-1290
oll	-1291
▁cha	-1292
wor	-1293
▁differ	-1294
ile	-1295
ctives	-1296
éli	-1297
▁remerci	-1298
▁suc	-1299
▁taken	-1300
▁nor	-1301
▁ans	-1302
▁his	-1303
▁own	-1304
▁compr	-1305
▁agreement	-1306
▁effet	-1307
▁democra	-1308
urg	-1309
ual	-1310
sieurs	-1311
▁level	-1312
clar	-1313
▁rev	-1314
▁oc	-1315
▁citizens	-1316
ules	-1317
▁both	-1318
▁vue	-1319
▁niveau	-1320
▁respon	-1321
amment	-1322
rough	-1323
▁posi	-1324
▁personnes	-1325
esp	-1326
▁dep	-1327
▁hel	-1328
vre	-1329
▁amendements	-1330
▁sout	-1331
▁ban	-1332
▁démocra	-1333
▁toutes	-1334
▁nég	-1335
▁arr	-1336
ration	-1337
▁implement	-1338
▁fois	-1339
▁ful	-1340
ages	-1341
▁représent	-1342
▁curr	-1343
▁collègues	-1344
▁réf	-1345
ler	-1346
▁che	-1347
▁system	-1348
▁entrepr	-1349
▁mom	-1350
▁employ	-1351
▁able	-1352
issement	-1353
▁reas	-1354
▁through	-1355
▁sujet	-1356
dition	-1357
cts	-1358
▁grande	-1359
lex	-1360
▁case	-1361
▁exa	-1362
▁moy	-1363
▁ph	-1364
▁déc	-1365
éri	-1366
▁let	-1367
ré	-1368
aucoup	-1369
ality	-1370
▁trois	-1371
art	-1372
▁beaucoup	-1373
▁domaine	-1374
▁particip	-1375
ouse	-1376
land	-1377
▁déput	-1378
▁treat	-1379
▁beh	-1380
▁opin	-1381
met	-1382
row	-1383
▁effic	-1384
▁secte	-1385
lication	-1386
erv	-1387
▁auth	-1388
▁mil	-1389
▁interest	-1390
ront	-1391
pportun	-1392
▁add	-1393
▁abs	-1394
▁number	-1395
▁indi	-1396
▁before	-1397
aines	-1398
▁moins	-1399
▁proced	-1400
▁cooperation	-1401
▁problem	-1402
▁law	-1403
▁deal	-1404
ov	-1405
elon	-1406
ial	-1407
ines	-1408
▁mention	-1409
▁lieu	-1410
▁sc	-1411
ordin	-1412
▁éle	-1413
comm	-1414
▁inf	-1415
▁chang	-1416
▁esp	-1417
▁moment	-1418
▁cand	-1419
tern	-1420
▁tot	-1421
ition	-1422
cisions	-1423
era	-1424
▁fon	-1425
▁candid	-1426
▁ask	-1427
▁amendment	-1428
omm	-1429
▁donn	-1430
▁raison	-1431
▁conséqu	-1432
▁exist	-1433
▁règlement	-1434
▁parce	-1435
alth	-1436
▁anim	-1437
▁viol	-1438
▁invol	-1439
▁docu	-1440
▁asse	-1441
ains	-1442
▁projet	-1443
▁ceux	-1444
▁avoir	-1445
▁économique	-1446
▁première	-1447
êt	-1448
▁autre	-1449
ôt	-1450
ctor	-1451
▁demande	-1452
ific	-1453
▁aspect	-1454
▁financi	-1455
▁financial	-1456
▁processus	-1457
▁speci	-1458
▁val	-1459
▁adopt	-1460
▁propositions	-1461
▁means	-1462
▁compte	-1463
▁opportun	-1464
▁area	-1465
▁impro	-1466
▁ir	-1467
▁jur	-1468
▁savoir	-1469
▁united	-1470
▁z	-1471
accord	-1472
▁bes	-1473
▁monde	-1474
▁legal	-1475
▁clos	-1476
▁example	-1477
▁ple	-1478
▁inde	-1479
ount	-1480
▁pouvoir	-1481
jours	-1482
▁toujours	-1483
work	-1484
▁voul	-1485
erc	-1486
▁problèmes	-1487
blig	-1488
ivers	-1489
▁without	-1490
▁house	-1491
▁base	-1492
tim	-1493
▁comb	-1494
▁relations	-1495
▁necess	-1496
▁med	-1497
▁achieve	-1498
▁efforts	-1499
▁consider	-1500
▁possibil	-1501
▁système	-1502
▁intér	-1503
▁repres	-1504
▁since	-1505
▁sous	-1506
▁seulement	-1507
▁importance	-1508
xte	-1509
ild	-1510
▁rap	-1511
▁issues	-1512
vision	-1513
▁recon	-1514
▁author	-1515
▁solution	-1516
▁commune	-1517
▁lo	-1518
▁given	-1519
▁pen	-1520
aiss	-1521
▁effective	-1522
▁transpar	-1523
▁wish	-1524
ether	-1525
érence	-1526
pri	-1527
▁give	-1528
▁government	-1529
▁soul	-1530
▁four	-1531
▁char	-1532
▁contro	-1533
▁;	-1534
▁gent	-1535
▁difficult	-1536
▁aw	-1537
▁gentlem	-1538
▁activ	-1539
action	-1540
ément	-1541
▁partie	-1542
omen	-1543
▁vol	-1544
▁nature	-1545
▁ensure	-1546
▁toutefois	-1547
▁mainten	-1548
5-0	-1549
alf	-1550
▁bi	-1551
▁prot	-1552
▁cre	-1553
▁conn	-1554
▁progress	-1555
▁européens	-1556
ollow	-1557
▁après	-1558
▁gentlemen	-1559
▁résolution	-1560
own	-1561
▁fo	-1562
tice	-1563
▁fish	-1564
▁reform	-1565
▁presid	-1566
▁follow	-1567
▁ladies	-1568
▁concernant	-1569
▁stand	-1570
oire	-1571
▁instru	-1572
▁.	-1573
alog	-1574
▁problems	-1575
▁health	-1576
▁région	-1577
ft	-1578
▁secur	-1579
▁allow	-1580
▁opp	-1581
enir	-1582
▁rules	-1583
▁bal	-1584
▁id	-1585
rop	-1586
aî	-1587
▁po	-1588
▁gouvernement	-1589
tement	-1590
▁util	-1591
▁comment	-1592
raph	-1593
omme	-1594
▁mettre	-1595
▁serait	-1596
ital	-1597
ém	-1598
▁const	-1599
ene	-1600
▁ke	-1601
▁ici	-1602
▁introdu	-1603
▁suiv	-1604
asi	-1605
utions	-1606
▁ste	-1607
mblée	-1608
▁fé	-1609
▁lead	-1610
▁pouvons	-1611
▁déclar	-1612
ately	-1613
▁depuis	-1614
▁6	-1615
▁jurid	-1616
▁exemple	-1617
ability	-1618
▁consomm	-1619
▁opinion	-1620
▁proposals	-1621
▁présidence	-1622
emp	-1623
ablish	-1624
agement	-1625
ian	-1626
▁appli	-1627
▁refer	-1628
oration	-1629
▁fem	-1630
▁décision	-1631
▁bl	-1632
ouve	-1633
▁coopération	-1634
ateg	-1635
▁colle	-1636
quelle	-1637
lob	-1638
▁laquelle	-1639
atif	-1640
▁garanti	-1641
▁constitution	-1642
atég	-1643
▁exc	-1644
▁mise	-1645
▁votre	-1646
entes	-1647
alogue	-1648
▁resolution	-1649
alisation	-1650
▁dès	-1651
▁security	-1652
▁prév	-1653
▁civ	-1654
▁prendre	-1655
▁claire	-1656
cipe	-1657
▁nécessaire	-1658
▁criti	-1659
▁presidency	-1660
irm	-1661
hé	-1662
▁after	-1663
▁includ	-1664
▁programmes	-1665
▁necessary	-1666
oci	-1667
▁priv	-1668
▁wel	-1669
tiques	-1670
▁specific	-1671
▁compé	-1672
▁decision	-1673
▁further	-1674
▁hand	-1675
ater	-1676
▁fondament	-1677
▁establish	-1678
▁atte	-1679
▁oblig	-1680
▁meet	-1681
dic	-1682
▁commer	-1683
▁renfor	-1684
▁large	-1685
▁equ	-1686
duc	-1687
entif	-1688
vid	-1689
▁négoci	-1690
▁region	-1691
lément	-1692
unis	-1693
▁continue	-1694
▁alors	-1695
▁comprom	-1696
▁require	-1697
ck	-1698
▁terroris	-1699
urer	-1700
▁fonction	-1701
▁devrait	-1702
▁sens	-1703
ude	-1704
▁modi	-1705
▁secteur	-1706
▁deuxième	-1707
▁selon	-1708
▁cours	-1709
▁compe	-1710
▁call	-1711
▁soient	-1712
▁soutien	-1713
bour	-1714
▁fre	-1715
▁enlarg	-1716
▁sm	-1717
▁dialogue	-1718
▁help	-1719
▁women	-1720
▁areas	-1721
▁attention	-1722
goti	-1723
▁résult	-1724
▁traité	-1725
▁particulière	-1726
▁whether	-1727
▁ty	-1728
▁défin	-1729
ira	-1730
▁adopted	-1731
▁présidente	-1732
▁justice	-1733
▁ele	-1734
▁subject	-1735
▁était	-1736
hip	-1737
▁députés	-1738
ning	-1739
▁quelques	-1740
▁ni	-1741
▁basis	-1742
cup	-1743
▁loc	-1744
▁glob	-1745
▁control	-1746
▁contrôle	-1747
iens	-1748
▁principe	-1749
irc	-1750
▁particularly	-1751
▁fer	-1752
▁done	-1753
▁publi	-1754
▁gra	-1755
ry	-1756
▁negoti	-1757
▁lut	-1758
▁là	-1759
çon	-1760
ression	-1761
▁ress	-1762
▁satis	-1763
▁bar	-1764
▁frame	-1765
▁rôle	-1766
▁saf	-1767
▁satisf	-1768
aly	-1769
ird	-1770
▁spé	-1771
▁appropri	-1772
anc	-1773
▁concerned	-1774
▁peuvent	-1775
▁lui	-1776
pendant	-1777
▁entreprises	-1778
gment	-1779
▁conte	-1780
ole	-1781
▁rédu	-1782
▁lis	-1783
heure	-1784
▁legislation	-1785
▁inte	-1786
▁années	-1787
êche	-1788
▁word	-1789
▁few	-1790
largissement	-1791
▁elles	-1792
kes	-1793
▁sant	-1794
év	-1795
ty	-1796
▁loo	-1797
▁represent	-1798
▁enfin	-1799
usement	-1800
▁express	-1801
soci	-1802
▁open	-1803
▁admin	-1804
▁subst	-1805
mment	-1806
▁constitu	-1807
ward	-1808
▁fonds	-1809
▁competi	-1810
▁serious	-1811
▁recomm	-1812
▁join	-1813
▁consum	-1814
nent	-1815
erst	-1816
▁dec	-1817
▁fam	-1818
▁different	-1819
▁framework	-1820
▁constru	-1821
▁next	-1822
▁mesure	-1823
▁nouveau	-1824
▁réfor	-1825
▁sch	-1826
▁communication	-1827
ss	-1828
avant	-1829
▁pay	-1830
▁happ	-1831
▁félic	-1832
elves	-1833
▁2000	-1834
▁positive	-1835
▁notamment	-1836
▁tal	-1837
▁nouvelle	-1838
pl	-1839
▁obs	-1840
▁reconn	-1841
▁pal	-1842
▁pow	-1843
▁nations	-1844
▁pat	-1845
▁milit	-1846
hésion	-1847
aill	-1848
▁production	-1849
▁bus	-1850
▁vra	-1851
▁face	-1852
▁initiative	-1853
▁particulier	-1854
la	-1855
▁rece	-1856
raient	-1857
▁enlargement	-1858
▁shall	-1859
tie	-1860
ties	-1861
airs	-1862
▁third	-1863
▁façon	-1864
▁safety	-1865
▁bon	-1866
ething	-1867
▁terms	-1868
amin	-1869
▁responsibil	-1870
esse	-1871
side	-1872
▁vic	-1873
other	-1874
▁regulation	-1875
▁something	-1876
▁%	-1877
▁role	-1878
homme	-1879
▁pris	-1880
▁come	-1881
leurs	-1882
▁sociét	-1883
▁offic	-1884
▁circ	-1885
▁nation	-1886
vement	-1887
▁santé	-1888
ières	-1889
▁favour	-1890
▁parties	-1891
▁whole	-1892
▁coordin	-1893
▁discussion	-1894
ased	-1895
▁proch	-1896
▁population	-1897
▁recher	-1898
▁autor	-1899
ieux	-1900
▁remar	-1901
▁liv	-1902
▁approach	-1903
asse	-1904
▁quite	-1905
su	-1906
amend	-1907
orer	-1908
▁besoin	-1909
▁premier	-1910
quel	-1911
▁war	-1912
▁tax	-1913
▁trop	-1914
▁femmes	-1915
att	-1916
▁procédure	-1917
▁principle	-1918
ided	-1919
▁absol	-1920
▁fundament	-1921
opp	-1922
antes	-1923
gg	-1924
▁va	-1925
▁procedure	-1926
istes	-1927
▁reason	-1928
▁cependant	-1929
▁behalf	-1930
▁culture	-1931
▁soulign	-1932
▁moi	-1933
▁mor	-1934
▁pêche	-1935
▁encour	-1936
▁force	-1937
ible	-1938
▁agree	-1939
▁celui	-1940
▁impos	-1941
▁proposed	-1942
▁7	-1943
old	-1944
wards	-1945
▁sal	-1946
▁article	-1947
étaire	-1948
ather	-1949
▁three	-1950
veur	-1951
ordre	-1952
▁objectifs	-1953
▁équ	-1954
dam	-1955
▁clearly	-1956
▁communautaire	-1957
▁find	-1958
▁inst	-1959
ared	-1960
bles	-1961
tin	-1962
▁result	-1963
inter	-1964
▁treaty	-1965
endu	-1966
érieur	-1967
▁bonne	-1968
▁millions	-1969
▁sector	-1970
▁unique	-1971
▁11	-1972
▁faveur	-1973
▁another	-1974
istr	-1975
▁strateg	-1976
loi	-1977
ep	-1978
▁cal	-1979
▁madam	-1980
▁utilis	-1981
▁celle	-1982
ager	-1983
vious	-1984
▁vers	-1985
▁excell	-1986
▁génér	-1987
▁general	-1988
▁sus	-1989
▁produits	-1990
ultural	-1991
▁réalis	-1992
▁underst	-1993
▁get	-1994
▁aucun	-1995
▁stratég	-1996
▁répons	-1997
▁!	-1998
▁going	-1999
environ	-2000
▁sci	-2001
▁série	-2002
▁trade	-2003
oses	-2004
▁rapid	-2005
▁puis	-2006
▁better	-2007
▁ap	-2008
▁summ	-2009
itor	-2010
rons	-2011
▁dél	-2012
espère	-2013
▁juridique	-2014
ote	-2015
ctr	-2016
▁12	-2017
▁vér	-2018
▁back	-2019
▁dispos	-2020
▁forward	-2021
▁mondi	-2022
▁urg	-2023
aff	-2024
eld	-2025
▁exper	-2026
▁2001	-2027
orth	-2028
ends	-2029
▁peace	-2030
▁food	-2031
▁législation	-2032
▁aim	-2033
▁stat	-2034
▁état	-2035
▁working	-2036
igration	-2037
▁welcome	-2038
ule	-2039
▁jud	-2040
▁aspects	-2041
leg	-2042
jou	-2043
▁exig	-2044
▁dés	-2045
ode	-2046
▁discuss	-2047
▁8	-2048
erre	-2049
▁accep	-2050
▁chaque	-2051
▁meille	-2052
ateur	-2053
ised	-2054
▁actions	-2055
▁real	-2056
gu	-2057
▁technolog	-2058
▁fundamental	-2059
vers	-2060
▁régions	-2061
off	-2062
▁affairs	-2063
▁down	-2064
▁industry	-2065
▁hom	-2066
usion	-2067
▁regul	-2068
▁comple	-2069
▁19	-2070
▁sû	-2071
▁guar	-2072
▁step	-2073
▁institution	-2074
qué	-2075
▁cro	-2076
▁once	-2077
environnement	-2078
▁her	-2079
▁table	-2080
▁internation	-2081
▁million	-2082
▁constit	-2083
▁9	-2084
▁20	-2085
ways	-2086
▁sen	-2087
▁change	-2088
élargissement	-2089
ffic	-2090
▁appr	-2091
▁compan	-2092
▁maintenant	-2093
▁règles	-2094
▁précis	-2095
▁bo	-2096
▁lang	-2097
tant	-2098
▁extre	-2099
▁ira	-2100
mbre	-2101
▁améli	-2102
exp	-2103
ames	-2104
état	-2105
▁read	-2106
▁finally	-2107
▁organisations	-2108
▁minister	-2109
▁clairement	-2110
▁chose	-2111
▁nice	-2112
▁account	-2113
▁fl	-2114
▁court	-2115
▁employment	-2116
itable	-2117
▁pourrait	-2118
▁hist	-2119
▁ide	-2120
ze	-2121
êts	-2122
rions	-2123
▁small	-2124
▁jusqu	-2125
".	-2126
▁rather	-2127
▁bre	-2128
▁amb	-2129
ours	-2130
agne	-2131
▁libert	-2132
▁mois	-2133
▁crimin	-2134
▁yet	-2135
▁san	-2136
▁resear	-2137
▁bro	-2138
als	-2139
▁individ	-2140
▁research	-2141
▁used	-2142
imes	-2143
▁semble	-2144
ets	-2145
▁sw	-2146
▁moyen	-2147
▁spéci	-2148
▁needs	-2149
amendement	-2150
▁structure	-2151
▁sep	-2152
igne	-2153
▁remercier	-2154
▁defin	-2155
▁guarante	-2156
▁environmental	-2157
termin	-2158
▁seront	-2159
ock	-2160
▁concurr	-2161
lev	-2162
▁plu	-2163
ducation	-2164
▁eur	-2165
casion	-2166
avenir	-2167
▁justif	-2168
ying	-2169
▁éc	-2170
▁poursu	-2171
▁cause	-2172
▁excl	-2173
▁service	-2174
ili	-2175
▁effect	-2176
▁reste	-2177
fication	-2178
▁harm	-2179
▁15	-2180
▁really	-2181
▁lorsque	-2182
ides	-2183
▁sociale	-2184
▁did	-2185
estion	-2186
▁understand	-2187
▁fore	-2188
▁nombreux	-2189
▁addition	-2190
▁donner	-2191
▁jou	-2192
▁less	-2193
▁towards	-2194
▁during	-2195
▁tour	-2196
▁outre	-2197
▁certaines	-2198
▁toget	-2199
▁together	-2200
▁assemblée	-2201
▁bu	-2202
▁centr	-2203
▁terme	-2204
▁itself	-2205
▁current	-2206
cially	-2207
▁budg	-2208
▁freed	-2209
▁lutte	-2210
▁plusieurs	-2211
▁redu	-2212
▁quant	-2213
▁var	-2214
▁voulons	-2215
▁victi	-2216
ception	-2217
tout	-2218
abord	-2219
ran	-2220
▁project	-2221
▁recherche	-2222
tain	-2223
▁10	-2224
enda	-2225
aking	-2226
ussions	-2227
▁regret	-2228
▁cru	-2229
ey	-2230
▁solid	-2231
▁success	-2232
▁législ	-2233
▁signific	-2234
▁constitue	-2235
agn	-2236
man	-2237
▁freedom	-2238
▁responsibility	-2239
em	-2240
▁sugg	-2241
acité	-2242
▁environnement	-2243
000	-2244
▁nouvelles	-2245
érer	-2246
▁contribution	-2247
▁messieurs	-2248
▁espe	-2249
▁play	-2250
ath	-2251
▁become	-2252
▁communauté	-2253
▁document	-2254
▁dr	-2255
cing	-2256
▁congr	-2257
▁palest	-2258
▁rien	-2259
▁isra	-2260
▁adv	-2261
ogn	-2262
▁telle	-2263
▁indeed	-2264
▁especially	-2265
▁propose	-2266
▁speak	-2267
▁responsabilité	-2268
▁hon	-2269
inform	-2270
▁parag	-2271
▁never	-2272
▁finance	-2273
▁avez	-2274
▁bene	-2275
▁recogn	-2276
▁réponse	-2277
aide	-2278
▁affe	-2279
▁chers	-2280
▁inves	-2281
▁democratic	-2282
▁energ	-2283
▁opportunity	-2284
▁condu	-2285
imer	-2286
▁dernier	-2287
▁qualité	-2288
▁société	-2289
éné	-2290
▁pens	-2291
▁each	-2292
▁surtout	-2293
▁text	-2294
▁2002	-2295
ness	-2296
▁fran	-2297
per	-2298
▁look	-2299
istance	-2300
ète	-2301
▁excellent	-2302
▁always	-2303
orm	-2304
anger	-2305
▁aura	-2306
▁least	-2307
▁sommet	-2308
▁travaill	-2309
uge	-2310
▁internal	-2311
▁reach	-2312
uss	-2313
▁def	-2314
▁bring	-2315
af	-2316
él	-2317
cture	-2318
▁though	-2319
ablement	-2320
▁coordination	-2321
▁short	-2322
▁concerns	-2323
▁feel	-2324
▁exerc	-2325
▁perspe	-2326
avantage	-2327
▁consommateurs	-2328
ocr	-2329
ites	-2330
nements	-2331
entre	-2332
▁unf	-2333
ave	-2334
▁provide	-2335
▁associ	-2336
▁integr	-2337
ily	-2338
▁paragraph	-2339
ub	-2340
▁money	-2341
▁négociations	-2342
▁civil	-2343
itation	-2344
▁having	-2345
▁mul	-2346
▁greater	-2347
▁grow	-2348
▁existe	-2349
▁répond	-2350
▁objective	-2351
▁concurrence	-2352
dames	-2353
▁mesdames	-2354
▁resources	-2355
▁gre	-2356
▁energy	-2357
▁consult	-2358
iness	-2359
▁aliment	-2360
▁increase	-2361
▁sem	-2362
thing	-2363
▁voir	-2364
▁importante	-2365
time	-2366
▁authorities	-2367
itt	-2368
ession	-2369
issent	-2370
titude	-2371
tres	-2372
▁making	-2373
▁type	-2374
▁fix	-2375
▁fais	-2376
▁coh	-2377
article	-2378
ably	-2379
▁extrem	-2380
▁garantir	-2381
▁dernière	-2382
atul	-2383
▁products	-2384
▁divers	-2385
▁fourn	-2386
trib	-2387
gin	-2388
▁child	-2389
▁corre	-2390
▁congratul	-2391
▁aucune	-2392
▁certainly	-2393
ict	-2394
▁appe	-2395
aix	-2396
rimin	-2397
▁direct	-2398
▁européennes	-2399
gn	-2400
autre	-2401
▁funds	-2402
▁autorités	-2403
occup	-2404
▁paix	-2405
▁nouveaux	-2406
▁society	-2407
▁avis	-2408
▁participation	-2409
ium	-2410
▁texte	-2411
▁oper	-2412
▁regions	-2413
aps	-2414
▁access	-2415
▁final	-2416
▁negotiations	-2417
though	-2418
▁ense	-2419
▁relative	-2420
▁nécessité	-2421
▁choses	-2422
▁tit	-2423
▁année	-2424
▁davantage	-2425
▁avait	-2426
▁vig	-2427
▁involved	-2428
▁ill	-2429
▁competition	-2430
▁six	-2431
▁address	-2432
▁things	-2433
▁extremely	-2434
▁although	-2435
▁tel	-2436
ength	-2437
erence	-2438
▁direction	-2439
▁train	-2440
▁décisions	-2441
▁transf	-2442
▁volont	-2443
teurs	-2444
aboration	-2445
atis	-2446
▁coû	-2447
▁discrimin	-2448
eric	-2449
▁taking	-2450
▁various	-2451
import	-2452
▁prevent	-2453
ensemble	-2454
ches	-2455
▁réglement	-2456
aluation	-2457
▁mean	-2458
emploi	-2459
▁field	-2460
▁words	-2461
▁béné	-2462
▁réforme	-2463
▁democracy	-2464
rely	-2465
▁interests	-2466
▁septe	-2467
co	-2468
iend	-2469
▁tom	-2470
▁sec	-2471
▁sûr	-2472
▁orig	-2473
▁continu	-2474
accept	-2475
▁efficace	-2476
▁apport	-2477
▁modif	-2478
arity	-2479
▁del	-2480
▁scientif	-2481
ortun	-2482
▁decisions	-2483
▁lisb	-2484
▁analy	-2485
▁oppos	-2486
▁souhaite	-2487
idence	-2488
▁air	-2489
▁essential	-2490
util	-2491
▁enti	-2492
aît	-2493
▁minim	-2494
asing	-2495
▁press	-2496
isme	-2497
▁party	-2498
▁engag	-2499
▁fight	-2500
nel	-2501
▁show	-2502
▁ear	-2503
▁expl	-2504
▁france	-2505
▁quelque	-2506
▁vale	-2507
▁month	-2508
atique	-2509
▁souvent	-2510
▁visant	-2511
▁000	-2512
▁étant	-2513
▁candidats	-2514
▁summit	-2515
▁palestin	-2516
▁power	-2517
tisse	-2518
▁happen	-2519
▁démocratie	-2520
▁uvre	-2521
cteurs	-2522
▁resol	-2523
▁initiatives	-2524
ires	-2525
éc	-2526
▁qual	-2527
iser	-2528
▁application	-2529
▁wee	-2530
▁1999	-2531
rent	-2532
over	-2533
ilib	-2534
▁actuellement	-2535
▁donné	-2536
▁net	-2537
ension	-2538
▁anti	-2539
▁peup	-2540
▁mieux	-2541
▁différents	-2542
▁improve	-2543
▁éch	-2544
▁agenda	-2545
▁strategy	-2546
même	-2547
▁flex	-2548
▁aware	-2549
▁business	-2550
▁job	-2551
▁simply	-2552
ête	-2553
▁fully	-2554
▁examin	-2555
▁benef	-2556
▁publique	-2557
▁prix	-2558
▁seul	-2559
▁appar	-2560
iterran	-2561
▁including	-2562
ceed	-2563
▁péri	-2564
▁based	-2565
▁harmon	-2566
ick	-2567
▁moyens	-2568
rès	-2569
▁lesqu	-2570
ventions	-2571
▁progrès	-2572
▁concl	-2573
uve	-2574
▁joint	-2575
▁demander	-2576
▁violence	-2577
erve	-2578
▁free	-2579
▁voie	-2580
▁colleag	-2581
▁companies	-2582
▁internationale	-2583
▁following	-2584
▁farm	-2585
▁augment	-2586
▁intég	-2587
▁parten	-2588
▁bénéfic	-2589
▁discussions	-2590
▁person	-2591
▁ev	-2592
▁det	-2593
lim	-2594
▁décid	-2595
▁gestion	-2596
▁stratégie	-2597
ither	-2598
▁full	-2599
▁conclusions	-2600
▁policies	-2601
▁americ	-2602
▁rou	-2603
▁tiens	-2604
▁conséquent	-2605
êmes	-2606
▁objectives	-2607
▁fig	-2608
▁pot	-2609
▁event	-2610
cès	-2611
auv	-2612
▁voted	-2613
▁majority	-2614
▁tas	-2615
▁often	-2616
▁avail	-2617
ade	-2618
▁extr	-2619
▁sing	-2620
atic	-2621
▁den	-2622
▁risk	-2623
▁accom	-2624
▁conclusion	-2625
▁mess	-2626
▁collègue	-2627
▁quand	-2628
▁affaires	-2629
▁considér	-2630
▁permette	-2631
▁invest	-2632
uel	-2633
▁ait	-2634
ustain	-2635
▁strong	-2636
▁ressources	-2637
▁13	-2638
▁dét	-2639
▁fis	-2640
/2001	-2641
eless	-2642
▁implementation	-2643
▁ju	-2644
▁impli	-2645
tières	-2646
ri	-2647
▁cat	-2648
▁restric	-2649
▁acces	-2650
▁balance	-2651
▁sorte	-2652
▁complete	-2653
▁bure	-2654
ister	-2655
▁rappel	-2656
▁fall	-2657
▁croiss	-2658
istan	-2659
▁might	-2660
▁lequel	-2661
thers	-2662
▁guerre	-2663
eux	-2664
▁portug	-2665
ling	-2666
▁consequ	-2667
▁étr	-2668
▁membre	-2669
ienne	-2670
resp	-2671
qui	-2672
▁kind	-2673
▁upon	-2674
année	-2675
▁possibilité	-2676
▁prac	-2677
▁subsi	-2678
▁enf	-2679
▁documents	-2680
▁suffis	-2681
endant	-2682
ove	-2683
▁others	-2684
▁while	-2685
▁danger	-2686
▁commen	-2687
uvre	-2688
▁2003	-2689
▁aille	-2690
▁él	-2691
entr	-2692
▁legisl	-2693
mit	-2694
▁pap	-2695
érale	-2696
▁dan	-2697
▁care	-2698
▁sustain	-2699
moi	-2700
▁popul	-2701
▁foreign	-2702
▁domaines	-2703
▁trait	-2704
▁compl	-2705
▁start	-2706
▁soutenir	-2707
anim	-2708
truction	-2709
▁liberté	-2710
▁conference	-2711
haps	-2712
utes	-2713
▁perhaps	-2714
▁méd	-2715
▁conflic	-2716
▁conférence	-2717
nous	-2718
▁best	-2719
▁relation	-2720
▁général	-2721
▁connaiss	-2722
xim	-2723
ners	-2724
be	-2725
▁observ	-2726
▁remercie	-2727
▁économiques	-2728
▁emph	-2729
▁souligner	-2730
édi	-2731
▁majorité	-2732
▁peri	-2733
▁apply	-2734
▁actuelle	-2735
▁meeting	-2736
▁rural	-2737
▁period	-2738
yp	-2739
most	-2740
▁préoccup	-2741
aud	-2742
▁ensemble	-2743
velopp	-2744
▁signal	-2745
▁strength	-2746
▁instrument	-2747
▁instruments	-2748
office	-2749
▁spécif	-2750
▁destin	-2751
ibil	-2752
▁égard	-2753
▁origin	-2754
arité	-2755
tical	-2756
▁ailleurs	-2757
▁liberal	-2758
▁sim	-2759
▁reports	-2760
▁pur	-2761
▁cos	-2762
▁regional	-2763
aise	-2764
▁dim	-2765
▁receive	-2766
▁actually	-2767
▁minor	-2768
▁groupes	-2769
▁trouver	-2770
acceptable	-2771
tra	-2772
▁er	-2773
aur	-2774
▁eux	-2775
▁amér	-2776
▁agricultural	-2777
▁economy	-2778
wh	-2779
ering	-2780
▁recent	-2781
▁rapports	-2782
▁nécessaires	-2783
tifs	-2784
▁naturel	-2785
▁life	-2786
role	-2787
adhésion	-2788
▁diffici	-2789
▁ago	-2790
▁raisons	-2791
ism	-2792
udes	-2793
▁groups	-2794
▁im	-2795
▁special	-2796
▁clair	-2797
▁entendu	-2798
▁développ	-2799
▁ouver	-2800
▁remain	-2801
▁available	-2802
▁consci	-2803
enne	-2804
▁commerce	-2805
▁font	-2806
▁prés	-2807
▁intervention	-2808
ié	-2809
élé	-2810
▁nombreuses	-2811
ren	-2812
▁jam	-2813
▁single	-2814
▁juste	-2815
▁unfortun	-2816
▁litt	-2817
▁pauv	-2818
▁budgétaire	-2819
▁individual	-2820
cont	-2821
ended	-2822
istration	-2823
▁mentioned	-2824
▁impact	-2825
▁heure	-2826
▁matters	-2827
▁camp	-2828
▁secondly	-2829
hod	-2830
mselves	-2831
▁résultats	-2832
▁humanit	-2833
▁themselves	-2834
▁méth	-2835
▁potenti	-2836
▁foc	-2837
▁larg	-2838
▁answ	-2839
▁local	-2840
▁wr	-2841
quie	-2842
▁assess	-2843
▁malheure	-2844
▁confl	-2845
▁cla	-2846
▁consumer	-2847
▁developing	-2848
▁permettez	-2849
▁facil	-2850
istra	-2851
▁pros	-2852
▁déclaration	-2853
▁note	-2854
▁nationaux	-2855
cé	-2856
▁déch	-2857
▁increasing	-2858
▁partners	-2859
▁envis	-2860
▁mand	-2861
▁begin	-2862
▁compris	-2863
▁libér	-2864
ument	-2865
▁propre	-2866
less	-2867
▁demain	-2868
▁commercial	-2869
▁démocratique	-2870
▁création	-2871
▁mot	-2872
▁rapidement	-2873
▁resul	-2874
▁lorsqu	-2875
▁directives	-2876
▁central	-2877
▁administra	-2878
▁peux	-2879
▁compromis	-2880
▁crucial	-2881
▁active	-2882
▁extrême	-2883
▁devrions	-2884
▁fron	-2885
▁day	-2886
▁organisation	-2887
▁simplement	-2888
▁conten	-2889
▁method	-2890
▁parler	-2891
▁quality	-2892
information	-2893
key	-2894
▁she	-2895
fs	-2896
▁iraq	-2897
▁pratique	-2898
orrow	-2899
▁quat	-2900
▁signif	-2901
▁carr	-2902
▁seule	-2903
▁doute	-2904
▁souten	-2905
▁sais	-2906
▁voté	-2907
▁vraiment	-2908
▁obten	-2909
▁cases	-2910
▁jamais	-2911
▁faud	-2912
▁emphas	-2913
▁simple	-2914
▁contraire	-2915
tent	-2916
ars	-2917
▁date	-2918
▁tent	-2919
ghan	-2920
▁global	-2921
organ	-2922
▁agriculture	-2923
▁concerning	-2924
▁nothing	-2925
▁found	-2926
▁agreements	-2927
▁cy	-2928
▁fort	-2929
ench	-2930
ueur	-2931
▁indic	-2932
▁trouv	-2933
▁appropriate	-2934
ones	-2935
▁turkey	-2936
▁prob	-2937
▁amendement	-2938
reg	-2939
▁doing	-2940
▁étrang	-2941
ps	-2942
▁explo	-2943
▁14	-2944
▁troisième	-2945
▁responsible	-2946
▁total	-2947
eries	-2948
▁puisse	-2949
▁formul	-2950
▁currently	-2951
▁confirm	-2952
▁malheureusement	-2953
ué	-2954
▁rejet	-2955
iller	-2956
▁longer	-2957
▁aide	-2958
▁post	-2959
▁management	-2960
▁25	-2961
▁intérêts	-2962
▁him	-2963
▁risque	-2964
iés	-2965
dire	-2966
pens	-2967
▁devant	-2968
▁head	-2969
▁titre	-2970
▁trouve	-2971
▁capital	-2972
▁nav	-2973
▁due	-2974
▁cop	-2975
▁creat	-2976
▁rend	-2977
▁create	-2978
▁personne	-2979
▁request	-2980
/2000	-2981
▁context	-2982
▁reasons	-2983
▁inn	-2984
▁candidate	-2985
▁guarantee	-2986
application	-2987
imm	-2988
uite	-2989
▁rule	-2990
▁convient	-2991
▁argu	-2992
▁tomorrow	-2993
▁devraient	-2994
▁terrorism	-2995
▁contrô	-2996
▁proper	-2997
abit	-2998
▁ratif	-2999
ras	-3000
uelle	-3001
économ	-3002
▁firstly	-3003
▁poursuiv	-3004
aître	-3005
▁according	-3006
to	-3007
▁among	-3008
▁congratulate	-3009
▁difficile	-3010
uit	-3011
euros	-3012
▁profession	-3013
used	-3014
▁défense	-3015
nelle	-3016
▁draw	-3017
mi	-3018
obje	-3019
▁dispositions	-3020
▁favor	-3021
▁continuer	-3022
▁réalité	-3023
▁children	-3024
▁doub	-3025
▁celles	-3026
▁line	-3027
▁little	-3028
▁territ	-3029
▁normes	-3030
ls	-3031
▁détermin	-3032
▁inten	-3033
▁terrorisme	-3034
diction	-3035
▁standards	-3036
ief	-3037
▁orient	-3038
▁months	-3039
▁discrimination	-3040
▁draft	-3041
▁histor	-3042
▁sport	-3043
onstr	-3044
▁renforcer	-3045
▁sanctions	-3046
▁accords	-3047
▁suite	-3048
▁turquie	-3049
▁améric	-3050
▁prep	-3051
▁travailleurs	-3052
▁export	-3053
intér	-3054
▁clim	-3055
▁intérieur	-3056
the	-3057
▁réjou	-3058
▁basi	-3059
▁période	-3060
▁essentiel	-3061
▁oct	-3062
▁permettre	-3063
temps	-3064
▁projets	-3065
▁test	-3066
▁enough	-3067
eau	-3068
▁broad	-3069
▁plut	-3070
▁différentes	-3071
▁past	-3072
▁basic	-3073
orted	-3074
▁complex	-3075
▁établ	-3076
▁créer	-3077
▁key	-3078
▁tiers	-3079
▁forces	-3080
oles	-3081
erman	-3082
▁protoc	-3083
▁petit	-3084
▁thing	-3085
▁termes	-3086
▁terror	-3087
▁message	-3088
▁caract	-3089
▁lat	-3090
▁ceci	-3091
▁veut	-3092
▁volonté	-3093
▁keep	-3094
▁dépens	-3095
▁durable	-3096
unes	-3097
▁savons	-3098
▁transparence	-3099
▁div	-3100
objectif	-3101
▁sure	-3102
▁discut	-3103
▁ai	-3104
▁élev	-3105
▁peti	-3106
▁attend	-3107
igr	-3108
ody	-3109
▁manif	-3110
ators	-3111
▁cris	-3112
▁indis	-3113
▁certainement	-3114
ène	-3115
▁crit	-3116
▁rendre	-3117
▁education	-3118
▁voter	-3119
▁accepter	-3120
▁ours	-3121
visions	-3122
▁log	-3123
▁supplément	-3124
▁extrêmement	-3125
▁fondamentaux	-3126
part	-3127
rir	-3128
▁féliciter	-3129
itime	-3130
▁résultat	-3131
▁cin	-3132
tir	-3133
▁plutôt	-3134
▁results	-3135
appro	-3136
▁comes	-3137
ossi	-3138
▁principes	-3139
▁judici	-3140
▁enfants	-3141
▁workers	-3142
atory	-3143
▁libre	-3144
▁informations	-3145
▁share	-3146
intég	-3147
▁growth	-3148
▁achieved	-3149
▁nationales	-3150
▁répondre	-3151
▁strengthen	-3152
▁unfortunately	-3153
▁ministre	-3154
ha	-3155
▁crisis	-3156
▁charter	-3157
▁poll	-3158
mpl	-3159
▁regarding	-3160
▁legislative	-3161
cle	-3162
▁expect	-3163
▁compromise	-3164
▁cher	-3165
▁applic	-3166
▁ensuite	-3167
▁aurait	-3168
▁modern	-3169
arr	-3170
▁fisheries	-3171
anted	-3172
iance	-3173
▁idea	-3174
▁makes	-3175
",	-3176
term	-3177
▁combat	-3178
idemment	-3179
urd	-3180
▁monitor	-3181
▁tabled	-3182
▁stabilité	-3183
▁mobil	-3184
▁conne	-3185
▁stability	-3186
▁30	-3187
▁conséquences	-3188
indre	-3189
▁desp	-3190
▁estim	-3191
▁demonstr	-3192
▁solutions	-3193
▁police	-3194
▁indé	-3195
▁preuve	-3196
▁systems	-3197
▁croissance	-3198
▁consumers	-3199
▁altern	-3200
▁plein	-3201
importance	-3202
▁évidemment	-3203
ience	-3204
▁concr	-3205
▁budgets	-3206
▁ital	-3207
▁everyone	-3208
▁2004	-3209
▁red	-3210
▁russi	-3211
cies	-3212
éch	-3213
▁budgetary	-3214
uv	-3215
▁dist	-3216
▁true	-3217
▁charte	-3218
ailleurs	-3219
▁dernières	-3220
▁governments	-3221
▁distrib	-3222
rog	-3223
▁financement	-3224
▁significant	-3225
iner	-3226
▁ur	-3227
▁practi	-3228
▁obvious	-3229
▁loin	-3230
▁vu	-3231
..	-3232
▁previous	-3233
ists	-3234
nerg	-3235
▁plans	-3236
▁unies	-3237
▁protect	-3238
self	-3239
▁précéd	-3240
adop	-3241
▁sever	-3242
▁needed	-3243
▁contexte	-3244
▁principles	-3245
▁soon	-3246
objet	-3247
▁promo	-3248
▁quoi	-3249
aces	-3250
▁prim	-3251
ross	-3252
enh	-3253
▁présente	-3254
aments	-3255
▁until	-3256
▁coup	-3257
▁road	-3258
▁collaboration	-3259
▁sort	-3260
▁guid	-3261
▁move	-3262
▁em	-3263
industr	-3264
▁cost	-3265
▁mind	-3266
▁arm	-3267
arif	-3268
▁régime	-3269
▁marchés	-3270
eff	-3271
▁sex	-3272
▁partage	-3273
avons	-3274
▁uniquement	-3275
lin	-3276
▁entra	-3277
▁pén	-3278
▁seen	-3279
ark	-3280
▁sud	-3281
ications	-3282
quent	-3283
▁afric	-3284
iliation	-3285
▁prodi	-3286
▁occasion	-3287
▁charg	-3288
▁furth	-3289
mission	-3290
▁gree	-3291
▁closed	-3292
▁exprim	-3293
▁military	-3294
ève	-3295
▁cho	-3296
▁several	-3297
anm	-3298
▁emb	-3299
▁simil	-3300
▁swed	-3301
ortion	-3302
▁motion	-3303
▁lack	-3304
▁dimension	-3305
atifs	-3306
▁maintain	-3307
▁extra	-3308
▁afghan	-3309
ograph	-3310
▁chall	-3311
fully	-3312
▁commitment	-3313
▁van	-3314
▁agreed	-3315
▁ourselves	-3316
yl	-3317
▁début	-3318
▁prise	-3319
▁refus	-3320
▁honour	-3321
▁condition	-3322
▁formation	-3323
▁recommend	-3324
gré	-3325
▁norm	-3326
▁ay	-3327
▁costs	-3328
▁pendant	-3329
▁analys	-3330
▁aides	-3331
▁furtherm	-3332
▁signifie	-3333
▁criter	-3334
coming	-3335
▁priority	-3336
▁furthermore	-3337
▁porte	-3338
uations	-3339
▁temp	-3340
▁absolute	-3341
▁adap	-3342
▁consens	-3343
▁perspective	-3344
lig	-3345
▁accession	-3346
▁substances	-3347
dem	-3348
▁grâ	-3349
▁accident	-3350
▁trag	-3351
▁passé	-3352
▁above	-3353
▁grâce	-3354
▁tre	-3355
▁content	-3356
▁données	-3357
▁practice	-3358
prit	-3359
▁technical	-3360
inst	-3361
▁relig	-3362
▁activités	-3363
améli	-3364
utilisation	-3365
▁acqu	-3366
▁abord	-3367
▁forme	-3368
▁autant	-3369
ik	-3370
arer	-3371
▁pension	-3372
▁gouvernements	-3373
▁concept	-3374
▁answer	-3375
▁compét	-3376
omb	-3377
avoir	-3378
▁approche	-3379
industrie	-3380
▁animaux	-3381
▁statement	-3382
▁appelle	-3383
iew	-3384
ester	-3385
▁rapporteurs	-3386
▁fail	-3387
▁tels	-3388
▁évo	-3389
ix	-3390
▁quelle	-3391
▁importants	-3392
▁alimentaire	-3393
▁conform	-3394
ibles	-3395
▁structural	-3396
▁appel	-3397
▁sustainable	-3398
léments	-3399
oires	-3400
▁equal	-3401
tives	-3402
▁sl	-3403
oph	-3404
▁brit	-3405
▁directe	-3406
agric	-3407
ancer	-3408
▁telles	-3409
▁laiss	-3410
▁crime	-3411
▁inqui	-3412
▁super	-3413
▁turn	-3414
▁prépar	-3415
missions	-3416
▁exercice	-3417
▁conciliation	-3418
▁crise	-3419
▁dossi	-3420
▁safe	-3421
anmoins	-3422
▁agricole	-3423
▁code	-3424
▁néanmoins	-3425
▁mid	-3426
aged	-3427
▁convain	-3428
▁indispens	-3429
dre	-3430
▁prises	-3431
▁personnel	-3432
▁référence	-3433
ledge	-3434
▁week	-3435
rastru	-3436
▁israel	-3437
▁présenter	-3438
▁recommand	-3439
▁gener	-3440
▁acceptable	-3441
ume	-3442
▁left	-3443
▁mut	-3444
▁relev	-3445
▁respe	-3446
▁confiance	-3447
▁ber	-3448
▁belg	-3449
▁german	-3450
▁consensus	-3451
▁carried	-3452
/0	-3453
▁task	-3454
▁équilib	-3455
▁énerg	-3456
ina	-3457
ising	-3458
▁représente	-3459
udi	-3460
ilat	-3461
▁côt	-3462
▁pourra	-3463
roph	-3464
▁sensi	-3465
ban	-3466
▁merci	-3467
▁immigration	-3468
▁stage	-3469
▁provided	-3470
▁transparency	-3471
▁repe	-3472
▁langu	-3473
▁stress	-3474
▁rus	-3475
osov	-3476
▁traffic	-3477
▁french	-3478
▁activities	-3479
▁dise	-3480
mpt	-3481
▁flexibil	-3482
▁franç	-3483
èle	-3484
▁build	-3485
▁transports	-3486
▁subsidi	-3487
ght	-3488
▁kosov	-3489
▁seems	-3490
verg	-3491
▁authority	-3492
▁meilleure	-3493
▁approuv	-3494
▁univers	-3495
▁purp	-3496
▁star	-3497
edi	-3498
tile	-3499
▁tradition	-3500
▁réellement	-3501
venu	-3502
▁close	-3503
▁heures	-3504
▁compet	-3505
▁despite	-3506
▁manque	-3507
▁parvenir	-3508
iennent	-3509
▁low	-3510
▁grandes	-3511
▁mort	-3512
▁water	-3513
▁protég	-3514
ature	-3515
▁véritable	-3516
cent	-3517
▁reconnaiss	-3518
▁influ	-3519
▁projects	-3520
vous	-3521
▁systèmes	-3522
▁presented	-3523
▁critères	-3524
▁absolument	-3525
▁rappeler	-3526
▁consultation	-3527
▁sad	-3528
orient	-3529
▁doubt	-3530
▁independ	-3531
né	-3532
▁considéra	-3533
▁experience	-3534
▁conflict	-3535
▁asked	-3536
▁dam	-3537
▁dépos	-3538
itim	-3539
tien	-3540
▁reç	-3541
▁souhaiter	-3542
▁capac	-3543
ron	-3544
aster	-3545
▁everything	-3546
ained	-3547
initi	-3548
ought	-3549
▁paper	-3550
▁ground	-3551
▁mission	-3552
▁quick	-3553
▁accomp	-3554
▁animal	-3555
▁statut	-3556
▁response	-3557
cement	-3558
▁chance	-3559
ered	-3560
▁eth	-3561
▁sense	-3562
▁voting	-3563
▁hold	-3564
▁extern	-3565
▁limit	-3566
▁cra	-3567
onnes	-3568
▁parmi	-3569
▁tenir	-3570
égalité	-3571
▁benefit	-3572
▁fair	-3573
▁provisions	-3574
▁compli	-3575
▁médi	-3576
▁maxim	-3577
▁éléments	-3578
uring	-3579
▁réunion	-3580
agriculture	-3581
▁colleagues	-3582
ake	-3583
énerg	-3584
▁refle	-3585
▁vigueur	-3586
lle	-3587
venus	-3588
▁either	-3589
▁chac	-3590
▁procedures	-3591
▁procédures	-3592
▁ép	-3593
▁assurer	-3594
hen	-3595
tip	-3596
▁saying	-3597
▁hard	-3598
▁50	-3599
▁enter	-3600
ination	-3601
▁18	-3602
▁mondiale	-3603
▁regards	-3604
▁required	-3605
▁précisément	-3606
▁victimes	-3607
▁ec	-3608
▁voil	-3609
▁deuxièmement	-3610
▁assistance	-3611
urance	-3612
▁pourtant	-3613
▁résol	-3614
était	-3615
uni	-3616
▁farmers	-3617
▁jan	-3618
▁existing	-3619
▁pleased	-3620
▁include	-3621
sh	-3622
▁mer	-3623
▁dér	-3624
▁poor	-3625
▁parole	-3626
▁présenté	-3627
▁attitude	-3628
▁south	-3629
érien	-3630
line	-3631
énergie	-3632
▁perman	-3633
▁dois	-3634
▁talk	-3635
▁contact	-3636
▁funding	-3637
▁tâ	-3638
▁tell	-3639
▁avo	-3640
urn	-3641
iture	-3642
▁dat	-3643
▁risques	-3644
▁expressed	-3645
▁north	-3646
▁markets	-3647
▁defence	-3648
▁identif	-3649
▁positions	-3650
ture	-3651
▁qualif	-3652
▁criminal	-3653
vi	-3654
lande	-3655
▁bank	-3656
▁deleg	-3657
▁générale	-3658
vez	-3659
▁voilà	-3660
▁compens	-3661
▁mér	-3662
▁nam	-3663
▁rich	-3664
▁dési	-3665
▁prepar	-3666
▁journ	-3667
yn	-3668
accès	-3669
▁votes	-3670
▁carry	-3671
▁commencer	-3672
▁times	-3673
▁préc	-3674
astroph	-3675
▁tran	-3676
▁criteria	-3677
▁délég	-3678
intérêt	-3679
▁partis	-3680
▁external	-3681
▁haut	-3682
clear	-3683
▁incom	-3684
▁session	-3685
▁focus	-3686
économie	-3687
▁frontières	-3688
umer	-3689
▁catastroph	-3690
▁financiers	-3691
uff	-3692
▁pack	-3693
▁labour	-3694
▁minimum	-3695
).	-3696
éré	-3697
▁exception	-3698
lier	-3699
oung	-3700
rier	-3701
▁lab	-3702
▁urgent	-3703
quet	-3704
▁encourage	-3705
▁vient	-3706
▁genu	-3707
iding	-3708
▁balk	-3709
▁held	-3710
▁innov	-3711
▁element	-3712
▁promote	-3713
argent	-3714
▁substanti	-3715
iée	-3716
▁demandé	-3717
▁prepared	-3718
▁young	-3719
▁intéress	-3720
érieure	-3721
▁raised	-3722
▁rail	-3723
▁proposé	-3724
rique	-3725
arian	-3726
▁paragraphe	-3727
stac	-3728
▁adopté	-3729
▁évident	-3730
liquer	-3731
▁kosovo	-3732
▁tend	-3733
▁changes	-3734
▁totalement	-3735
rale	-3736
gen	-3737
▁undert	-3738
▁regulations	-3739
▁16	-3740
▁clarif	-3741
assemblée	-3742
issant	-3743
ster	-3744
uf	-3745
▁along	-3746
rée	-3747
▁throughout	-3748
antit	-3749
enhag	-3750
bourg	-3751
▁ambiti	-3752
▁lecture	-3753
▁promotion	-3754
▁étaient	-3755
▁én	-3756
▁depend	-3757
▁construction	-3758
▁item	-3759
▁rempl	-3760
▁contribuer	-3761
ider	-3762
▁succès	-3763
▁impossible	-3764
sif	-3765
▁called	-3766
▁suffic	-3767
▁tim	-3768
ource	-3769
pol	-3770
ris	-3771
▁quatre	-3772
▁nord	-3773
▁stock	-3774
érons	-3775
▁east	-3776
▁reading	-3777
▁sociaux	-3778
erver	-3779
▁relatives	-3780
reté	-3781
▁travers	-3782
▁sufficient	-3783
▁hear	-3784
▁prochaine	-3785
▁roy	-3786
▁purs	-3787
occasion	-3788
▁integration	-3789
▁decided	-3790
▁simpli	-3791
▁affect	-3792
▁parlementaire	-3793
▁ign	-3794
▁vrai	-3795
▁review	-3796
▁list	-3797
▁highl	-3798
▁naturellement	-3799
erait	-3800
▁bord	-3801
▁réduire	-3802
▁maritime	-3803
▁moreover	-3804
rich	-3805
▁correct	-3806
▁dû	-3807
▁grands	-3808
▁traités	-3809
▁valeurs	-3810
▁considération	-3811
▁administrative	-3812
▁éviter	-3813
▁propres	-3814
▁veiller	-3815
▁dix	-3816
▁pert	-3817
▁assez	-3818
▁parliamentary	-3819
tead	-3820
orp	-3821
▁nove	-3822
▁malgré	-3823
▁instead	-3824
▁included	-3825
▁live	-3826
▁viv	-3827
▁communautaires	-3828
▁dir	-3829
▁ven	-3830
ctron	-3831
can	-3832
limin	-3833
▁compar	-3834
▁thus	-3835
▁17	-3836
az	-3837
▁corresp	-3838
▁rig	-3839
cs	-3840
arder	-3841
▁centre	-3842
▁priorité	-3843
roy	-3844
▁run	-3845
▁produit	-3846
▁cut	-3847
atoire	-3848
▁condam	-3849
▁refuge	-3850
▁bill	-3851
▁traitement	-3852
mettre	-3853
▁threat	-3854
clé	-3855
▁veux	-3856
▁élément	-3857
▁vois	-3858
▁courage	-3859
initiative	-3860
avis	-3861
tences	-3862
▁obstac	-3863
▁occup	-3864
nelles	-3865
▁touch	-3866
▁infrastru	-3867
uels	-3868
▁fishing	-3869
dit	-3870
▁immedi	-3871
▁recons	-3872
▁waste	-3873
▁félicite	-3874
ède	-3875
▁top	-3876
ested	-3877
▁comité	-3878
▁ppe	-3879
▁vos	-3880
▁priorités	-3881
oit	-3882
estime	-3883
▁importantes	-3884
▁compétences	-3885
ariat	-3886
▁peuple	-3887
▁travaux	-3888
▁spee	-3889
▁réformes	-3890
▁submit	-3891
▁completely	-3892
▁gens	-3893
▁vont	-3894
▁coûts	-3895
▁correspond	-3896
▁established	-3897
▁zone	-3898
▁remind	-3899
ean	-3900
▁fell	-3901
▁old	-3902
▁devoir	-3903
▁premièrement	-3904
▁poss	-3905
▁mas	-3906
▁chacun	-3907
▁balkans	-3908
▁concrè	-3909
rain	-3910
▁publics	-3911
ylum	-3912
▁séance	-3913
▁obligations	-3914
▁réun	-3915
▁habit	-3916
▁asylum	-3917
▁hommes	-3918
▁exigences	-3919
▁honourable	-3920
lois	-3921
ished	-3922
ori	-3923
▁côté	-3924
▁patten	-3925
ép	-3926
▁capit	-3927
▁barc	-3928
érieures	-3929
▁reached	-3930
▁recently	-3931
tient	-3932
▁avanc	-3933
▁opportunities	-3934
autor	-3935
▁pron	-3936
▁respecter	-3937
▁stud	-3938
▁declar	-3939
▁values	-3940
▁requirements	-3941
▁indispensable	-3942
tré	-3943
▁semaine	-3944
▁ang	-3945
aging	-3946
▁quot	-3947
immigration	-3948
▁eas	-3949
▁devra	-3950
fait	-3951
▁structures	-3952
▁administration	-3953
30	-3954
▁possibilités	-3955
▁surve	-3956
▁voy	-3957
verty	-3958
▁poverty	-3959
tig	-3960
illes	-3961
▁passe	-3962
▁around	-3963
▁quickly	-3964
▁jeunes	-3965
▁copenhag	-3966
▁ministers	-3967
▁travailler	-3968
tivité	-3969
▁consequences	-3970
▁thanks	-3971
▁situations	-3972
▁ky	-3973
inte	-3974
ases	-3975
▁réduction	-3976
▁difficultés	-3977
▁illeg	-3978
▁septembre	-3979
ails	-3980
▁afghanistan	-3981
ctors	-3982
▁consist	-3983
▁lesquels	-3984
▁investment	-3985
▁améliorer	-3986
▁september	-3987
▁venir	-3988
▁talking	-3989
▁light	-3990
▁guidel	-3991
▁confront	-3992
▁sent	-3993
▁internet	-3994
▁implemented	-3995
▁reti	-3996
▁longtemps	-3997
▁targ	-3998
▁approved	-3999
êtes	-4000
▁1998	-4001
▁data	-4002
ification	-4003
▁intention	-4004
▁passer	-4005
▁profit	-4006
▁pollution	-4007
ber	-4008
▁adress	-4009
▁réglementation	-4010
▁consac	-4011
▁-,	-4012
▁ministres	-4013
▁exact	-4014
▁conserv	-4015
▁absolutely	-4016
▁financières	-4017
2)	-4018
ez	-4019
▁donne	-4020
▁monitoring	-4021
▁permis	-4022
▁solidarity	-4023
▁surpr	-4024
▁practical	-4025
▁investisse	-4026
govern	-4027
ana	-4028
▁pil	-4029
▁dég	-4030
▁trib	-4031
▁lisbon	-4032
▁lisbonne	-4033
▁constituent	-4034
▁effectivement	-4035
▁criticis	-4036
▁priorities	-4037
5-	-4038
▁dépl	-4039
▁else	-4040
theless	-4041
▁dépenses	-4042
rez	-4043
▁nevertheless	-4044
▁almost	-4045
▁centrale	-4046
intégration	-4047
▁affirm	-4048
▁training	-4049
▁considère	-4050
▁increased	-4051
oque	-4052
atiques	-4053
▁powers	-4054
▁der	-4055
▁puissent	-4056
▁discussed	-4057
▁cultural	-4058
▁financière	-4059
▁unacceptable	-4060
▁amount	-4061
▁dossier	-4062
▁télé	-4063
▁pleinement	-4064
rup	-4065
▁five	-4066
▁ship	-4067
alised	-4068
▁constater	-4069
▁home	-4070
▁pose	-4071
asbourg	-4072
▁behind	-4073
▁official	-4074
ulent	-4075
government	-4076
quée	-4077
▁montre	-4078
▁private	-4079
▁brought	-4080
▁entraî	-4081
▁namely	-4082
▁minutes	-4083
▁nuclear	-4084
cisely	-4085
▁méthode	-4086
▁proceed	-4087
▁yeux	-4088
▁across	-4089
▁precisely	-4090
dio	-4091
ously	-4092
▁connection	-4093
oss	-4094
▁extent	-4095
▁relevant	-4096
▁lear	-4097
▁pressure	-4098
▁death	-4099
▁value	-4100
▁zones	-4101
▁jobs	-4102
▁parl	-4103
▁liste	-4104
▁prend	-4105
▁fellow	-4106
pt	-4107
▁brief	-4108
▁democr	-4109
na	-4110
emb	-4111
jus	-4112
▁transp	-4113
▁concent	-4114
oix	-4115
▁comments	-4116
▁strasbourg	-4117
issements	-4118
iver	-4119
▁try	-4120
▁received	-4121
▁elections	-4122
by	-4123
laud	-4124
▁décl	-4125
▁sitting	-4126
▁guidelines	-4127
▁exam	-4128
étique	-4129
▁scope	-4130
▁return	-4131
▁victims	-4132
iterranean	-4133
▁jo	-4134
▁exclu	-4135
▁representatives	-4136
der	-4137
établ	-4138
▁convin	-4139
▁dépend	-4140
abor	-4141
▁choix	-4142
demn	-4143
▁using	-4144
▁inquiét	-4145
▁continent	-4146
▁poursuivre	-4147
▁21	-4148
▁takes	-4149
▁span	-4150
▁peine	-4151
voy	-4152
unction	-4153
▁entière	-4154
▁sociales	-4155
▁exten	-4156
▁jug	-4157
of	-4158
aume	-4159
▁dimin	-4160
▁jours	-4161
organisation	-4162
▁measure	-4163
introdu	-4164
▁constructive	-4165
▁phase	-4166
▁royaume	-4167
ending	-4168
▁whose	-4169
▁espagn	-4170
▁secteurs	-4171
▁took	-4172
▁compéti	-4173
▁développer	-4174
▁mauv	-4175
▁dirig	-4176
sidered	-4177
▁applied	-4178
orig	-4179
▁coming	-4180
▁unanim	-4181
▁animals	-4182
▁similar	-4183
▁deli	-4184
▁russie	-4185
▁résoud	-4186
▁élections	-4187
▁dipl	-4188
▁link	-4189
▁respond	-4190
idée	-4191
▁allons	-4192
▁enable	-4193
exist	-4194
▁livre	-4195
▁vital	-4196
ator	-4197
▁biais	-4198
▁grave	-4199
▁reduce	-4200
▁relating	-4201
▁dut	-4202
▁tenu	-4203
▁nuclé	-4204
▁caractère	-4205
ocks	-4206
▁comprendre	-4207
▁évé	-4208
▁déce	-4209
▁solidarité	-4210
ood	-4211
▁taux	-4212
▁britann	-4213
▁pensons	-4214
▁révision	-4215
governmental	-4216
cul	-4217
▁réfug	-4218
▁40	-4219
aucra	-4220
institution	-4221
▁acp	-4222
▁considerable	-4223
▁hui	-4224
jouter	-4225
▁parfois	-4226
mêmes	-4227
▁préf	-4228
▁indépend	-4229
▁offer	-4230
▁uk	-4231
▁cross	-4232
▁savez	-4233
▁away	-4234
▁circum	-4235
usse	-4236
▁reality	-4237
crit	-4238
▁pourraient	-4239
▁techniques	-4240
tics	-4241
itaire	-4242
▁capacité	-4243
effic	-4244
▁intérêt	-4245
▁petites	-4246
▁giving	-4247
▁libéralisation	-4248
▁adapt	-4249
hol	-4250
▁pauvreté	-4251
▁dict	-4252
▁statis	-4253
contre	-4254
▁derniers	-4255
▁influence	-4256
▁oil	-4257
▁cur	-4258
▁typ	-4259
/2001)	-4260
▁auxqu	-4261
▁provision	-4262
▁reference	-4263
▁insist	-4264
uary	-4265
▁cinq	-4266
cadre	-4267
aution	-4268
▁austr	-4269
▁prochain	-4270
▁leaders	-4271
▁bureaucra	-4272
5-02	-4273
▁shar	-4274
▁jouer	-4275
▁promouv	-4276
▁disaster	-4277
▁rapide	-4278
▁technique	-4279
arily	-4280
▁secret	-4281
▁heard	-4282
▁citoyen	-4283
sterdam	-4284
hold	-4285
▁médic	-4286
▁pren	-4287
▁hier	-4288
▁levels	-4289
▁movement	-4290
eth	-4291
▁yester	-4292
▁quantit	-4293
▁milli	-4294
▁yesterday	-4295
crib	-4296
upart	-4297
▁plupart	-4298
▁self	-4299
▁dispar	-4300
▁tempor	-4301
▁assessment	-4302
dle	-4303
▁spanish	-4304
▁engagement	-4305
▁price	-4306
lications	-4307
oser	-4308
▁ara	-4309
erves	-4310
▁mécan	-4311
▁apporter	-4312
▁financier	-4313
lan	-4314
▁confidence	-4315
▁transi	-4316
ring	-4317
▁cub	-4318
▁avoid	-4319
▁foot	-4320
hic	-4321
ols	-4322
veness	-4323
▁adopter	-4324
▁déclaré	-4325
▁certaine	-4326
▁additional	-4327
▁considered	-4328
▁overall	-4329
▁agit	-4330
▁puisque	-4331
▁lesquelles	-4332
▁rele	-4333
▁parle	-4334
▁responsabil	-4335
▁constat	-4336
del	-4337
▁besoins	-4338
▁obviously	-4339
▁définition	-4340
aci	-4341
▁poser	-4342
▁espérons	-4343
ublic	-4344
▁effects	-4345
▁fif	-4346
▁gal	-4347
▁mener	-4348
▁mêmes	-4349
▁contenu	-4350
origine	-4351
▁adéqu	-4352
ulteurs	-4353
▁banque	-4354
▁décidé	-4355
▁events	-4356
▁scientific	-4357
▁myself	-4358
▁pratiques	-4359
way	-4360
erial	-4361
▁staff	-4362
▁promouvoir	-4363
▁concre	-4364
▁résoudre	-4365
▁permettant	-4366
▁souff	-4367
▁russia	-4368
▁perspectives	-4369
iation	-4370
▁valeur	-4371
▁conformément	-4372
▁tch	-4373
▁illegal	-4374
dom	-4375
▁lot	-4376
▁prec	-4377
▁creation	-4378
▁assist	-4379
▁représentants	-4380
êcher	-4381
▁cohes	-4382
▁technologies	-4383
▁amélior	-4384
val	-4385
▁days	-4386
gm	-4387
▁outside	-4388
▁sérieux	-4389
▁protéger	-4390
▁rester	-4391
inking	-4392
ignes	-4393
asile	-4394
oncer	-4395
▁cod	-4396
▁reforms	-4397
▁transition	-4398
▁x	-4399
▁accordance	-4400
▁stop	-4401
oise	-4402
▁chi	-4403
▁anything	-4404
▁knowledge	-4405
▁pensions	-4406
▁referred	-4407
chan	-4408
▁sait	-4409
▁allem	-4410
▁adoption	-4411
oto	-4412
▁positif	-4413
imb	-4414
▁partnership	-4415
▁immédi	-4416
▁mechan	-4417
▁circumst	-4418
▁partenaires	-4419
▁créd	-4420
▁fed	-4421
▁incorp	-4422
rad	-4423
adoption	-4424
7,	-4425
5-01	-4426
▁près	-4427
▁cohésion	-4428
▁gl	-4429
▁modèle	-4430
▁pac	-4431
▁ii	-4432
▁tire	-4433
▁réjouis	-4434
▁fonctionnement	-4435
▁populations	-4436
iger	-4437
▁stated	-4438
▁american	-4439
acy	-4440
ger	-4441
▁réc	-4442
▁west	-4443
▁inspe	-4444
▁ports	-4445
▁consol	-4446
▁capacity	-4447
angere	-4448
▁retra	-4449
▁senti	-4450
▁dangere	-4451
▁mondial	-4452
▁specifically	-4453
▁ge	-4454
▁har	-4455
▁dece	-4456
▁side	-4457
▁source	-4458
quées	-4459
▁quelles	-4460
esb	-4461
tiss	-4462
▁tele	-4463
étaires	-4464
▁immigr	-4465
▁pression	-4466
▁consideration	-4467
▁huge	-4468
▁diplom	-4469
▁wto	-4470
▁conflit	-4471
▁circumstances	-4472
▁subs	-4473
ressive	-4474
▁souhaiterais	-4475
ubli	-4476
▁middle	-4477
▁reconstruction	-4478
venue	-4479
▁suivre	-4480
▁big	-4481
▁tab	-4482
▁sembl	-4483
▁speaking	-4484
head	-4485
▁irak	-4486
▁déchets	-4487
▁cohesion	-4488
▁sil	-4489
▁alli	-4490
▁maje	-4491
▁pure	-4492
mos	-4493
▁alternative	-4494
▁vit	-4495
▁ligne	-4496
▁conclure	-4497
▁harmonisation	-4498
▁rév	-4499
▁trying	-4500
▁responsabilités	-4501
ands	-4502
▁présence	-4503
▁prévention	-4504
▁half	-4505
▁civile	-4506
▁accepted	-4507
▁supported	-4508
▁liberalisation	-4509
▁borders	-4510
ges	-4511
just	-4512
▁weap	-4513
▁reject	-4514
▁député	-4515
▁purpose	-4516
0,	-4517
iez	-4518
▁effets	-4519
▁faudra	-4520
▁parfait	-4521
va	-4522
▁1,	-4523
mage	-4524
ighted	-4525
▁chiff	-4526
▁charge	-4527
▁portugal	-4528
oule	-4529
▁partir	-4530
▁humanitarian	-4531
▁vert	-4532
io	-4533
delà	-4534
qués	-4535
▁fil	-4536
égard	-4537
actions	-4538
▁treatment	-4539
odes	-4540
▁sea	-4541
▁drug	-4542
/2000)	-4543
ël	-4544
know	-4545
▁wanted	-4546
rai	-4547
▁sectors	-4548
aties	-4549
▁potential	-4550
gar	-4551
▁favorable	-4552
▁opposition	-4553
ussels	-4554
▁évent	-4555
▁distin	-4556
▁model	-4557
wise	-4558
anges	-4559
▁kyoto	-4560
▁pes	-4561
▁office	-4562
▁spo	-4563
itish	-4564
▁allowed	-4565
▁renforcement	-4566
gos	-4567
yer	-4568
▁autom	-4569
▁ayant	-4570
▁entend	-4571
▁vision	-4572
acer	-4573
▁flo	-4574
▁obtain	-4575
▁militaire	-4576
ually	-4577
▁spir	-4578
▁family	-4579
▁réfugiés	-4580
etary	-4581
▁treaties	-4582
▁exemp	-4583
▁sources	-4584
quate	-4585
▁destruction	-4586
▁assur	-4587
▁republic	-4588
appr	-4589
▁plann	-4590
▁condemn	-4591
▁remains	-4592
endum	-4593
▁goes	-4594
▁bey	-4595
▁stocks	-4596
▁blo	-4597
▁rightly	-4598
attention	-4599
▁circulation	-4600
ynam	-4601
▁penal	-4602
▁wrong	-4603
▁double	-4604
▁brussels	-4605
▁souligné	-4606
éro	-4607
▁imag	-4608
▁alloc	-4609
cemment	-4610
urgence	-4611
▁vise	-4612
▁aller	-4613
▁british	-4614
▁contribu	-4615
▁récemment	-4616
▁proportion	-4617
fer	-4618
ton	-4619
▁bear	-4620
▁brux	-4621
▁arrang	-4622
▁causes	-4623
▁regime	-4624
▁abst	-4625
▁efficient	-4626
▁emerg	-4627
▁avenir	-4628
▁aérien	-4629
▁industri	-4630
éducation	-4631
▁spécifique	-4632
▁natur	-4633
évaluation	-4634
▁agriculteurs	-4635
▁tard	-4636
▁views	-4637
▁débats	-4638
▁forum	-4639
5-00	-4640
dibil	-4641
èrent	-4642
esprit	-4643
▁conflits	-4644
▁nationale	-4645
▁transform	-4646
▁spécifiques	-4647
inf	-4648
▁sup	-4649
érique	-4650
▁prime	-4651
▁suivi	-4652
érience	-4653
▁demands	-4654
▁possibility	-4655
▁chois	-4656
▁ire	-4657
▁via	-4658
▁dynam	-4659
▁seriously	-4660
inn	-4661
ulties	-4662
▁front	-4663
▁monetary	-4664
▁loi	-4665
▁difficulties	-4666
▁responsables	-4667
▁exch	-4668
▁cover	-4669
▁supplémentaires	-4670
ape	-4671
▁peuples	-4672
▁billion	-4673
▁comptes	-4674
▁sound	-4675
▁manifest	-4676
▁suffisamment	-4677
▁pourrons	-4678
▁monétaire	-4679
▁syn	-4680
▁route	-4681
▁mandat	-4682
ématique	-4683
▁prévoit	-4684
▁mai	-4685
▁feed	-4686
naires	-4687
▁arriv	-4688
▁suppr	-4689
▁soi	-4690
prises	-4691
▁gene	-4692
▁media	-4693
▁certes	-4694
▁paie	-4695
ublique	-4696
▁attach	-4697
▁ireland	-4698
▁risks	-4699
▁trafic	-4700
▁legitim	-4701
▁délégation	-4702
▁disposition	-4703
▁rom	-4704
▁essay	-4705
▁publiques	-4706
▁affected	-4707
associ	-4708
▁auquel	-4709
times	-4710
éraux	-4711
agir	-4712
aign	-4713
oint	-4714
landais	-4715
▁beginning	-4716
▁serb	-4717
▁applies	-4718
▁association	-4719
expr	-4720
▁actuel	-4721
▁material	-4722
▁deep	-4723
▁voix	-4724
▁consiste	-4725
2,	-4726
▁opér	-4727
▁oubli	-4728
▁décembre	-4729
▁bruxelles	-4730
▁dispon	-4731
6,	-4732
▁réd	-4733
▁favoris	-4734
▁veulent	-4735
▁convainc	-4736
sibles	-4737
▁maximum	-4738
▁employe	-4739
▁regrett	-4740
▁december	-4741
▁determin	-4742
▁participer	-4743
▁chap	-4744
▁sche	-4745
▁engagements	-4746
ox	-4747
rehen	-4748
▁forms	-4749
▁suéd	-4750
▁lignes	-4751
▁territoire	-4752
èce	-4753
▁dealing	-4754
▁faudrait	-4755
▁agency	-4756
▁circons	-4757
▁atteindre	-4758
▁creating	-4759
nels	-4760
▁vir	-4761
ormais	-4762
▁désormais	-4763
▁chair	-4764
▁fear	-4765
augment	-4766
▁developed	-4767
1)	-4768
imbab	-4769
▁dign	-4770
▁connaissance	-4771
▁déclarations	-4772
▁24	-4773
▁sor	-4774
▁objet	-4775
▁fondamental	-4776
▁racis	-4777
opin	-4778
encies	-4779
▁decide	-4780
▁constitutional	-4781
▁23	-4782
réci	-4783
▁tob	-4784
▁zimbab	-4785
▁directement	-4786
▁internationales	-4787
▁advant	-4788
▁permettra	-4789
▁sometimes	-4790
▁autoris	-4791
▁requires	-4792
gouver	-4793
ologique	-4794
▁parlé	-4795
▁proven	-4796
▁effectively	-4797
▁modification	-4798
acks	-4799
▁status	-4800
rant	-4801
▁design	-4802
▁investig	-4803
▁république	-4804
cée	-4805
▁medium	-4806
▁speech	-4807
▁delegation	-4808
▁reje	-4809
▁haute	-4810
ological	-4811
outh	-4812
▁seem	-4813
▁expos	-4814
▁thème	-4815
▁estime	-4816
▁devront	-4817
intention	-4818
org	-4819
▁interp	-4820
▁offici	-4821
▁sensible	-4822
▁tack	-4823
▁étro	-4824
▁committed	-4825
▁independent	-4826
▁bureau	-4827
▁desire	-4828
▁responsable	-4829
where	-4830
▁white	-4831
▁saddam	-4832
▁â	-4833
vidence	-4834
▁former	-4835
▁genuine	-4836
▁traiter	-4837
▁declaration	-4838
▁arrive	-4839
▁alone	-4840
▁fai	-4841
▁ferm	-4842
▁seek	-4843
▁obligation	-4844
▁beyond	-4845
▁concentr	-4846
gouvernement	-4847
▁dén	-4848
lation	-4849
making	-4850
léch	-4851
▁tâche	-4852
▁opinions	-4853
▁mass	-4854
▁atteint	-4855
ouverture	-4856
▁introduction	-4857
▁reçu	-4858
▁contributions	-4859
▁assure	-4860
▁affaire	-4861
fications	-4862
▁communes	-4863
▁institutional	-4864
onde	-4865
▁lam	-4866
▁vacc	-4867
assurer	-4868
▁chemin	-4869
▁experts	-4870
▁obtenir	-4871
▁changement	-4872
amb	-4873
eken	-4874
▁highly	-4875
▁intended	-4876
ump	-4877
▁exces	-4878
▁useful	-4879
▁pauvres	-4880
▁product	-4881
▁finalement	-4882
▁neg	-4883
▁worth	-4884
aken	-4885
▁agir	-4886
▁decl	-4887
commun	-4888
▁developments	-4889
ika	-4890
body	-4891
▁armes	-4892
▁euros	-4893
▁soutiens	-4894
elt	-4895
▁speed	-4896
▁successful	-4897
▁structurels	-4898
▁laeken	-4899
▁businesses	-4900
▁uni	-4901
▁later	-4902
▁strict	-4903
▁limited	-4904
▁événements	-4905
teur	-4906
▁swedish	-4907
▁économie	-4908
nex	-4909
▁divis	-4910
▁pointed	-4911
▁age	-4912
▁separ	-4913
abs	-4914
éti	-4915
ters	-4916
▁ways	-4917
▁personal	-4918
▁etc	-4919
itions	-4920
▁earlier	-4921
▁germany	-4922
▁wait	-4923
▁naturally	-4924
unch	-4925
ounts	-4926
▁reduction	-4927
▁commitments	-4928
▁cle	-4929
enge	-4930
onom	-4931
▁clas	-4932
▁2000,	-4933
▁tradu	-4934
▁looking	-4935
▁setting	-4936
▁procéder	-4937
▁africa	-4938
▁weapons	-4939
0.	-4940
çons	-4941
▁types	-4942
▁soulev	-4943
▁recognise	-4944
▁bul	-4945
▁america	-4946
▁stric	-4947
alités	-4948
écution	-4949
▁created	-4950
▁urge	-4951
▁accès	-4952
▁challenge	-4953
▁sk	-4954
▁arg	-4955
iting	-4956
fect	-4957
▁régul	-4958
▁safegu	-4959
▁fournir	-4960
'.	-4961
▁claim	-4962
▁répar	-4963
▁avions	-4964
▁rate	-4965
▁directly	-4966
▁partenariat	-4967
▁spirit	-4968
▁conscience	-4969
lands	-4970
▁incorpor	-4971
▁language	-4972
▁surveill	-4973
br	-4974
▁meps	-4975
▁lutter	-4976
▁laisser	-4977
▁emploi	-4978
▁mediterranean	-4979
ège	-4980
▁chez	-4981
▁early	-4982
▁shown	-4983
▁pourront	-4984
▁definition	-4985
▁technology	-4986
▁ordre	-4987
▁probably	-4988
▁accidents	-4989
▁crédits	-4990
▁zimbabwe	-4991
▁procès	-4992
▁retard	-4993
▁arguments	-4994
▁méditerran	-4995
isent	-4996
▁firm	-4997
▁reply	-4998
opinion	-4999
▁distribution	-5000
mploy	-5001
▁land	-5002
▁monop	-5003
▁closely	-5004
5-03	-5005
▁compétence	-5006
▁discussing	-5007
▁parlementaires	-5008
eté	-5009
alism	-5010
▁retr	-5011
▁adoptée	-5012
▁milliards	-5013
▁palestinian	-5014
▁lac	-5015
▁réflex	-5016
▁reme	-5017
elling	-5018
▁faisons	-5019
▁producteurs	-5020
itaires	-5021
▁contrôles	-5022
▁conséquence	-5023
▁green	-5024
▁vérit	-5025
▁implementing	-5026
▁slo	-5027
vered	-5028
▁rene	-5029
▁surv	-5030
▁practic	-5031
▁parliaments	-5032
▁chô	-5033
▁genre	-5034
▁figure	-5035
▁prevention	-5036
▁aborder	-5037
▁suggest	-5038
▁unemploy	-5039
▁2,	-5040
▁calend	-5041
omc	-5042
lause	-5043
▁expend	-5044
▁fiscal	-5045
▁living	-5046
▁dispose	-5047
▁outcome	-5048
▁gro	-5049
▁vice	-5050
▁presque	-5051
▁transfer	-5052
▁joh	-5053
atégor	-5054
▁préoccupations	-5055
▁quo	-5056
▁prévu	-5057
▁provides	-5058
▁maintenir	-5059
▁ade	-5060
▁deg	-5061
▁damage	-5062
▁quotas	-5063
▁willing	-5064
▁contribute	-5065
laudissements	-5066
roc	-5067
▁faci	-5068
▁restrictions	-5069
rement	-5070
▁lu	-5071
▁sociétés	-5072
▁expenditure	-5073
▁relationship	-5074
ino	-5075
iments	-5076
▁bilat	-5077
▁inacceptable	-5078
dra	-5079
▁entire	-5080
▁catégor	-5081
▁commerci	-5082
/2	-5083
▁asi	-5084
▁exer	-5085
▁longue	-5086
▁exprimer	-5087
▁exclusive	-5088
5,	-5089
▁conj	-5090
▁réaliser	-5091
ined	-5092
irak	-5093
▁utile	-5094
▁colleague	-5095
ology	-5096
▁lastly	-5097
▁idée	-5098
aborer	-5099
▁disposer	-5100
▁emphasise	-5101
▁changements	-5102
▁draf	-5103
▁réseau	-5104
▁disease	-5105
▁crimes	-5106
▁wat	-5107
▁supplement	-5108
▁resolutions	-5109
▁démar	-5110
▁bonnes	-5111
▁reconnaissance	-5112
▁cig	-5113
▁achie	-5114
▁acquis	-5115
efficacité	-5116
▁compensation	-5117
▁protocole	-5118
▁discuter	-5119
ok	-5120
▁happened	-5121
works	-5122
▁faits	-5123
▁thous	-5124
▁obstacles	-5125
▁satisfait	-5126
▁198	-5127
▁lic	-5128
▁simplif	-5129
oure	-5130
ctric	-5131
oindre	-5132
▁audit	-5133
▁éval	-5134
▁annual	-5135
▁explan	-5136
▁humains	-5137
▁function	-5138
▁100	-5139
▁pét	-5140
▁history	-5141
▁analysis	-5142
▁critique	-5143
▁disch	-5144
▁ferme	-5145
▁devenir	-5146
▁produced	-5147
▁standard	-5148
unt	-5149
▁categ	-5150
▁exige	-5151
▁leave	-5152
▁utiliser	-5153
▁souhaitons	-5154
▁vais	-5155
▁étrangère	-5156
▁augmentation	-5157
▁atta	-5158
▁paid	-5159
▁petits	-5160
▁package	-5161
▁enorm	-5162
▁known	-5163
▁recev	-5164
▁thought	-5165
pir	-5166
▁humaine	-5167
▁install	-5168
jud	-5169
orable	-5170
▁contrary	-5171
▁ul	-5172
parli	-5173
▁comporte	-5174
parliament	-5175
▁évaluation	-5176
▁campaign	-5177
ologie	-5178
▁lives	-5179
▁impose	-5180
▁produce	-5181
▁réalisé	-5182
▁properly	-5183
▁semaines	-5184
▁breve	-5185
▁morning	-5186
▁suspend	-5187
▁climate	-5188
▁complément	-5189
▁abol	-5190
▁aider	-5191
▁thirdly	-5192
lav	-5193
ruct	-5194
inves	-5195
▁relatif	-5196
▁protocol	-5197
roî	-5198
▁democrats	-5199
▁juridiques	-5200
eaux	-5201
après	-5202
▁plén	-5203
▁wants	-5204
uded	-5205
▁bad	-5206
▁easi	-5207
▁navires	-5208
▁neither	-5209
uffis	-5210
▁delay	-5211
▁matin	-5212
▁graves	-5213
▁promot	-5214
▁erre	-5215
iction	-5216
▁gives	-5217
▁scand	-5218
▁entit	-5219
▁perform	-5220
▁refugees	-5221
▁dangerous	-5222
▁2001.	-5223
▁renew	-5224
autorité	-5225
▁capable	-5226
▁principal	-5227
crip	-5228
▁prices	-5229
▁immédiate	-5230
▁europol	-5231
▁parlements	-5232
▁forte	-5233
mid	-5234
iles	-5235
ged	-5236
inc	-5237
▁welcom	-5238
▁définiti	-5239
▁restruct	-5240
▁transparent	-5241
▁representative	-5242
▁fle	-5243
▁hop	-5244
▁bush	-5245
▁oral	-5246
▁spain	-5247
▁importe	-5248
orn	-5249
été	-5250
▁ue	-5251
lines	-5252
▁fulf	-5253
▁weeks	-5254
existence	-5255
▁thinking	-5256
▁meilleur	-5257
▁largement	-5258
▁impression	-5259
▁steps	-5260
▁greece	-5261
▁appear	-5262
▁heureux	-5263
▁convinced	-5264
▁justement	-5265
ouvel	-5266
▁calls	-5267
▁remarques	-5268
▁ethn	-5269
▁faisant	-5270
▁incident	-5271
té	-5272
▁lux	-5273
▁répé	-5274
alisme	-5275
▁activity	-5276
▁électron	-5277
▁soir	-5278
▁providing	-5279
▁surveillance	-5280
▁mars	-5281
▁2001,	-5282
▁champ	-5283
fr	-5284
tons	-5285
▁king	-5286
▁manner	-5287
▁28	-5288
▁féd	-5289
lique	-5290
ueill	-5291
▁atti	-5292
▁actual	-5293
▁mérite	-5294
▁natural	-5295
▁raisonn	-5296
▁terminer	-5297
▁improving	-5298
▁organised	-5299
▁liés	-5300
▁says	-5301
▁territor	-5302
▁study	-5303
▁réseaux	-5304
▁dealt	-5305
èlement	-5306
▁prefer	-5307
itations	-5308
▁otherwise	-5309
▁consommateur	-5310
ival	-5311
forme	-5312
▁establishing	-5313
etheless	-5314
▁company	-5315
▁exactly	-5316
▁français	-5317
▁uns	-5318
▁2002.	-5319
▁compagn	-5320
▁introduced	-5321
▁pati	-5322
▁learn	-5323
▁parts	-5324
▁listen	-5325
▁reprises	-5326
▁étrangères	-5327
▁nonetheless	-5328
▁soumis	-5329
▁improved	-5330
▁bodies	-5331
▁dirige	-5332
évolution	-5333
bly	-5334
▁counter	-5335
▁satisfaction	-5336
▁led	-5337
entit	-5338
▁repl	-5339
lam	-5340
ticles	-5341
▁network	-5342
▁réfléch	-5343
cale	-5344
▁june	-5345
casions	-5346
ically	-5347
▁accompl	-5348
▁becoming	-5349
▁malad	-5350
▁recours	-5351
),	-5352
bal	-5353
▁cô	-5354
abli	-5355
▁parfaitement	-5356
▁lik	-5357
iendra	-5358
▁border	-5359
▁travel	-5360
▁garantie	-5361
▁libertés	-5362
▁addressed	-5363
▁201	-5364
▁irish	-5365
▁élevé	-5366
▁blanc	-5367
▁succeed	-5368
▁submitted	-5369
▁china	-5370
▁juin	-5371
▁1999,	-5372
ighbour	-5373
▁régionale	-5374
▁investissements	-5375
ored	-5376
ores	-5377
▁durant	-5378
▁remember	-5379
▁increasingly	-5380
mar	-5381
▁dest	-5382
▁verts	-5383
aujourd	-5384
▁agricoles	-5385
▁greek	-5386
équilib	-5387
tedly	-5388
▁2000.	-5389
▁option	-5390
▁plénière	-5391
▁proposer	-5392
▁paci	-5393
▁supply	-5394
odi	-5395
▁evidence	-5396
▁budgétaires	-5397
améliorer	-5398
▁benefits	-5399
▁occasions	-5400
èvement	-5401
▁extraordin	-5402
▁quin	-5403
▁chances	-5404
▁remarque	-5405
▁permanent	-5406
ailed	-5407
▁whom	-5408
▁board	-5409
▁illég	-5410
▁ensuring	-5411
▁neighbour	-5412
▁supplémentaire	-5413
bas	-5414
iency	-5415
▁homme	-5416
▁acknow	-5417
▁totally	-5418
tissement	-5419
▁laid	-5420
ruption	-5421
▁asking	-5422
▁caused	-5423
▁prison	-5424
▁abou	-5425
▁tort	-5426
▁limité	-5427
▁flexibility	-5428
ids	-5429
reci	-5430
cteur	-5431
▁défendre	-5432
quant	-5433
▁duty	-5434
▁fera	-5435
▁ought	-5436
▁profond	-5437
vier	-5438
▁drawn	-5439
▁spend	-5440
▁compos	-5441
▁mainly	-5442
▁solana	-5443
european	-5444
▁niveaux	-5445
▁violations	-5446
▁differences	-5447
▁sac	-5448
▁élarg	-5449
▁equality	-5450
▁shows	-5451
▁multil	-5452
▁elements	-5453
▁catastrophe	-5454
▁reconnaître	-5455
6.	-5456
▁deme	-5457
▁name	-5458
▁ouverte	-5459
▁conventions	-5460
▁forget	-5461
▁limiter	-5462
▁terroristes	-5463
iving	-5464
▁calling	-5465
▁logique	-5466
▁renouvel	-5467
▁comprehen	-5468
▁ech	-5469
▁goods	-5470
▁explic	-5471
▁conclude	-5472
▁constant	-5473
clam	-5474
tenir	-5475
▁methods	-5476
▁disposons	-5477
gouvernementale	-5478
▁actes	-5479
▁round	-5480
▁seraient	-5481
▁speakers	-5482
▁contradic	-5483
itent	-5484
▁pill	-5485
▁fraud	-5486
▁pouvoirs	-5487
▁législatif	-5488
▁31	-5489
▁crises	-5490
▁défi	-5491
▁consolid	-5492
▁happy	-5493
▁normal	-5494
▁withdra	-5495
▁balanced	-5496
▁modifier	-5497
▁décider	-5498
▁achieving	-5499
éle	-5500
engen	-5501
▁aient	-5502
▁stip	-5503
▁pursu	-5504
▁faites	-5505
▁argument	-5506
yons	-5507
▁concrètes	-5508
▁humanitaire	-5509
▁médicaments	-5510
uls	-5511
▁entirely	-5512
cour	-5513
▁higher	-5514
▁appreci	-5515
▁schengen	-5516
ussein	-5517
▁avaient	-5518
▁compati	-5519
▁interventions	-5520
▁prép	-5521
▁handic	-5522
▁unable	-5523
▁hussein	-5524
▁contains	-5525
▁informed	-5526
▁raise	-5527
▁networks	-5528
▁dead	-5529
▁demandons	-5530
tian	-5531
▁radio	-5532
▁record	-5533
arch	-5534
▁tém	-5535
▁body	-5536
▁turk	-5537
▁chine	-5538
▁excessive	-5539
▁recognition	-5540
▁weak	-5541
▁famil	-5542
▁massive	-5543
anche	-5544
▁wond	-5545
ctures	-5546
▁concernés	-5547
called	-5548
▁établi	-5549
ceptions	-5550
▁approuvé	-5551
▁cul	-5552
▁grec	-5553
▁menace	-5554
▁version	-5555
▁dot	-5556
pré	-5557
pected	-5558
▁articles	-5559
▁sensitive	-5560
jout	-5561
orde	-5562
▁mac	-5563
▁wid	-5564
▁cooper	-5565
▁limites	-5566
▁correcte	-5567
▁orientations	-5568
men	-5569
cisive	-5570
▁auprès	-5571
▁expression	-5572
▁27	-5573
acter	-5574
▁aver	-5575
▁prospect	-5576
▁violation	-5577
▁attempt	-5578
▁debates	-5579
▁parlons	-5580
▁challeng	-5581
▁discharge	-5582
quis	-5583
chler	-5584
▁tabac	-5585
▁transit	-5586
▁fischler	-5587
▁représentant	-5588
▁anci	-5589
▁définir	-5590
▁clause	-5591
▁spécial	-5592
▁implique	-5593
▁emissions	-5594
▁repeat	-5595
▁taxation	-5596
▁entièrement	-5597
▁proc	-5598
ordonn	-5599
▁describ	-5600
▁,	-5601
▁22	-5602
illet	-5603
▁cuba	-5604
▁choice	-5605
▁launch	-5606
igu	-5607
▁grant	-5608
▁mouve	-5609
▁highlight	-5610
▁démocratiques	-5611
zed	-5612
▁tro	-5613
▁réussi	-5614
▁analyse	-5615
mon	-5616
▁cer	-5617
▁kar	-5618
tiers	-5619
▁étudi	-5620
▁comply	-5621
▁introduce	-5622
▁emplois	-5623
▁original	-5624
▁pied	-5625
▁pertin	-5626
ports	-5627
▁énor	-5628
▁chômage	-5629
▁perfect	-5630
▁maintien	-5631
▁critiques	-5632
▁iran	-5633
▁criticism	-5634
anding	-5635
▁enormous	-5636
dr	-5637
▁élargissement	-5638
acco	-5639
▁ahead	-5640
▁retour	-5641
▁initial	-5642
▁instance	-5643
▁amsterdam	-5644
ére	-5645
▁condamn	-5646
▁involving	-5647
▁brok	-5648
border	-5649
▁coher	-5650
▁insuffis	-5651
anci	-5652
▁penser	-5653
umière	-5654
▁immediately	-5655
▁consommation	-5656
aisse	-5657
▁ajouter	-5658
▁tobacco	-5659
ec	-5660
ague	-5661
▁dram	-5662
▁criminalité	-5663
▁alimentaires	-5664
▁mus	-5665
▁kingdom	-5666
▁négociation	-5667
ufact	-5668
▁flexible	-5669
applaudissements	-5670
3,	-5671
▁gé	-5672
llig	-5673
▁tests	-5674
▁johann	-5675
▁discours	-5676
hum	-5677
atte	-5678
▁berlin	-5679
▁rappro	-5680
sification	-5681
▁tient	-5682
▁degree	-5683
▁flexibilité	-5684
▁sév	-5685
▁grèce	-5686
▁envers	-5687
▁stabil	-5688
▁probablement	-5689
▁faite	-5690
▁quinze	-5691
▁recognised	-5692
cers	-5693
▁appeal	-5694
▁manufact	-5695
▁appliquer	-5696
▁lev	-5697
▁montrer	-5698
▁character	-5699
▁substance	-5700
prise	-5701
▁caus	-5702
▁closer	-5703
encontre	-5704
▁safeguard	-5705
▁constituer	-5706
▁fab	-5707
▁pact	-5708
▁susc	-5709
▁calendrier	-5710
▁industrial	-5711
enn	-5712
ourg	-5713
▁chamber	-5714
uellement	-5715
▁bénéficier	-5716
rage	-5717
ignement	-5718
▁interven	-5719
▁législative	-5720
orse	-5721
▁mots	-5722
▁adopte	-5723
teen	-5724
▁easy	-5725
▁aband	-5726
▁anyone	-5727
▁combien	-5728
▁critical	-5729
▁scho	-5730
▁historique	-5731
▁troisièmement	-5732
▁prud	-5733
▁stim	-5734
umption	-5735
▁traite	-5736
▁wishes	-5737
▁devrons	-5738
▁militaires	-5739
ij	-5740
ya	-5741
▁laws	-5742
▁told	-5743
▁trust	-5744
▁statements	-5745
▁unemployment	-5746
affirm	-5747
rontal	-5748
▁exprimé	-5749
▁américains	-5750
▁immigrants	-5751
▁ratification	-5752
▁voit	-5753
▁2003.	-5754
▁contain	-5755
▁explain	-5756
▁arrangements	-5757
▁lour	-5758
▁medic	-5759
▁intend	-5760
▁building	-5761
▁transfrontal	-5762
comp	-5763
rées	-5764
▁oui	-5765
aries	-5766
applause	-5767
▁politici	-5768
▁lanc	-5769
▁scientifique	-5770
▁modifications	-5771
pro	-5772
▁prét	-5773
▁rise	-5774
▁soutient	-5775
▁combating	-5776
▁soutenons	-5777
▁judiciaire	-5778
▁improvement	-5779
vité	-5780
▁envoy	-5781
▁décharge	-5782
amen	-5783
atoires	-5784
▁luxemb	-5785
▁montant	-5786
▁send	-5787
▁worked	-5788
▁opposed	-5789
▁substantial	-5790
▁pan	-5791
▁référ	-5792
▁tirer	-5793
vere	-5794
▁rein	-5795
▁merely	-5796
▁supporting	-5797
▁plen	-5798
▁viens	-5799
▁existence	-5800
▁occ	-5801
▁added	-5802
▁prose	-5803
▁sweden	-5804
▁établir	-5805
▁rejected	-5806
engagement	-5807
-200	-5808
êter	-5809
▁extend	-5810
▁tourism	-5811
▁exchange	-5812
▁promoting	-5813
gra	-5814
▁appears	-5815
▁française	-5816
amélioration	-5817
▁usa	-5818
▁pois	-5819
▁arms	-5820
espace	-5821
▁seuls	-5822
▁globale	-5823
▁supports	-5824
▁comprehensive	-5825
dis	-5826
▁tribun	-5827
▁autonom	-5828
▁exercise	-5829
▁méthodes	-5830
exc	-5831
▁occur	-5832
▁diverg	-5833
▁multip	-5834
▁paraît	-5835
▁suivante	-5836
ung	-5837
▁accr	-5838
bation	-5839
▁provo	-5840
▁rencon	-5841
▁subsidies	-5842
introduction	-5843
▁infrastructure	-5844
oine	-5845
▁phy	-5846
▁2002,	-5847
▁opération	-5848
▁subsidiarity	-5849
agers	-5850
▁gaz	-5851
ismes	-5852
▁january	-5853
▁ambitious	-5854
▁communications	-5855
▁vul	-5856
▁annon	-5857
▁announ	-5858
▁figures	-5859
▁plenary	-5860
▁principaux	-5861
esses	-5862
▁ling	-5863
▁recy	-5864
▁reprise	-5865
ots	-5866
▁fat	-5867
▁mala	-5868
▁progressive	-5869
▁regrettable	-5870
absence	-5871
▁meetings	-5872
▁utilisation	-5873
▁couv	-5874
▁prêts	-5875
prus	-5876
▁arriver	-5877
▁failure	-5878
▁attendre	-5879
ane	-5880
ficit	-5881
▁cohér	-5882
▁ideas	-5883
▁matéri	-5884
▁targets	-5885
▁incon	-5886
▁converg	-5887
ma	-5888
▁60	-5889
explo	-5890
▁heart	-5891
▁lines	-5892
▁plain	-5893
▁judicial	-5894
▁communities	-5895
oct	-5896
ows	-5897
uter	-5898
inding	-5899
▁forth	-5900
▁circonst	-5901
▁payments	-5902
hr	-5903
énie	-5904
▁enj	-5905
▁enqu	-5906
▁stade	-5907
▁départ	-5908
▁janvier	-5909
▁équilibre	-5910
▁cyprus	-5911
▁protest	-5912
▁turkish	-5913
▁envisage	-5914
▁bos	-5915
admin	-5916
▁vite	-5917
▁délai	-5918
▁délais	-5919
▁controls	-5920
▁maladies	-5921
▁enterprises	-5922
▁approf	-5923
▁italian	-5924
▁reprodu	-5925
▁réserve	-5926
▁nucléaire	-5927
▁parv	-5928
▁regrette	-5929
▁industries	-5930
▁implications	-5931
mark	-5932
▁taxes	-5933
▁freedoms	-5934
▁comprends	-5935
▁operation	-5936
▁subsidiarité	-5937
adress	-5938
▁floor	-5939
▁opening	-5940
▁rappelle	-5941
élaboration	-5942
▁bou	-5943
uelles	-5944
▁avancer	-5945
▁vé	-5946
▁aurons	-5947
▁limite	-5948
▁presse	-5949
▁contraign	-5950
▁producers	-5951
▁establishment	-5952
bit	-5953
ués	-5954
ilst	-5955
inki	-5956
▁wall	-5957
issons	-5958
▁liées	-5959
▁quels	-5960
▁ultim	-5961
▁whilst	-5962
▁demandes	-5963
▁estimons	-5964
▁intentions	-5965
▁scientifiques	-5966
▁[	-5967
/00	-5968
ades	-5969
enci	-5970
hist	-5971
ttes	-5972
▁patent	-5973
▁november	-5974
▁strategic	-5975
▁globalisation	-5976
▁pun	-5977
▁accompli	-5978
▁réalisation	-5979
elsinki	-5980
▁interesting	-5981
gue	-5982
▁cot	-5983
▁gas	-5984
▁stu	-5985
outes	-5986
▁near	-5987
▁vari	-5988
▁suède	-5989
ocrates	-5990
▁famili	-5991
▁recour	-5992
▁putting	-5993
▁observations	-5994
▁bur	-5995
▁competitive	-5996
ev	-5997
▁enfor	-5998
▁covered	-5999
▁diversité	-6000
atlan	-6001
▁publ	-6002
ateful	-6003
éviter	-6004
▁détaill	-6005
▁constate	-6006
association	-6007
▁3,	-6008
▁bol	-6009
▁tam	-6010
▁cult	-6011
▁novembre	-6012
▁ey	-6013
▁devait	-6014
iant	-6015
▁burd	-6016
▁chefs	-6017
▁danish	-6018
▁suffit	-6019
ini	-6020
▁plur	-6021
▁entam	-6022
▁médias	-6023
▁totale	-6024
▁proposes	-6025
holm	-6026
▁drugs	-6027
▁tourisme	-6028
aste	-6029
lles	-6030
ducing	-6031
tically	-6032
▁please	-6033
▁souligne	-6034
▁personnellement	-6035
onu	-6036
▁hyp	-6037
▁pacte	-6038
▁detail	-6039
▁resolve	-6040
▁auxquels	-6041
▁stockholm	-6042
▁luxembourg	-6043
blement	-6044
▁tru	-6045
itement	-6046
▁dépass	-6047
▁espace	-6048
▁elected	-6049
▁collective	-6050
intervention	-6051
ipe	-6052
▁news	-6053
▁acteurs	-6054
▁managed	-6055
▁recommendations	-6056
attle	-6057
▁bomb	-6058
▁wonder	-6059
▁élabor	-6060
▁moindre	-6061
▁grateful	-6062
▁strongly	-6063
▁efficaces	-6064
utr	-6065
▁sett	-6066
▁alban	-6067
▁sépar	-6068
▁proche	-6069
▁viande	-6070
tisation	-6071
▁intellig	-6072
lez	-6073
sized	-6074
▁verh	-6075
▁arrêt	-6076
▁mauvais	-6077
▁examiner	-6078
▁recommandations	-6079
ón	-6080
anie	-6081
▁auront	-6082
▁langues	-6083
▁detailed	-6084
▁proposing	-6085
▁rej	-6086
▁mutual	-6087
▁réelle	-6088
▁sujets	-6089
▁évolution	-6090
▁représentent	-6091
▁principalement	-6092
rés	-6093
uler	-6094
illed	-6095
▁annex	-6096
▁attemp	-6097
▁granted	-6098
▁seeking	-6099
▁scr	-6100
▁sinc	-6101
▁atten	-6102
▁parall	-6103
▁revenir	-6104
▁terrain	-6105
▁consequently	-6106
▁internationaux	-6107
▁exac	-6108
▁noise	-6109
▁concernées	-6110
ober	-6111
▁hor	-6112
ining	-6113
▁aims	-6114
▁argent	-6115
exprimer	-6116
▁starting	-6117
▁britannique	-6118
irme	-6119
oblig	-6120
▁quar	-6121
▁invite	-6122
▁accorder	-6123
▁avantages	-6124
▁carefully	-6125
▁financing	-6126
▁essentiels	-6127
▁ém	-6128
▁inu	-6129
▁coût	-6130
▁fasse	-6131
▁secure	-6132
▁famille	-6133
▁multilat	-6134
▁reducing	-6135
▁considérer	-6136
iées	-6137
trent	-6138
▁satisfais	-6139
▁terrorist	-6140
▁mist	-6141
▁tasks	-6142
clusion	-6143
▁prochaines	-6144
▁islam	-6145
▁assemb	-6146
▁caractér	-6147
▁greatest	-6148
▁reasonable	-6149
elona	-6150
▁october	-6151
ènes	-6152
ophob	-6153
▁laisse	-6154
▁appréci	-6155
zo	-6156
▁80	-6157
cupe	-6158
▁came	-6159
▁revêt	-6160
▁linguis	-6161
▁represents	-6162
▁essentielle	-6163
hib	-6164
obre	-6165
ender	-6166
otechn	-6167
▁admit	-6168
▁examine	-6169
▁getting	-6170
▁milliers	-6171
▁barcelona	-6172
▁isol	-6173
chement	-6174
▁aliments	-6175
▁marchand	-6176
▁évidence	-6177
▁extension	-6178
▁entreprise	-6179
communications	-6180
▁bâ	-6181
este	-6182
▁encourager	-6183
▁considérable	-6184
▁mi	-6185
▁évol	-6186
▁pacif	-6187
▁minute	-6188
▁distinction	-6189
▁compétitivité	-6190
▁timet	-6191
ché	-6192
crire	-6193
▁refl	-6194
▁endorse	-6195
appliquer	-6196
elone	-6197
▁vaut	-6198
▁factor	-6199
atically	-6200
▁involve	-6201
▁guarantees	-6202
ristian	-6203
▁mandate	-6204
exécution	-6205
▁émissions	-6206
étch	-6207
▁salue	-6208
▁maladie	-6209
▁empêcher	-6210
administration	-6211
5.	-6212
▁mc	-6213
▁warm	-6214
▁domes	-6215
▁facilit	-6216
▁barcelone	-6217
▁pourrions	-6218
▁understanding	-6219
ift	-6220
▁préparation	-6221
(200	-6222
pere	-6223
▁ult	-6224
ening	-6225
▁enjoy	-6226
▁italy	-6227
▁plais	-6228
essions	-6229
▁copenhagen	-6230
▁evaluation	-6231
ians	-6232
▁ajout	-6233
▁tchétch	-6234
▁contamin	-6235
▁copenhague	-6236
hon	-6237
▁grounds	-6238
▁chiffres	-6239
▁offre	-6240
▁europeans	-6241
▁enh	-6242
▁remet	-6243
▁austria	-6244
▁conduct	-6245
▁practices	-6246
urent	-6247
▁pronon	-6248
▁statute	-6249
▁absence	-6250
▁concrete	-6251
▁languages	-6252
▁hy	-6253
▁réuss	-6254
▁limits	-6255
▁diverses	-6256
ys	-6257
cepti	-6258
▁formes	-6259
▁unless	-6260
▁bringing	-6261
▁efficiency	-6262
▁ouv	-6263
tering	-6264
échange	-6265
▁signaler	-6266
▁personally	-6267
impact	-6268
▁puiss	-6269
èrement	-6270
▁autrement	-6271
▁trafficking	-6272
▁cong	-6273
▁heads	-6274
▁soutenu	-6275
▁advantage	-6276
▁communautés	-6277
199	-6278
pérer	-6279
▁symp	-6280
▁frais	-6281
▁attrib	-6282
▁garanties	-6283
▁tex	-6284
▁nato	-6285
▁attack	-6286
▁obtenu	-6287
▁signed	-6288
▁chairman	-6289
imentation	-6290
unité	-6291
▁cust	-6292
▁activité	-6293
▁contacts	-6294
▁cultures	-6295
▁préoccupation	-6296
▁fonctionnaires	-6297
▁visit	-6298
▁évoqué	-6299
▁approval	-6300
▁biotechn	-6301
▁negative	-6302
tition	-6303
▁esprit	-6304
▁journal	-6305
▁peoples	-6306
ury	-6307
erved	-6308
▁cess	-6309
▁mains	-6310
▁serve	-6311
▁voire	-6312
▁israéli	-6313
▁entendre	-6314
▁continuing	-6315
▁appropriations	-6316
▁contract	-6317
▁integrated	-6318
▁4,	-6319
acio	-6320
▁femme	-6321
▁persu	-6322
▁oublier	-6323
▁gave	-6324
▁fonde	-6325
▁range	-6326
▁souci	-6327
▁faible	-6328
▁rad	-6329
▁futur	-6330
▁tampere	-6331
eur	-6332
roi	-6333
▁insister	-6334
▁changer	-6335
▁subventions	-6336
▁canc	-6337
actory	-6338
europé	-6339
▁adopting	-6340
▁challenges	-6341
▁amélioration	-6342
aliser	-6343
▁montré	-6344
▁followed	-6345
▁réflexion	-6346
inv	-6347
▁coal	-6348
▁conven	-6349
▁ones	-6350
▁sides	-6351
histoire	-6352
▁contient	-6353
▁modernisation	-6354
▁rét	-6355
▁gain	-6356
▁lost	-6357
▁physi	-6358
▁discip	-6359
▁adequate	-6360
▁recommendation	-6361
itié	-6362
▁codé	-6363
▁nour	-6364
▁susp	-6365
▁espère	-6366
▁compagnies	-6367
▁1.	-6368
verse	-6369
▁advoc	-6370
▁recycl	-6371
▁reduced	-6372
▁july	-6373
▁servir	-6374
▁infrastructures	-6375
istre	-6376
tiles	-6377
▁temporary	-6378
▁involvement	-6379
▁replace	-6380
interdiction	-6381
...	-6382
uese	-6383
▁bse	-6384
▁flot	-6385
esburg	-6386
alistic	-6387
▁series	-6388
▁suppos	-6389
▁autrich	-6390
▁palacio	-6391
▁delighted	-6392
▁génétique	-6393
▁johannesburg	-6394
▁mises	-6395
▁vitor	-6396
triment	-6397
▁unilat	-6398
tiveness	-6399
▁employees	-6400
▁irlandais	-6401
▁thousands	-6402
tein	-6403
▁monna	-6404
▁exploitation	-6405
▁pi	-6406
habit	-6407
▁lois	-6408
ertain	-6409
▁injus	-6410
▁juillet	-6411
▁related	-6412
▁matières	-6413
▁profiter	-6414
▁diversity	-6415
eter	-6416
▁règle	-6417
▁portuguese	-6418
▁jeu	-6419
▁reflect	-6420
▁thor	-6421
unanim	-6422
▁works	-6423
▁compré	-6424
▁binding	-6425
▁auditors	-6426
▁os	-6427
intes	-6428
▁eaux	-6429
équilibre	-6430
▁happening	-6431
son	-6432
▁durée	-6433
▁amongst	-6434
▁seconde	-6435
là	-6436
tier	-6437
▁secr	-6438
▁témo	-6439
▁roman	-6440
▁notion	-6441
▁reinfor	-6442
▁réalisés	-6443
▁2004.	-6444
▁failed	-6445
▁porter	-6446
▁adhésion	-6447
▁réponses	-6448
▁industrie	-6449
▁innovation	-6450
▁pse	-6451
▁étape	-6452
▁forced	-6453
▁complexe	-6454
▁designed	-6455
▁vitorino	-6456
▁generally	-6457
▁immédiatement	-6458
roître	-6459
unanimité	-6460
▁concentrer	-6461
▁âg	-6462
▁aimed	-6463
▁ressor	-6464
▁accepté	-6465
▁convaincu	-6466
▁précédent	-6467
▁sentiment	-6468
▁codécision	-6469
ding	-6470
▁late	-6471
▁portant	-6472
▁committees	-6473
wide	-6474
agner	-6475
endra	-6476
examen	-6477
▁hence	-6478
▁volunt	-6479
▁changed	-6480
▁confusion	-6481
▁insurance	-6482
▁stri	-6483
adopter	-6484
▁concert	-6485
énom	-6486
undred	-6487
▁cesse	-6488
▁idées	-6489
▁ready	-6490
ologiques	-6491
▁disapp	-6492
▁surely	-6493
▁briefly	-6494
▁locales	-6495
▁dirigeants	-6496
▁différences	-6497
▁participate	-6498
▁belie	-6499
▁retrait	-6500
astr	-6501
onia	-6502
▁accus	-6503
▁concré	-6504
▁hundred	-6505
▁competence	-6506
▁undertaking	-6507
▁doll	-6508
▁apart	-6509
▁lettre	-6510
▁underm	-6511
▁lumière	-6512
▁alternatives	-6513
alu	-6514
▁ut	-6515
êtres	-6516
▁echo	-6517
accent	-6518
▁confrontés	-6519
▁résolutions	-6520
harm	-6521
sias	-6522
▁doha	-6523
▁vive	-6524
▁israël	-6525
▁phénom	-6526
▁revient	-6527
▁poids	-6528
▁termin	-6529
▁labelling	-6530
▁competitiveness	-6531
oon	-6532
▁faced	-6533
▁vehic	-6534
▁facing	-6535
▁growing	-6536
▁contrôler	-6537
▁immediate	-6538
▁convergence	-6539
▁circonstances	-6540
▁installations	-6541
ki	-6542
▁coast	-6543
▁envisag	-6544
▁silence	-6545
▁currency	-6546
▁exclusion	-6547
ired	-6548
▁plac	-6549
▁colomb	-6550
▁forest	-6551
▁leading	-6552
▁assembly	-6553
▁expected	-6554
uth	-6555
prét	-6556
accep	-6557
existe	-6558
▁préal	-6559
amérique	-6560
▁profonde	-6561
▁fortement	-6562
▁véritablement	-6563
ah	-6564
▁acts	-6565
sement	-6566
▁withdraw	-6567
ouss	-6568
tige	-6569
▁jap	-6570
▁tonnes	-6571
▁barr	-6572
harmon	-6573
▁corruption	-6574
augmentation	-6575
xic	-6576
anced	-6577
▁sole	-6578
▁consul	-6579
▁prosec	-6580
▁defined	-6581
▁précise	-6582
▁started	-6583
▁moyennes	-6584
arification	-6585
▁perd	-6586
▁complic	-6587
▁attendons	-6588
▁symb	-6589
▁vouloir	-6590
▁missions	-6591
▁fas	-6592
eness	-6593
▁gradu	-6594
▁fraude	-6595
▁programm	-6596
▁pêcheurs	-6597
aurer	-6598
▁défend	-6599
▁langue	-6600
▁letter	-6601
▁portée	-6602
▁autorité	-6603
▁conduite	-6604
lib	-6605
▁goal	-6606
▁réaction	-6607
▁recommandation	-6608
▁500	-6609
▁1997	-6610
atever	-6611
activité	-6612
▁charges	-6613
▁finances	-6614
▁déterminer	-6615
▁29	-6616
▁presence	-6617
▁whatever	-6618
nl	-6619
ush	-6620
établir	-6621
▁applicable	-6622
teb	-6623
cally	-6624
▁spent	-6625
▁beings	-6626
▁speaker	-6627
investissement	-6628
▁nul	-6629
active	-6630
▁citer	-6631
▁enreg	-6632
▁ferro	-6633
general	-6634
▁includes	-6635
▁identit	-6636
▁tôt	-6637
▁facile	-6638
▁ferrovi	-6639
▁western	-6640
▁raisonnable	-6641
ley	-6642
ril	-6643
▁migr	-6644
▁attacks	-6645
▁complète	-6646
▁suffering	-6647
isms	-6648
▁terre	-6649
▁proposés	-6650
)]	-6651
mples	-6652
▁refuse	-6653
▁visite	-6654
▁territory	-6655
▁mécanismes	-6656
inks	-6657
▁écr	-6658
dible	-6659
ermen	-6660
▁acte	-6661
▁carb	-6662
export	-6663
irlande	-6664
▁déposé	-6665
▁connaît	-6666
▁consistent	-6667
établissement	-6668
trait	-6669
▁equally	-6670
▁privatis	-6671
▁erika	-6672
▁indire	-6673
▁conflicts	-6674
▁intervenir	-6675
▁siè	-6676
▁défis	-6677
▁payer	-6678
▁complè	-6679
▁actuels	-6680
▁trouvent	-6681
▁justified	-6682
▁puissions	-6683
ield	-6684
▁defend	-6685
▁northern	-6686
▁occident	-6687
▁planning	-6688
▁proposée	-6689
▁favoriser	-6690
▁premières	-6691
rie	-6692
▁gö	-6693
oriz	-6694
▁mult	-6695
▁moroc	-6696
▁privil	-6697
▁uniform	-6698
▁fondamentales	-6699
▁êtes	-6700
▁permit	-6701
▁partout	-6702
▁fishermen	-6703
▁populaire	-6704
50	-6705
nant	-6706
pril	-6707
▁cab	-6708
▁phil	-6709
▁domin	-6710
▁fixer	-6711
ancement	-6712
informations	-6713
ta	-6714
▁ong	-6715
▁yes	-6716
/2002	-6717
▁maroc	-6718
ditions	-6719
▁propri	-6720
approche	-6721
▁complain	-6722
▁fins	-6723
▁rendu	-6724
▁résid	-6725
▁erreur	-6726
▁leader	-6727
▁belgian	-6728
▁april	-6729
▁garan	-6730
▁pénale	-6731
▁deliver	-6732
▁options	-6733
▁suppression	-6734
5-04	-6735
quetage	-6736
▁centres	-6737
▁forthcoming	-6738
▁fondamentale	-6739
▁électronique	-6740
ypre	-6741
▁glad	-6742
ensive	-6743
▁attirer	-6744
▁associations	-6745
▁numer	-6746
▁truly	-6747
▁étude	-6748
▁custom	-6749
▁humain	-6750
▁citizen	-6751
▁imposer	-6752
edy	-6753
what	-6754
aliste	-6755
▁bound	-6756
▁calcul	-6757
▁concernent	-6758
otan	-6759
▁issu	-6760
▁monnaie	-6761
▁augmenter	-6762
▁cohérence	-6763
estim	-6764
▁loss	-6765
▁soum	-6766
▁thèmes	-6767
▁russian	-6768
▁historic	-6769
▁parvenus	-6770
▁politics	-6771
▁continues	-6772
."	-6773
obs	-6774
▁slow	-6775
▁voulu	-6776
▁campagne	-6777
▁exactement	-6778
▁requirement	-6779
▁eldr	-6780
entrée	-6781
kestein	-6782
▁sympath	-6783
▁générales	-6784
▁strengthening	-6785
▁sang	-6786
▁knows	-6787
▁chypre	-6788
▁reiter	-6789
▁relatifs	-6790
▁bolkestein	-6791
▁différence	-6792
issait	-6793
▁approuver	-6794
▁membership	-6795
▁improvements	-6796
med	-6797
avez	-6798
tidi	-6799
▁prohib	-6800
▁target	-6801
▁regular	-6802
▁utilisé	-6803
ns	-6804
▁brut	-6805
examin	-6806
▁niels	-6807
▁nether	-6808
▁realise	-6809
▁prestige	-6810
▁netherlands	-6811
chent	-6812
▁gros	-6813
▁worse	-6814
▁assume	-6815
▁income	-6816
▁diseases	-6817
▁interested	-6818
long	-6819
érée	-6820
▁amen	-6821
▁tried	-6822
▁moving	-6823
▁religion	-6824
▁retraite	-6825
▁motiv	-6826
▁interne	-6827
ercussions	-6828
▁tac	-6829
▁enth	-6830
▁flag	-6831
▁indiqué	-6832
▁mechanisms	-6833
teuse	-6834
▁destinés	-6835
▁utilisés	-6836
▁disponibles	-6837
▁break	-6838
▁réunions	-6839
▁meilleures	-6840
ony	-6841
▁incomp	-6842
▁lancer	-6843
▁eastern	-6844
▁octobre	-6845
▁extended	-6846
▁thorough	-6847
▁90	-6848
sibly	-6849
▁ngos	-6850
akistan	-6851
▁extérieure	-6852
%.	-6853
enb	-6854
adap	-6855
cription	-6856
▁alliance	-6857
▁américain	-6858
▁faciliter	-6859
▁commerciales	-6860
▁smo	-6861
▁radic	-6862
▁burden	-6863
▁illustr	-6864
▁produire	-6865
▁réfléchir	-6866
cin	-6867
isé	-6868
enty	-6869
▁suscepti	-6870
▁essentiellement	-6871
effe	-6872
▁timetable	-6873
nés	-6874
ular	-6875
▁division	-6876
exerc	-6877
▁valid	-6878
cession	-6879
▁quotidi	-6880
▁numerous	-6881
▁pakistan	-6882
▁repeated	-6883
▁resolved	-6884
▁supprimer	-6885
▁operations	-6886
éral	-6887
▁cycle	-6888
vant	-6889
▁emergency	-6890
▁officials	-6891
▁intérieures	-6892
auche	-6893
autant	-6894
▁puisqu	-6895
▁entraîner	-6896
▁respected	-6897
▁interdiction	-6898
▁relativement	-6899
▁az	-6900
▁vess	-6901
▁wide	-6902
▁déroul	-6903
▁ouvert	-6904
standing	-6905
ank	-6906
▁ci	-6907
pping	-6908
excell	-6909
▁connu	-6910
quently	-6911
▁progresser	-6912
▁difficiles	-6913
öm	-6914
tröm	-6915
▁197	-6916
ility	-6917
▁bases	-6918
▁belong	-6919
▁margin	-6920
▁israeli	-6921
▁réserves	-6922
▁connaître	-6923
▁politicians	-6924
▁heav	-6925
▁talks	-6926
▁fourth	-6927
▁voluntary	-6928
▁équitable	-6929
▁sérieusement	-6930
aucun	-6931
▁cred	-6932
▁linked	-6933
▁suppose	-6934
▁exceptions	-6935
▁concrètement	-6936
cées	-6937
▁paquet	-6938
▁destroy	-6939
éralement	-6940
▁noon	-6941
▁fruit	-6942
▁evening	-6943
▁persons	-6944
▁profits	-6945
▁orateurs	-6946
chec	-6947
▁bann	-6948
▁bloc	-6949
▁kore	-6950
▁meat	-6951
▁merc	-6952
▁farming	-6953
ics	-6954
▁lies	-6955
▁perfectly	-6956
eugen	-6957
▁1999.	-6958
▁pharm	-6959
▁postp	-6960
▁interm	-6961
▁helsinki	-6962
obligation	-6963
▁efficacité	-6964
▁writ	-6965
ential	-6966
▁rédig	-6967
▁petite	-6968
▁mauvaise	-6969
▁difference	-6970
▁coton	-6971
▁multi	-6972
▁families	-6973
▁préparer	-6974
▁suédoise	-6975
entreprise	-6976
▁règlements	-6977
▁separate	-6978
llect	-6979
ouvez	-6980
▁rome	-6981
▁meaning	-6982
▁nielson	-6983
inational	-6984
▁verheugen	-6985
écu	-6986
▁26	-6987
▁moitié	-6988
▁lower	-6989
▁annuel	-6990
▁chapit	-6991
▁néglig	-6992
▁monopol	-6993
▁codecision	-6994
▁présidents	-6995
▁pme	-6996
▁vivre	-6997
▁véhic	-6998
afrique	-6999
▁voisins	-7000
▁multinational	-7001
▁rub	-7002
aimer	-7003
▁passage	-7004
▁restent	-7005
▁revanche	-7006
▁expérience	-7007
oning	-7008
▁arab	-7009
▁menac	-7010
▁partag	-7011
▁disting	-7012
▁examples	-7013
▁poursuite	-7014
▁stratégique	-7015
den	-7016
wan	-7017
anda	-7018
▁bri	-7019
▁virt	-7020
obtenir	-7021
▁stable	-7022
▁existent	-7023
▁présentée	-7024
▁marchandises	-7025
▁colon	-7026
▁claires	-7027
▁clarify	-7028
▁legitimate	-7029
▁référendum	-7030
uds	-7031
teborg	-7032
▁vérif	-7033
▁penalty	-7034
▁agencies	-7035
▁culturelle	-7036
▁britanniques	-7037
aison	-7038
▁chin	-7039
▁factors	-7040
▁happens	-7041
▁adéquate	-7042
▁coordonn	-7043
▁médiateur	-7044
▁protecting	-7045
▁inquiétudes	-7046
▁lien	-7047
▁path	-7048
entiel	-7049
▁2003,	-7050
▁ships	-7051
ervation	-7052
▁pouvait	-7053
▁decisive	-7054
assistance	-7055
▁extérieures	-7056
enf	-7057
chnya	-7058
▁elimin	-7059
▁likely	-7060
▁textes	-7061
dibility	-7062
▁entitled	-7063
▁göteborg	-7064
ror	-7065
/00)	-7066
▁fri	-7067
allem	-7068
▁ende	-7069
▁fine	-7070
▁reli	-7071
▁ving	-7072
▁class	-7073
▁ordin	-7074
▁manage	-7075
▁pouvez	-7076
aimerais	-7077
▁communi	-7078
▁passeng	-7079
▁chechnya	-7080
▁intellect	-7081
▁credibility	-7082
illon	-7083
▁mode	-7084
▁arrest	-7085
▁remarqu	-7086
▁contained	-7087
▁dangereux	-7088
▁commentaires	-7089
îne	-7090
pres	-7091
▁omb	-7092
époque	-7093
▁macéd	-7094
▁détails	-7095
▁positifs	-7096
▁détru	-7097
certain	-7098
exercice	-7099
▁permettent	-7100
▁répartition	-7101
/2002)	-7102
▁plaisir	-7103
honorable	-7104
▁fighting	-7105
▁terrible	-7106
▁espagnole	-7107
▁remarquer	-7108
▁palestiniens	-7109
èces	-7110
▁hands	-7111
▁marge	-7112
▁electron	-7113
▁semblent	-7114
▁interpret	-7115
▁contradiction	-7116
set	-7117
enez	-7118
▁tun	-7119
rière	-7120
▁hong	-7121
▁énergie	-7122
▁peaceful	-7123
tification	-7124
▁méditerrané	-7125
arme	-7126
based	-7127
raine	-7128
▁tackle	-7129
appe	-7130
▁num	-7131
▁reb	-7132
▁somewhat	-7133
▁ultimately	-7134
▁lif	-7135
▁pie	-7136
▁conce	-7137
▁endeav	-7138
▁postal	-7139
▁mondialisation	-7140
▁ogm	-7141
▁stra	-7142
▁cinqu	-7143
▁diver	-7144
▁maced	-7145
▁fifteen	-7146
▁section	-7147
▁minority	-7148
▁conviction	-7149
oned	-7150
▁saur	-7151
▁liber	-7152
ctrices	-7153
▁shared	-7154
▁continued	-7155
▁supplementary	-7156
))	-7157
érité	-7158
▁paro	-7159
▁autour	-7160
▁friends	-7161
▁welcomed	-7162
▁guaranteed	-7163
dém	-7164
èse	-7165
▁70	-7166
▁rac	-7167
going	-7168
▁bout	-7169
▁tenter	-7170
▁financer	-7171
▁brièvement	-7172
▁obligatoire	-7173
1,	-7174
ived	-7175
▁idé	-7176
onner	-7177
rième	-7178
▁voice	-7179
▁relève	-7180
▁préciser	-7181
▁extensive	-7182
née	-7183
▁sid	-7184
▁chim	-7185
▁croire	-7186
▁exists	-7187
▁imagine	-7188
▁crédibil	-7189
▁réglementations	-7190
▁bref	-7191
▁room	-7192
▁valu	-7193
▁scale	-7194
▁solve	-7195
▁fabric	-7196
▁prolong	-7197
▁observation	-7198
ugg	-7199
▁inade	-7200
▁written	-7201
▁quatrième	-7202
▁socialist	-7203
▁correctement	-7204
▁commissioners	-7205
▁vigil	-7206
▁ombuds	-7207
▁passed	-7208
▁débattre	-7209
▁envisager	-7210
▁traditional	-7211
▁demonstrated	-7212
▁vingt	-7213
▁souver	-7214
▁amounts	-7215
▁régionales	-7216
',	-7217
urde	-7218
▁gmos	-7219
▁soins	-7220
▁scheme	-7221
▁referendum	-7222
érés	-7223
andis	-7224
▁chem	-7225
▁remo	-7226
▁comit	-7227
▁légitim	-7228
itons	-7229
apport	-7230
▁optim	-7231
▁recover	-7232
▁treated	-7233
impression	-7234
▁demonstrate	-7235
ût	-7236
▁5,	-7237
▁rid	-7238
▁démon	-7239
▁entier	-7240
▁ability	-7241
▁emphasis	-7242
expérience	-7243
▁commissions	-7244
▁conservation	-7245
cipé	-7246
intérieur	-7247
▁purposes	-7248
▁crédibilité	-7249
atta	-7250
▁wit	-7251
▁attra	-7252
▁belge	-7253
▁accueill	-7254
▁combattre	-7255
aï	-7256
rid	-7257
▁écl	-7258
▁friend	-7259
▁garder	-7260
▁approve	-7261
▁election	-7262
▁premiers	-7263
▁opérations	-7264
aceu	-7265
▁poet	-7266
▁démont	-7267
▁denmark	-7268
▁minorités	-7269
alimentation	-7270
▁sept	-7271
▁noted	-7272
▁subse	-7273
▁entrer	-7274
▁cherche	-7275
▁actuelles	-7276
▁efficacement	-7277
cés	-7278
1999	-7279
▁gender	-7280
pay	-7281
/2003	-7282
inely	-7283
▁appu	-7284
▁disposi	-7285
▁ambition	-7286
▁auxquelles	-7287
▁commissaires	-7288
lying	-7289
▁welf	-7290
▁garde	-7291
emplois	-7292
▁trouvé	-7293
▁precise	-7294
▁involves	-7295
▁présents	-7296
rne	-7297
▁37	-7298
▁sat	-7299
▁tib	-7300
ennes	-7301
mpleur	-7302
▁byrne	-7303
utiliser	-7304
▁aurions	-7305
▁ressort	-7306
▁répéter	-7307
assurance	-7308
▁démarche	-7309
▁reaction	-7310
▁nucléaires	-7311
verbal	-7312
▁avril	-7313
▁stake	-7314
▁easier	-7315
▁welfare	-7316
▁formulation	-7317
8,	-7318
abe	-7319
uits	-7320
▁lourd	-7321
▁trial	-7322
quested	-7323
▁énorme	-7324
▁élector	-7325
▁category	-7326
▁chemical	-7327
▁requested	-7328
▁compliance	-7329
exploitation	-7330
▁professional	-7331
instru	-7332
▁philos	-7333
▁placed	-7334
▁tandis	-7335
▁études	-7336
▁relever	-7337
▁mécanisme	-7338
▁socialiste	-7339
▁suggestion	-7340
▁énergétique	-7341
▁core	-7342
▁trouvons	-7343
▁professionnelle	-7344
▁vaste	-7345
▁imposed	-7346
▁operators	-7347
▁possibles	-7348
▁transatlan	-7349
▁moral	-7350
▁contribué	-7351
▁considering	-7352
hne	-7353
let	-7354
hors	-7355
ctifs	-7356
emark	-7357
ishing	-7358
▁cancer	-7359
▁greens	-7360
▁prévue	-7361
▁finland	-7362
▁revenus	-7363
▁operate	-7364
▁relates	-7365
▁vivement	-7366
▁liability	-7367
▁ressortiss	-7368
▁encouraging	-7369
institutional	-7370
▁sta	-7371
inqui	-7372
▁century	-7373
▁capitaux	-7374
▁pacifique	-7375
▁ing	-7376
vereign	-7377
▁danemark	-7378
▁sovereign	-7379
▁consumption	-7380
pal	-7381
▁lose	-7382
▁gross	-7383
▁minist	-7384
▁heading	-7385
▁science	-7386
▁adoptées	-7387
▁ombudsman	-7388
▁qualified	-7389
▁universal	-7390
▁electronic	-7391
umed	-7392
▁prove	-7393
▁spect	-7394
▁siècle	-7395
▁concrets	-7396
▁genuinely	-7397
▁tchétchénie	-7398
▁horiz	-7399
▁additi	-7400
▁examen	-7401
▁domestic	-7402
▁mechanism	-7403
▁poettering	-7404
▁souhaitent	-7405
▁complètement	-7406
ball	-7407
ugos	-7408
produ	-7409
▁fixé	-7410
ugoslav	-7411
▁octroy	-7412
▁intends	-7413
ctiveness	-7414
▁adh	-7415
▁tragic	-7416
▁details	-7417
▁dignity	-7418
▁federal	-7419
▁revision	-7420
▁fonctionne	-7421
▁simplification	-7422
▁got	-7423
innock	-7424
▁navig	-7425
▁television	-7426
lies	-7427
intern	-7428
▁pilier	-7429
▁religious	-7430
▁technologie	-7431
nier	-7432
▁somme	-7433
▁cigare	-7434
▁spread	-7435
▁yugoslav	-7436
▁pharmaceu	-7437
ream	-7438
undi	-7439
▁privé	-7440
▁abordé	-7441
▁défaut	-7442
▁kinnock	-7443
▁comprend	-7444
▁concluded	-7445
▁hos	-7446
ointed	-7447
▁dépit	-7448
▁réform	-7449
▁stipul	-7450
▁tendance	-7451
▁précaution	-7452
▁clarification	-7453
timis	-7454
angers	-7455
▁hours	-7456
▁space	-7457
▁aftern	-7458
▁fulfil	-7459
▁procure	-7460
▁preparing	-7461
▁existantes	-7462
5%	-7463
▁mine	-7464
espoir	-7465
ientôt	-7466
uration	-7467
▁afford	-7468
▁latter	-7469
▁bientôt	-7470
▁auraient	-7471
▁viennent	-7472
expression	-7473
▁couver	-7474
▁réussite	-7475
ilt	-7476
oub	-7477
▁vill	-7478
acquis	-7479
▁oppose	-7480
▁répète	-7481
tiennent	-7482
èvre	-7483
ground	-7484
▁execu	-7485
▁préoc	-7486
▁espoir	-7487
▁drawing	-7488
▁paroles	-7489
▁ambitieux	-7490
▁bil	-7491
▁meda	-7492
agence	-7493
▁fondée	-7494
▁careful	-7495
▁obstacle	-7496
▁individuals	-7497
▁considérables	-7498
bler	-7499
pped	-7500
tiens	-7501
▁suivant	-7502
exportation	-7503
▁fonctionner	-7504
▁independence	-7505
▁satisfactory	-7506
itz	-7507
▁bat	-7508
▁diam	-7509
▁behav	-7510
▁feira	-7511
▁truth	-7512
appelle	-7513
▁prosper	-7514
▁studies	-7515
▁organisée	-7516
▁préserver	-7517
ola	-7518
analy	-7519
mbers	-7520
▁sold	-7521
▁bruit	-7522
▁played	-7523
▁déclare	-7524
ographique	-7525
▁potentiel	-7526
uves	-7527
çant	-7528
▁socio	-7529
▁trading	-7530
▁witness	-7531
▁contradict	-7532
▁regulatory	-7533
▁considérons	-7534
isée	-7535
▁pillar	-7536
▁tâches	-7537
▁urgency	-7538
▁rational	-7539
▁afternoon	-7540
▁mentionné	-7541
amendements	-7542
▁télévision	-7543
▁negotiating	-7544
▁systématique	-7545
arté	-7546
▁élo	-7547
itant	-7548
étude	-7549
▁param	-7550
▁brevet	-7551
▁afrique	-7552
▁compren	-7553
▁applying	-7554
▁introduit	-7555
▁directrices	-7556
try	-7557
▁dig	-7558
ories	-7559
uting	-7560
▁chale	-7561
▁facts	-7562
▁stimul	-7563
▁irlande	-7564
▁recevoir	-7565
▁undertaken	-7566
▁problématique	-7567
▁%.	-7568
▁kept	-7569
▁corps	-7570
échelle	-7571
▁dehors	-7572
▁slight	-7573
▁remarks	-7574
▁paiements	-7575
▁principales	-7576
harmonisation	-7577
▁6,	-7578
▁éth	-7579
▁mach	-7580
▁image	-7581
▁fièvre	-7582
▁inspect	-7583
▁planned	-7584
▁fermement	-7585
▁travaillé	-7586
▁législatives	-7587
▁ax	-7588
agenda	-7589
▁saluer	-7590
▁capacités	-7591
▁proposées	-7592
▁socialists	-7593
▁operational	-7594
rice	-7595
▁disag	-7596
▁intol	-7597
▁assumer	-7598
▁compter	-7599
allemagne	-7600
▁described	-7601
▁elsewhere	-7602
▁régulière	-7603
▁precaution	-7604
▁statistiques	-7605
vo	-7606
▁cam	-7607
▁prêt	-7608
érance	-7609
▁délic	-7610
▁parad	-7611
▁places	-7612
▁pétrole	-7613
▁humaines	-7614
▁échanges	-7615
▁approfond	-7616
▁intéressant	-7617
pa	-7618
▁aph	-7619
eront	-7620
necess	-7621
▁pollu	-7622
▁rétabl	-7623
▁dignité	-7624
▁largely	-7625
icy	-7626
rel	-7627
akis	-7628
ogne	-7629
▁aspir	-7630
▁ignor	-7631
▁macro	-7632
▁plant	-7633
▁confid	-7634
▁interf	-7635
▁remark	-7636
▁déposés	-7637
▁majeure	-7638
▁suédois	-7639
▁believes	-7640
itée	-7641
▁miss	-7642
▁prosp	-7643
centage	-7644
▁engage	-7645
▁distance	-7646
▁allocated	-7647
▁prononcer	-7648
▁compt	-7649
▁dérog	-7650
▁spoke	-7651
▁stands	-7652
▁southern	-7653
▁compatible	-7654
▁favorables	-7655
/01)	-7656
paravant	-7657
▁unnecess	-7658
▁économies	-7659
▁represented	-7660
ato	-7661
sign	-7662
▁primary	-7663
▁waiting	-7664
▁mouvement	-7665
▁suggested	-7666
▁minorities	-7667
▁vaccination	-7668
▁gone	-7669
▁insu	-7670
encour	-7671
▁prête	-7672
▁souha	-7673
ocation	-7674
▁define	-7675
mination	-7676
▁communs	-7677
▁connaissons	-7678
mun	-7679
▁trou	-7680
▁formal	-7681
▁élimin	-7682
agissant	-7683
▁concrète	-7684
▁director	-7685
▁principale	-7686
▁bra	-7687
abling	-7688
effort	-7689
▁racism	-7690
▁familles	-7691
▁commerciaux	-7692
.)	-7693
argo	-7694
uent	-7695
iable	-7696
▁joue	-7697
▁check	-7698
▁embry	-7699
instant	-7700
▁propag	-7701
▁thereby	-7702
▁considers	-7703
▁protected	-7704
▁published	-7705
▁concentration	-7706
rég	-7707
uted	-7708
▁exha	-7709
▁salari	-7710
▁demeure	-7711
▁proceedings	-7712
cks	-7713
avais	-7714
istic	-7715
▁perdre	-7716
▁réclam	-7717
▁touche	-7718
▁cotonou	-7719
▁radical	-7720
▁aphteuse	-7721
▁renforcée	-7722
vised	-7723
▁approxim	-7724
human	-7725
▁lamy	-7726
andest	-7727
itimes	-7728
▁incap	-7729
▁pursue	-7730
▁morocco	-7731
▁compared	-7732
▁conscients	-7733
▁parallèlement	-7734
▁considerations	-7735
osé	-7736
ives	-7737
midi	-7738
▁bate	-7739
atures	-7740
▁formuler	-7741
▁coalition	-7742
▁philosoph	-7743
▁politically	-7744
▁stabilisation	-7745
où	-7746
ordi	-7747
ueil	-7748
▁hal	-7749
érable	-7750
▁frapp	-7751
▁tunis	-7752
▁hypocr	-7753
▁spoken	-7754
▁allowing	-7755
▁clandest	-7756
ints	-7757
▁mines	-7758
▁adjust	-7759
▁distor	-7760
▁postes	-7761
▁sexual	-7762
▁twenty	-7763
▁apporté	-7764
▁electric	-7765
▁mobilité	-7766
▁thanking	-7767
▁expliquer	-7768
augh	-7769
comes	-7770
ieuse	-7771
▁bosn	-7772
▁choc	-7773
estions	-7774
ibilité	-7775
▁désire	-7776
▁régler	-7777
▁serons	-7778
▁soyons	-7779
▁étroite	-7780
▁derrière	-7781
▁introduire	-7782
▁mm	-7783
ualité	-7784
ulsory	-7785
▁menée	-7786
▁détail	-7787
▁galile	-7788
▁prepare	-7789
▁intensif	-7790
▁sincèrement	-7791
ott	-7792
pées	-7793
espagne	-7794
▁payment	-7795
▁administr	-7796
▁appropriée	-7797
ares	-7798
▁kal	-7799
▁sacr	-7800
▁supr	-7801
▁pleas	-7802
▁dangers	-7803
▁allemagne	-7804
▁primarily	-7805
▁péti	-7806
crimin	-7807
▁ayons	-7808
▁élevés	-7809
▁régimes	-7810
▁destinées	-7811
▁satisfied	-7812
▁uncertain	-7813
▁écologique	-7814
4,	-7815
▁blood	-7816
▁waters	-7817
▁torture	-7818
exclusion	-7819
▁sensibil	-7820
▁lancé	-7821
▁écrit	-7822
areness	-7823
▁irresp	-7824
▁vendre	-7825
▁galileo	-7826
▁opposite	-7827
▁phénomène	-7828
▁conception	-7829
visionnement	-7830
▁inspections	-7831
ano	-7832
card	-7833
▁lob	-7834
▁rates	-7835
▁motifs	-7836
▁preced	-7837
▁racisme	-7838
▁turning	-7839
▁football	-7840
▁disposent	-7841
▁justification	-7842
▁da	-7843
▁abus	-7844
▁debt	-7845
▁réel	-7846
▁abuse	-7847
examiner	-7848
▁apparaît	-7849
▁vehicles	-7850
▁commerciale	-7851
exe	-7852
▁300	-7853
▁vertu	-7854
hension	-7855
▁bulgar	-7856
▁barnier	-7857
▁reconnu	-7858
▁paiement	-7859
▁existants	-7860
▁différente	-7861
ior	-7862
▁gue	-7863
▁frag	-7864
▁biodi	-7865
ventive	-7866
▁absten	-7867
▁amended	-7868
▁persist	-7869
▁tentative	-7870
▁présentation	-7871
▁alco	-7872
irable	-7873
▁toler	-7874
▁climat	-7875
▁exemples	-7876
▁modified	-7877
▁bilateral	-7878
▁biodivers	-7879
▁expectations	-7880
▁profondément	-7881
gl	-7882
aily	-7883
▁hors	-7884
iennes	-7885
▁latest	-7886
▁awareness	-7887
▁suggestions	-7888
▁mug	-7889
▁tir	-7890
▁diox	-7891
exemple	-7892
▁unfair	-7893
▁reconnaît	-7894
▁souverain	-7895
dé	-7896
cas	-7897
opoul	-7898
▁2004,	-7899
▁arbit	-7900
▁sites	-7901
▁commencé	-7902
▁catastrophes	-7903
▁pratiquement	-7904
ened	-7905
▁cad	-7906
▁hol	-7907
▁amis	-7908
▁rent	-7909
▁daily	-7910
▁sauve	-7911
▁thres	-7912
▁visent	-7913
▁britain	-7914
▁vessels	-7915
▁commence	-7916
▁catégorie	-7917
▁confirmed	-7918
aller	-7919
▁innoc	-7920
▁night	-7921
▁talib	-7922
▁locaux	-7923
accepter	-7924
▁considéré	-7925
▁reprendre	-7926
▁threshold	-7927
▁manufacturer	-7928
▁effectiveness	-7929
iour	-7930
itage	-7931
ignent	-7932
▁displ	-7933
▁equip	-7934
▁âgées	-7935
▁régional	-7936
▁facilitate	-7937
▁governance	-7938
enseignement	-7939
▁détermination	-7940
redi	-7941
▁cli	-7942
▁lit	-7943
▁diss	-7944
▁surr	-7945
▁goals	-7946
▁croati	-7947
▁holding	-7948
▁patients	-7949
▁inflation	-7950
2.	-7951
uée	-7952
▁suit	-7953
alists	-7954
bruary	-7955
octroi	-7956
▁brings	-7957
▁parents	-7958
▁légitime	-7959
▁tribunal	-7960
▁behaviour	-7961
▁processes	-7962
▁diminution	-7963
▁maintained	-7964
ett	-7965
éder	-7966
▁inad	-7967
▁entry	-7968
▁juris	-7969
▁fruits	-7970
▁statistics	-7971
▁competences	-7972
sons	-7973
aurais	-7974
ighten	-7975
▁accrue	-7976
▁announced	-7977
▁governing	-7978
▁indicated	-7979
▁renewable	-7980
▁presidents	-7981
▁aids	-7982
▁prie	-7983
▁worry	-7984
▁ambigu	-7985
▁firmly	-7986
▁mugabe	-7987
▁repris	-7988
▁facteur	-7989
▁supposed	-7990
▁contracts	-7991
▁macédoine	-7992
▁soumettre	-7993
mé	-7994
▁fu	-7995
▁pér	-7996
présid	-7997
▁running	-7998
▁february	-7999
▁spending	-8000
▁macedonia	-8001
▁constitute	-8002
▁relatively	-8003
▁volontaire	-8004
▁intégration	-8005
rol	-8006
stuff	-8007
icycle	-8008
ajouter	-8009
▁interv	-8010
▁sharon	-8011
ctricité	-8012
▁banques	-8013
▁courant	-8014
▁medicines	-8015
▁barón	-8016
▁leads	-8017
▁thurs	-8018
▁observe	-8019
▁overcome	-8020
▁prennent	-8021
▁attentive	-8022
▁pensioners	-8023
▁supervision	-8024
sim	-8025
anen	-8026
osent	-8027
▁pétro	-8028
▁franch	-8029
▁honest	-8030
▁conserver	-8031
▁referring	-8032
▁rencontre	-8033
▁electricity	-8034
▁génétiquement	-8035
▁precautionary	-8036
▁ressortissants	-8037
year	-8038
▁bit	-8039
▁liée	-8040
▁déploy	-8041
▁anticip	-8042
▁déclarer	-8043
▁concrétis	-8044
▁hu	-8045
▁loy	-8046
▁spr	-8047
chant	-8048
advant	-8049
▁montrent	-8050
▁améliorations	-8051
▁ed	-8052
▁fév	-8053
elled	-8054
▁découl	-8055
▁purely	-8056
▁symbol	-8057
▁février	-8058
▁quantité	-8059
▁acknowled	-8060
▁palestine	-8061
▁associated	-8062
▁2.	-8063
ondu	-8064
▁chef	-8065
▁crop	-8066
ulsion	-8067
▁devient	-8068
▁grecque	-8069
▁deserves	-8070
▁intensive	-8071
▁inadequate	-8072
▁organismes	-8073
▁highlighted	-8074
▁tol	-8075
irait	-8076
▁demi	-8077
▁plaf	-8078
▁vast	-8079
ériques	-8080
▁donnée	-8081
▁suffer	-8082
▁average	-8083
▁legally	-8084
▁valuable	-8085
▁ambitions	-8086
▁disadvant	-8087
tise	-8088
▁pet	-8089
▁fleet	-8090
▁offers	-8091
▁harbour	-8092
atteindre	-8093
▁accounts	-8094
▁respecte	-8095
opposition	-8096
▁publicité	-8097
▁concentrate	-8098
sy	-8099
ws	-8100
.30	-8101
▁felt	-8102
▁ethnic	-8103
▁organes	-8104
▁possibly	-8105
▁determined	-8106
bret	-8107
▁bov	-8108
▁aéro	-8109
econom	-8110
▁deter	-8111
▁pouss	-8112
aborder	-8113
érations	-8114
▁haarder	-8115
▁enregistr	-8116
▁définitive	-8117
car	-8118
▁clarté	-8119
agissait	-8120
bretagne	-8121
▁prétend	-8122
prétation	-8123
▁aviation	-8124
▁travaille	-8125
ba	-8126
▁sele	-8127
▁choose	-8128
▁offrir	-8129
▁seeing	-8130
▁exports	-8131
▁prévoir	-8132
▁mobility	-8133
▁inclusion	-8134
▁justifier	-8135
▁migration	-8136
▁présentés	-8137
▁investments	-8138
▁sufficiently	-8139
▁bor	-8140
▁smes	-8141
▁proof	-8142
▁advice	-8143
▁danoise	-8144
▁thursday	-8145
▁materials	-8146
▁realistic	-8147
▁compulsory	-8148
▁ig	-8149
exig	-8150
arrêt	-8151
avait	-8152
aching	-8153
▁vague	-8154
adresse	-8155
▁keeping	-8156
▁qualifiée	-8157
▁difficulty	-8158
▁maintaining	-8159
reyer	-8160
▁dism	-8161
▁tool	-8162
▁corée	-8163
▁judic	-8164
▁texts	-8165
▁depart	-8166
▁length	-8167
▁refers	-8168
▁gouvern	-8169
▁highest	-8170
▁adresser	-8171
▁avancées	-8172
▁chaleure	-8173
▁schreyer	-8174
▁mentionner	-8175
9,	-8176
fat	-8177
laf	-8178
rap	-8179
▁mos	-8180
états	-8181
▁olaf	-8182
tation	-8183
▁jeudi	-8184
▁flotte	-8185
▁nobody	-8186
▁voyage	-8187
étiquetage	-8188
▁dynamique	-8189
▁véhicules	-8190
▁preventing	-8191
bo	-8192
▁fal	-8193
▁banks	-8194
▁basque	-8195
▁confin	-8196
▁proved	-8197
▁specif	-8198
▁prenons	-8199
▁coherent	-8200
▁encourag	-8201
▁learning	-8202
▁basically	-8203
▁nationals	-8204
▁tellement	-8205
▁appreciate	-8206
▁background	-8207
▁heureusement	-8208
▁administratives	-8209
▁cast	-8210
▁forg	-8211
ouvrir	-8212
▁scrut	-8213
termine	-8214
▁ignore	-8215
▁avancée	-8216
▁familiar	-8217
▁constantly	-8218
ka	-8219
▁dup	-8220
▁perdu	-8221
▁subsid	-8222
▁yougos	-8223
affaires	-8224
▁greatly	-8225
▁schemes	-8226
▁méditerranée	-8227
▁chann	-8228
▁cresp	-8229
▁latin	-8230
▁levée	-8231
▁réagir	-8232
amsterdam	-8233
▁effectué	-8234
▁sanction	-8235
▁ferroviaire	-8236
uées	-8237
appar	-8238
▁inev	-8239
▁êtres	-8240
▁crespo	-8241
▁posselt	-8242
▁reflète	-8243
▁openness	-8244
itis	-8245
▁alarm	-8246
▁capables	-8247
▁retraités	-8248
▁satisfaire	-8249
▁permettrait	-8250
isted	-8251
tront	-8252
▁fuel	-8253
▁éché	-8254
▁quasi	-8255
▁reten	-8256
▁fortun	-8257
▁vivent	-8258
▁imports	-8259
▁cooperate	-8260
▁disasters	-8261
▁auparavant	-8262
▁complement	-8263
▁applications	-8264
▁î	-8265
urb	-8266
phere	-8267
▁walls	-8268
▁vérité	-8269
▁explanation	-8270
çu	-8271
vic	-8272
illing	-8273
▁trace	-8274
▁reserv	-8275
▁school	-8276
▁engager	-8277
▁remettre	-8278
▁requests	-8279
▁cohérente	-8280
▁américaine	-8281
▁introducing	-8282
dez	-8283
▁bee	-8284
▁mun	-8285
▁milieu	-8286
▁deliber	-8287
▁marketing	-8288
▁transformation	-8289
isant	-8290
▁scot	-8291
▁audio	-8292
▁clean	-8293
▁modes	-8294
▁clairs	-8295
▁réduit	-8296
▁wealth	-8297
▁african	-8298
▁fiscale	-8299
▁applicant	-8300
▁christian	-8301
▁entreprene	-8302
▁précédente	-8303
rim	-8304
▁lié	-8305
atisf	-8306
▁seven	-8307
▁partly	-8308
▁riches	-8309
▁answers	-8310
▁incombe	-8311
▁mutuelle	-8312
▁législations	-8313
sv	-8314
▁beg	-8315
élérer	-8316
▁allou	-8317
▁allows	-8318
▁collabor	-8319
▁internes	-8320
▁libéraux	-8321
▁passagers	-8322
▁remarquable	-8323
uz	-8324
cos	-8325
▁35	-8326
ills	-8327
▁tibet	-8328
▁rectif	-8329
▁finding	-8330
▁refuser	-8331
▁understood	-8332
▁classification	-8333
ada	-8334
▁bö	-8335
romp	-8336
▁feu	-8337
unity	-8338
▁berg	-8339
stuffs	-8340
▁facteurs	-8341
▁préalable	-8342
▁settlement	-8343
▁7,	-8344
▁yor	-8345
▁asia	-8346
▁gérer	-8347
▁hopes	-8348
▁débatt	-8349
émicycle	-8350
▁essayer	-8351
▁urgence	-8352
▁équilibrée	-8353
▁mè	-8354
indi	-8355
▁dav	-8356
▁pla	-8357
itely	-8358
oquer	-8359
▁sell	-8360
▁vict	-8361
alisée	-8362
▁built	-8363
▁poste	-8364
▁motions	-8365
▁recourir	-8366
▁provenant	-8367
▁traditions	-8368
▁participants	-8369
euse	-8370
voir	-8371
▁corb	-8372
▁camps	-8373
▁count	-8374
▁faute	-8375
itoyens	-8376
▁décenn	-8377
▁menées	-8378
ériences	-8379
▁finlande	-8380
▁essentielles	-8381
▁incorporated	-8382
▁transitional	-8383
ara	-8384
icht	-8385
èque	-8386
▁igc	-8387
terre	-8388
▁cite	-8389
▁went	-8390
▁impar	-8391
▁préjud	-8392
▁repose	-8393
▁undoub	-8394
▁volume	-8395
▁advance	-8396
▁agences	-8397
▁intégrer	-8398
▁renouvelables	-8399
uild	-8400
▁ton	-8401
▁posé	-8402
▁tang	-8403
▁guère	-8404
▁dirais	-8405
▁inclure	-8406
▁assurance	-8407
▁secretary	-8408
▁acknowledge	-8409
▁composition	-8410
▁lou	-8411
▁adver	-8412
▁dites	-8413
▁agence	-8414
▁répondu	-8415
▁organise	-8416
0)	-8417
uzzo	-8418
▁meant	-8419
▁exhaus	-8420
fficient	-8421
▁helping	-8422
▁plafond	-8423
▁subjects	-8424
▁activement	-8425
án	-8426
vity	-8427
▁mag	-8428
léter	-8429
▁mené	-8430
▁outil	-8431
▁remove	-8432
▁optimis	-8433
▁scrutin	-8434
ciliation	-8435
▁prévenir	-8436
▁contribue	-8437
▁emphasised	-8438
aves	-8439
raft	-8440
atrice	-8441
▁expli	-8442
▁nourr	-8443
▁appare	-8444
▁choisir	-8445
▁actively	-8446
▁changing	-8447
▁geograph	-8448
▁primordi	-8449
▁concitoyens	-8450
▁travaillent	-8451
▁généralement	-8452
▁determination	-8453
lif	-8454
oda	-8455
/02)	-8456
▁ecb	-8457
▁infe	-8458
aucune	-8459
▁couple	-8460
internet	-8461
▁animale	-8462
▁rejeter	-8463
▁dependent	-8464
▁privatisation	-8465
▁ral	-8466
sives	-8467
▁bons	-8468
▁roth	-8469
▁belgium	-8470
▁playing	-8471
▁declared	-8472
▁espagnol	-8473
▁sensibles	-8474
▁innovative	-8475
▁inquiétude	-8476
▁leadership	-8477
▁orientation	-8478
▁extraordinaire	-8479
▁ru	-8480
isra	-8481
▁eight	-8482
▁frustr	-8483
▁marque	-8484
▁réside	-8485
▁vulner	-8486
astricht	-8487
missible	-8488
▁adoptés	-8489
▁evident	-8490
▁competent	-8491
rence	-8492
usses	-8493
▁evalu	-8494
engager	-8495
▁arafat	-8496
▁gauche	-8497
▁discuté	-8498
▁elector	-8499
▁conseils	-8500
▁urgently	-8501
▁temporaire	-8502
▁accordingly	-8503
▁mén	-8504
▁crains	-8505
▁becomes	-8506
▁futures	-8507
▁experien	-8508
▁continuent	-8509
bilité	-8510
▁iraqi	-8511
▁topic	-8512
aissent	-8513
▁duquel	-8514
▁marine	-8515
▁retire	-8516
▁voyons	-8517
▁brevets	-8518
▁affirmer	-8519
▁meilleurs	-8520
▁preparation	-8521
▁reservations	-8522
ash	-8523
iné	-8524
uré	-8525
rets	-8526
▁pict	-8527
▁cheap	-8528
▁niger	-8529
▁users	-8530
affaire	-8531
▁apporte	-8532
▁soulevé	-8533
▁construire	-8534
▁institutionnel	-8535
ral	-8536
▁hun	-8537
▁maî	-8538
urant	-8539
▁educ	-8540
▁sinon	-8541
▁sorry	-8542
▁futurs	-8543
▁identi	-8544
▁qualit	-8545
estement	-8546
▁lacunes	-8547
▁tragedy	-8548
▁wording	-8549
▁égalité	-8550
▁évaluer	-8551
▁debating	-8552
▁extérieur	-8553
▁reiterate	-8554
▁maastricht	-8555
▁indépendants	-8556
▁significance	-8557
▁contrairement	-8558
▁joué	-8559
▁visa	-8560
▁frank	-8561
▁korea	-8562
▁recall	-8563
▁disposal	-8564
▁completed	-8565
▁economies	-8566
ngl	-8567
isés	-8568
élas	-8569
titudes	-8570
▁déficit	-8571
▁chercher	-8572
▁habitants	-8573
▁identified	-8574
▁preparations	-8575
▁manifestement	-8576
▁représentation	-8577
mer	-8578
yth	-8579
▁socialistes	-8580
▁considerably	-8581
▁sets	-8582
▁ster	-8583
▁block	-8584
érieurs	-8585
▁plants	-8586
▁réserv	-8587
▁complicated	-8588
▁undoubtedly	-8589
ala	-8590
bes	-8591
lel	-8592
pire	-8593
lined	-8594
mages	-8595
oboda	-8596
ancing	-8597
▁sixth	-8598
▁tenue	-8599
economic	-8600
▁fatuzzo	-8601
▁follows	-8602
▁preuves	-8603
▁swoboda	-8604
▁attentes	-8605
▁dommages	-8606
▁souhaité	-8607
▁suivantes	-8608
▁transfert	-8609
▁légitimité	-8610
20	-8611
▁kil	-8612
▁liik	-8613
timent	-8614
▁elder	-8615
▁prest	-8616
▁repro	-8617
▁breach	-8618
▁disappe	-8619
▁liikanen	-8620
▁aériennes	-8621
▁suspended	-8622
dro	-8623
▁eye	-8624
▁saw	-8625
iling	-8626
▁none	-8627
▁nuit	-8628
▁hélas	-8629
▁courts	-8630
▁serbia	-8631
▁straight	-8632
▁strategies	-8633
▁répercussions	-8634
alon	-8635
zech	-8636
▁win	-8637
▁pain	-8638
▁exercer	-8639
▁obliged	-8640
▁supprim	-8641
▁approprié	-8642
▁souhaitable	-8643
▁considérations	-8644
▁unli	-8645
▁1998,	-8646
▁dutch	-8647
▁débou	-8648
▁prati	-8649
autrich	-8650
▁chaîne	-8651
▁credit	-8652
▁elderly	-8653
▁belgique	-8654
▁foremost	-8655
utor	-8656
▁airc	-8657
▁créé	-8658
iendrait	-8659
▁mettent	-8660
▁mistake	-8661
▁dossiers	-8662
▁equipment	-8663
asm	-8664
▁tête	-8665
▁neutr	-8666
▁signé	-8667
▁summer	-8668
▁contrôl	-8669
▁libéral	-8670
▁privilég	-8671
anch	-8672
inal	-8673
▁bce	-8674
tising	-8675
▁pilot	-8676
▁seeks	-8677
▁attent	-8678
▁démocrates	-8679
▁technological	-8680
zone	-8681
▁recr	-8682
▁york	-8683
▁wider	-8684
▁poorest	-8685
president	-8686
▁aircraft	-8687
▁excellente	-8688
▁slov	-8689
▁savent	-8690
▁persuad	-8691
▁retirer	-8692
▁accompan	-8693
▁carrying	-8694
▁democrat	-8695
▁eurojust	-8696
▁stressed	-8697
▁territoires	-8698
▁unanimously	-8699
▁transactions	-8700
▁rh	-8701
▁phr	-8702
▁army	-8703
▁corp	-8704
▁prev	-8705
▁préci	-8706
▁préte	-8707
▁pénal	-8708
▁exceed	-8709
▁fields	-8710
iningrad	-8711
▁infring	-8712
▁respective	-8713
▁kaliningrad	-8714
▁upd	-8715
▁perp	-8716
▁phen	-8717
▁impéra	-8718
▁élargie	-8719
▁rubrique	-8720
▁instances	-8721
▁legitimacy	-8722
▁essentially	-8723
▁gouvernance	-8724
▁publication	-8725
mat	-8726
▁nap	-8727
▁bour	-8728
▁ence	-8729
▁irré	-8730
▁soup	-8731
▁usage	-8732
▁finale	-8733
▁attempts	-8734
▁histoire	-8735
▁confirmer	-8736
approbation	-8737
▁objections	-8738
▁functioning	-8739
ured	-8740
▁lire	-8741
▁unan	-8742
▁black	-8743
▁deals	-8744
▁viable	-8745
▁clauses	-8746
▁himself	-8747
▁offered	-8748
▁formulées	-8749
▁provenance	-8750
▁unnecessary	-8751
▁importations	-8752
abled	-8753
èvent	-8754
▁rang	-8755
ivalent	-8756
▁clarifier	-8757
▁participé	-8758
▁investigation	-8759
ör	-8760
sts	-8761
anium	-8762
igner	-8763
▁czech	-8764
▁fixés	-8765
attitude	-8766
▁alcohol	-8767
▁engagés	-8768
▁phenomen	-8769
▁speeches	-8770
▁surround	-8771
▁transposition	-8772
▁ant	-8773
▁lay	-8774
naire	-8775
▁kurd	-8776
▁team	-8777
ovation	-8778
session	-8779
▁pencher	-8780
▁prévues	-8781
▁audiovis	-8782
▁authoris	-8783
▁capitale	-8784
▁identity	-8785
▁informer	-8786
▁limitation	-8787
▁régulièrement	-8788
▁environnemental	-8789
do	-8790
▁tri	-8791
atson	-8792
ounting	-8793
▁resumed	-8794
phériques	-8795
▁chimiques	-8796
▁employers	-8797
▁prosperity	-8798
▁performance	-8799
appu	-8800
onneur	-8801
▁bilan	-8802
▁react	-8803
▁watson	-8804
▁handica	-8805
▁justify	-8806
▁medical	-8807
▁difficulté	-8808
▁opérateurs	-8809
▁genetically	-8810
nar	-8811
tered	-8812
▁conver	-8813
▁deeply	-8814
▁routes	-8815
auration	-8816
▁hauteur	-8817
▁inutile	-8818
▁release	-8819
▁suffisante	-8820
▁ep	-8821
iday	-8822
eties	-8823
lever	-8824
▁pragm	-8825
▁privés	-8826
entendre	-8827
▁launched	-8828
▁operating	-8829
▁societies	-8830
▁negotiation	-8831
▁exclusivement	-8832
▁sert	-8833
▁latine	-8834
apporter	-8835
▁outstanding	-8836
scale	-8837
▁unit	-8838
▁worst	-8839
▁issued	-8840
▁détriment	-8841
▁comportement	-8842
▁exportations	-8843
▁remerciements	-8844
dp	-8845
plus	-8846
▁fast	-8847
▁maat	-8848
▁spor	-8849
▁stay	-8850
▁défav	-8851
▁compon	-8852
▁phrase	-8853
▁époque	-8854
▁conduit	-8855
▁convenu	-8856
▁constaté	-8857
▁recovery	-8858
▁centaines	-8859
▁présentées	-8860
8/	-8861
otti	-8862
mping	-8863
oured	-8864
▁beef	-8865
▁club	-8866
▁impl	-8867
▁effor	-8868
▁heavy	-8869
▁piece	-8870
▁easily	-8871
▁pleine	-8872
▁spring	-8873
▁concret	-8874
▁rigoure	-8875
▁garantiss	-8876
▁remaining	-8877
▁portugaise	-8878
▁previously	-8879
▁structurelles	-8880
▁inscr	-8881
▁smaller	-8882
▁species	-8883
▁purement	-8884
orientation	-8885
▁catégories	-8886
▁insufficient	-8887
▁consolidation	-8888
étr	-8889
▁0.	-8890
employ	-8891
▁artif	-8892
▁ridic	-8893
▁rédigé	-8894
▁moyenne	-8895
▁partner	-8896
▁prisonn	-8897
▁culturel	-8898
▁poissons	-8899
▁promised	-8900
▁développements	-8901
dess	-8902
alisé	-8903
atric	-8904
▁corr	-8905
▁tunnel	-8906
autriche	-8907
▁barriers	-8908
▁americans	-8909
▁prospects	-8910
▁regr	-8911
▁delays	-8912
▁gagner	-8913
▁conjoin	-8914
▁illégale	-8915
▁secrétaire	-8916
▁restructuring	-8917
urt	-8918
▁0,	-8919
▁adm	-8920
▁sum	-8921
▁falls	-8922
▁monti	-8923
▁droite	-8924
▁solely	-8925
▁weight	-8926
essentiel	-8927
▁granting	-8928
▁wallström	-8929
▁chaleureusement	-8930
▁mob	-8931
quons	-8932
▁madrid	-8933
▁sports	-8934
▁récente	-8935
abilities	-8936
▁proposons	-8937
▁reflected	-8938
▁expériences	-8939
lied	-8940
▁aggra	-8941
▁cultiv	-8942
▁danois	-8943
▁revoir	-8944
▁frontal	-8945
▁reserve	-8946
▁washing	-8947
ifications	-8948
▁suffisant	-8949
étais	-8950
▁néer	-8951
▁faibl	-8952
▁enquête	-8953
▁sentence	-8954
▁prisoners	-8955
▁utilisées	-8956
▁navigation	-8957
▁terrorists	-8958
▁compréhension	-8959
no	-8960
uts	-8961
▁clé	-8962
invite	-8963
▁sched	-8964
▁duties	-8965
▁précon	-8966
▁digital	-8967
▁espagne	-8968
▁respects	-8969
▁producing	-8970
▁caractéris	-8971
▁indépendant	-8972
pers	-8973
▁...	-8974
armes	-8975
▁dess	-8976
▁aznar	-8977
▁requi	-8978
▁revend	-8979
▁séjour	-8980
▁atteinte	-8981
▁strengthened	-8982
ified	-8983
▁barb	-8984
▁venu	-8985
urants	-8986
alising	-8987
▁acting	-8988
▁harmful	-8989
▁évoquer	-8990
arus	-8991
appel	-8992
▁venons	-8993
▁équipe	-8994
isations	-8995
▁clarity	-8996
▁debated	-8997
▁indirect	-8998
▁suffered	-8999
▁welcomes	-9000
▁élaborer	-9001
▁unanimity	-9002
dep	-9003
▁3.	-9004
indé	-9005
▁gap	-9006
offre	-9007
▁chré	-9008
▁huit	-9009
▁juge	-9010
▁étend	-9011
▁serbie	-9012
▁ethical	-9013
▁numbers	-9014
▁planète	-9015
▁someone	-9016
▁testing	-9017
européens	-9018
▁neighbours	-9019
▁connaissent	-9020
raid	-9021
cting	-9022
▁horr	-9023
comings	-9024
▁impati	-9025
▁feeling	-9026
▁rappelé	-9027
▁pressions	-9028
▁électeurs	-9029
électricité	-9030
▁shortcomings	-9031
▁félicitations	-9032
▁manufacturers	-9033
nam	-9034
▁youth	-9035
▁baisse	-9036
▁disant	-9037
▁warmly	-9038
▁horizont	-9039
▁demandent	-9040
▁positives	-9041
unification	-9042
▁willingness	-9043
▁administrations	-9044
▁congratulations	-9045
▁fid	-9046
visory	-9047
▁privée	-9048
augmenter	-9049
▁surprise	-9050
▁accroître	-9051
▁appliquée	-9052
▁bénéfices	-9053
▁extending	-9054
▁stratégies	-9055
ops	-9056
enqu	-9057
oted	-9058
qual	-9059
▁magn	-9060
▁sain	-9061
afghan	-9062
▁atlan	-9063
▁désas	-9064
▁links	-9065
▁assass	-9066
▁taxpay	-9067
▁portent	-9068
▁sixième	-9069
instrument	-9070
▁régionaux	-9071
afghanistan	-9072
▁vulnerable	-9073
▁connaissances	-9074
iry	-9075
fort	-9076
▁thé	-9077
▁coin	-9078
▁engl	-9079
▁dette	-9080
▁rémun	-9081
▁venez	-9082
▁vente	-9083
demment	-9084
▁schmid	-9085
▁remplir	-9086
▁échange	-9087
▁avantage	-9088
▁existant	-9089
▁explicit	-9090
▁organisé	-9091
▁pleasure	-9092
▁vérifier	-9093
▁frontière	-9094
▁appliquées	-9095
▁handicapées	-9096
coni	-9097
olaf	-9098
▁imper	-9099
▁mount	-9100
aughter	-9101
▁syndic	-9102
hensible	-9103
▁annoncé	-9104
▁ongoing	-9105
▁conforme	-9106
▁dangereuses	-9107
▁restrictive	-9108
▁explications	-9109
▁contamination	-9110
ham	-9111
uons	-9112
▁web	-9113
aving	-9114
▁inév	-9115
▁size	-9116
assent	-9117
▁watch	-9118
▁afraid	-9119
▁opened	-9120
▁voulais	-9121
▁excluded	-9122
▁compétente	-9123
éval	-9124
▁cell	-9125
▁fifth	-9126
▁manip	-9127
analyse	-9128
▁drogue	-9129
▁intégr	-9130
▁drafted	-9131
▁messages	-9132
introduire	-9133
▁orientale	-9134
▁penalties	-9135
aks	-9136
▁ot	-9137
▁pv	-9138
nées	-9139
▁unw	-9140
▁pier	-9141
▁fewer	-9142
▁aboutir	-9143
▁benefic	-9144
▁rejette	-9145
▁chapitre	-9146
▁morillon	-9147
▁ratified	-9148
▁utilisée	-9149
▁correctly	-9150
▁exprimées	-9151
▁addressing	-9152
▁concessions	-9153
▁palestinienne	-9154
▁honn	-9155
▁lond	-9156
▁extreme	-9157
▁rapidly	-9158
▁artifici	-9159
▁determine	-9160
▁accessible	-9161
oubli	-9162
▁écout	-9163
▁agents	-9164
▁décide	-9165
▁utmost	-9166
▁affects	-9167
▁instant	-9168
▁quelcon	-9169
▁powerful	-9170
▁advantages	-9171
▁necessarily	-9172
▁jar	-9173
enburg	-9174
▁parven	-9175
▁schools	-9176
▁soumise	-9177
▁remplacer	-9178
▁interpretation	-9179
mn	-9180
tte	-9181
▁fit	-9182
▁hul	-9183
▁résul	-9184
▁exiger	-9185
▁quelqu	-9186
▁retards	-9187
▁consenti	-9188
▁fonctions	-9189
▁pétitions	-9190
▁signature	-9191
▁ecological	-9192
▁présentent	-9193
▁complémentaire	-9194
lus	-9195
pap	-9196
▁4.	-9197
▁bow	-9198
▁derog	-9199
▁ville	-9200
▁helped	-9201
▁belarus	-9202
▁élaboré	-9203
▁prétexte	-9204
▁confidenti	-9205
▁passengers	-9206
▁coordinated	-9207
3.	-9208
▁eg	-9209
itch	-9210
▁spl	-9211
▁goth	-9212
▁veto	-9213
israël	-9214
▁arise	-9215
▁evans	-9216
▁labor	-9217
▁mobile	-9218
▁saisir	-9219
▁chiffre	-9220
▁entered	-9221
▁largest	-9222
▁consacré	-9223
▁dictators	-9224
▁intervene	-9225
▁worldwide	-9226
▁diplomatic	-9227
▁eau	-9228
▁cens	-9229
▁empê	-9230
▁scep	-9231
▁site	-9232
▁taxe	-9233
▁warn	-9234
▁chain	-9235
▁morts	-9236
▁quote	-9237
▁prévoy	-9238
▁taille	-9239
▁montants	-9240
▁neighbouring	-9241
hear	-9242
ison	-9243
avère	-9244
▁pire	-9245
▁ryth	-9246
▁biens	-9247
étaient	-9248
▁choisi	-9249
▁disent	-9250
▁geneva	-9251
▁hardly	-9252
▁outbre	-9253
▁sortir	-9254
▁supran	-9255
▁airlines	-9256
▁fondement	-9257
▁inspection	-9258
aurait	-9259
▁await	-9260
▁urban	-9261
▁absurd	-9262
▁relate	-9263
▁remédi	-9264
▁simult	-9265
▁deserve	-9266
▁moderne	-9267
▁refugee	-9268
▁discutons	-9269
▁palestinians	-9270
arb	-9271
cns	-9272
hand	-9273
▁cau	-9274
exten	-9275
liers	-9276
▁aside	-9277
▁carte	-9278
animaux	-9279
quality	-9280
▁genève	-9281
▁prévus	-9282
▁transl	-9283
▁dynamic	-9284
▁observer	-9285
▁washington	-9286
▁bénéficient	-9287
pre	-9288
coun	-9289
ware	-9290
isées	-9291
ètent	-9292
▁remp	-9293
▁atmos	-9294
▁revenu	-9295
▁english	-9296
▁espérer	-9297
▁signalé	-9298
▁austrian	-9299
▁disabled	-9300
▁intégrée	-9301
▁petitions	-9302
▁équilibré	-9303
▁cigarettes	-9304
▁prospérité	-9305
▁yugoslavia	-9306
▁concertation	-9307
sch	-9308
▁gm	-9309
sych	-9310
▁sak	-9311
▁éti	-9312
▁faith	-9313
▁disons	-9314
▁stance	-9315
opportun	-9316
▁dollars	-9317
▁engagée	-9318
▁identify	-9319
▁sovereignty	-9320
institutionnel	-9321
irk	-9322
cons	-9323
émission	-9324
▁recital	-9325
▁ukraine	-9326
hér	-9327
osen	-9328
▁reve	-9329
▁alger	-9330
▁psych	-9331
▁majeur	-9332
▁faibles	-9333
▁2000-200	-9334
▁cinquième	-9335
▁condemned	-9336
▁38	-9337
▁iv	-9338
▁lie	-9339
▁peur	-9340
▁élus	-9341
▁revers	-9342
▁souffr	-9343
▁removed	-9344
▁prosecutor	-9345
eurs	-9346
érées	-9347
▁judg	-9348
▁congo	-9349
▁posée	-9350
▁bateaux	-9351
▁complet	-9352
▁denrées	-9353
▁exploit	-9354
▁enlarged	-9355
▁centrales	-9356
▁conducted	-9357
▁convaincre	-9358
▁demandeurs	-9359
▁discipline	-9360
▁gothenburg	-9361
▁presenting	-9362
▁politiquement	-9363
âge	-9364
adow	-9365
accorder	-9366
▁deficit	-9367
▁healthy	-9368
▁retrouv	-9369
▁scandale	-9370
▁demanding	-9371
▁possibilities	-9372
sp	-9373
cupé	-9374
gues	-9375
user	-9376
▁mosc	-9377
▁apparent	-9378
▁producti	-9379
▁pursuant	-9380
▁similarly	-9381
▁surprised	-9382
▁souveraineté	-9383
▁8,	-9384
avec	-9385
lavie	-9386
▁arch	-9387
instar	-9388
▁seuil	-9389
appréci	-9390
enophob	-9391
▁chargé	-9392
▁civils	-9393
▁punish	-9394
▁retain	-9395
pendance	-9396
▁unanime	-9397
▁drafting	-9398
▁coherence	-9399
▁inspectors	-9400
erty	-9401
ette	-9402
icate	-9403
itive	-9404
while	-9405
érant	-9406
▁éman	-9407
▁coûte	-9408
▁tenté	-9409
▁chocol	-9410
▁chosen	-9411
▁suspect	-9412
▁amending	-9413
▁approuve	-9414
▁hundreds	-9415
▁register	-9416
▁xenophob	-9417
▁experienced	-9418
▁significative	-9419
▁ache	-9420
▁mich	-9421
▁exposé	-9422
▁accorde	-9423
▁commend	-9424
▁comport	-9425
▁picture	-9426
▁railway	-9427
▁restore	-9428
▁accordée	-9429
▁contrats	-9430
▁students	-9431
▁succeeded	-9432
▁véritables	-9433
▁palestinien	-9434
alco	-9435
▁aér	-9436
▁bag	-9437
▁ord	-9438
entra	-9439
▁birm	-9440
▁concep	-9441
▁ouvrir	-9442
▁fallait	-9443
▁hearing	-9444
▁intégré	-9445
▁players	-9446
extension	-9447
▁partageons	-9448
▁recherches	-9449
▁restricted	-9450
60	-9451
zemb	-9452
▁xén	-9453
outer	-9454
owski	-9455
▁milk	-9456
dessus	-9457
▁monit	-9458
▁prouv	-9459
▁engagé	-9460
▁prenne	-9461
applique	-9462
▁destiné	-9463
▁dispute	-9464
▁focused	-9465
▁nigeria	-9466
▁xénophob	-9467
▁incidents	-9468
▁por	-9469
▁rob	-9470
▁host	-9471
▁dirai	-9472
▁rasse	-9473
raction	-9474
▁widely	-9475
▁jarzemb	-9476
▁prisons	-9477
▁shortly	-9478
▁allemand	-9479
▁modalités	-9480
▁facilement	-9481
▁quelconque	-9482
▁advertising	-9483
oye	-9484
arde	-9485
riez	-9486
asser	-9487
▁town	-9488
▁abatt	-9489
▁combus	-9490
▁excuse	-9491
▁fairly	-9492
▁rythme	-9493
▁transn	-9494
▁pouvant	-9495
▁property	-9496
▁retrouver	-9497
▁voudrions	-9498
▁étroitement	-9499
▁jarzembowski	-9500
15	-9501
oa	-9502
▁dil	-9503
itées	-9504
▁degré	-9505
▁douze	-9506
▁tenus	-9507
▁restre	-9508
▁strugg	-9509
▁depends	-9510
▁recommande	-9511
▁importantly	-9512
▁prisonniers	-9513
▁indépendante	-9514
▁spécialement	-9515
▁consultations	-9516
mann	-9517
oman	-9518
osing	-9519
▁crée	-9520
aspect	-9521
▁armed	-9522
▁incont	-9523
▁destinée	-9524
▁fragment	-9525
▁licences	-9526
▁obtained	-9527
▁prochains	-9528
▁significantly	-9529
▁representation	-9530
iten	-9531
resh	-9532
aider	-9533
▁traç	-9534
▁unre	-9535
alcool	-9536
alling	-9537
ieuses	-9538
soever	-9539
▁perte	-9540
undering	-9541
▁aéroports	-9542
▁controvers	-9543
▁constitutes	-9544
▁unfortunate	-9545
oné	-9546
wing	-9547
▁côte	-9548
▁buiten	-9549
▁poland	-9550
▁feeding	-9551
▁examined	-9552
▁intérieure	-9553
▁civilisation	-9554
uck	-9555
weg	-9556
ford	-9557
obil	-9558
▁dév	-9559
▁batt	-9560
italie	-9561
▁crops	-9562
intégrer	-9563
▁consent	-9564
▁paradox	-9565
▁sérieuse	-9566
▁historical	-9567
▁mouvements	-9568
▁citizenship	-9569
1.	-9570
da	-9571
ça	-9572
méd	-9573
spe	-9574
aibl	-9575
once	-9576
usias	-9577
▁cash	-9578
▁nuis	-9579
▁desqu	-9580
▁endro	-9581
▁flood	-9582
▁roads	-9583
▁spite	-9584
▁voici	-9585
▁driving	-9586
▁modifiés	-9587
▁endeavour	-9588
▁whatsoever	-9589
▁transmettre	-9590
▁indispensables	-9591
▁sustainability	-9592
'?	-9593
▁opt	-9594
▁1996	-9595
oivent	-9596
osevic	-9597
▁décis	-9598
▁signe	-9599
imposer	-9600
▁posent	-9601
▁shares	-9602
▁démontré	-9603
▁entraîne	-9604
▁interpre	-9605
▁jugement	-9606
▁tensions	-9607
▁printemps	-9608
▁indicators	-9609
▁transparente	-9610
▁complémentaires	-9611
iwan	-9612
èles	-9613
▁11,	-9614
▁pvc	-9615
agnes	-9616
aille	-9617
▁irre	-9618
▁swift	-9619
related	-9620
▁strike	-9621
▁taiwan	-9622
▁limitée	-9623
▁combined	-9624
▁worrying	-9625
▁undertakings	-9626
nez	-9627
put	-9628
▁ga	-9629
▁400	-9630
orous	-9631
place	-9632
▁1994	-9633
▁tente	-9634
▁volon	-9635
▁utiles	-9636
▁voient	-9637
▁espèces	-9638
▁suitable	-9639
▁unanimous	-9640
▁volontiers	-9641
fi	-9642
▁fun	-9643
hérer	-9644
▁depr	-9645
▁dégâ	-9646
▁îles	-9647
unesse	-9648
uilding	-9649
▁précises	-9650
▁différent	-9651
▁territori	-9652
▁constatons	-9653
▁multilateral	-9654
▁rapprochement	-9655
7.	-9656
ía	-9657
ery	-9658
mas	-9659
ôts	-9660
▁camb	-9661
▁cruci	-9662
▁proud	-9663
ensions	-9664
▁drogues	-9665
▁fassent	-9666
▁insiste	-9667
▁privile	-9668
▁échelle	-9669
▁citoyenn	-9670
▁exigence	-9671
▁enthusias	-9672
▁everybody	-9673
▁executive	-9674
▁milosevic	-9675
▁categories	-9676
▁continuera	-9677
zen	-9678
▁9,	-9679
onie	-9680
ouer	-9681
▁lann	-9682
▁quota	-9683
▁thess	-9684
▁leçons	-9685
▁lannoye	-9686
▁diminuer	-9687
▁criminels	-9688
▁propriété	-9689
▁resulting	-9690
▁appartient	-9691
▁délégations	-9692
ext	-9693
▁hat	-9694
ading	-9695
▁cach	-9696
▁exag	-9697
▁faim	-9698
▁thre	-9699
▁dress	-9700
▁fréqu	-9701
▁dégâts	-9702
▁feront	-9703
▁corbett	-9704
▁diamant	-9705
ornograph	-9706
▁suivants	-9707
▁tangible	-9708
▁hopefully	-9709
▁definitely	-9710
▁facilities	-9711
▁naturelles	-9712
▁considérant	-9713
▁delegations	-9714
▁particuliers	-9715
▁congratulating	-9716
èd	-9717
umes	-9718
▁liens	-9719
▁interd	-9720
▁paying	-9721
▁affirmé	-9722
▁divided	-9723
exception	-9724
▁concepts	-9725
▁minimales	-9726
▁nécessite	-9727
▁thessalon	-9728
▁contributed	-9729
▁expressément	-9730
▁satisfaisante	-9731
3)	-9732
▁fos	-9733
▁faux	-9734
▁mart	-9735
▁soft	-9736
▁2006.	-9737
▁exécu	-9738
▁reass	-9739
▁visas	-9740
appropri	-9741
iquement	-9742
▁writing	-9743
▁airports	-9744
▁slightly	-9745
innovation	-9746
▁explained	-9747
▁citoyenneté	-9748
▁qualifications	-9749
%,	-9750
ario	-9751
ansion	-9752
▁siège	-9753
▁agrees	-9754
▁appris	-9755
▁appoint	-9756
▁indones	-9757
▁méritent	-9758
▁remédier	-9759
▁weakness	-9760
▁accomplis	-9761
▁residence	-9762
▁subvention	-9763
▁sida	-9764
▁marin	-9765
▁défini	-9766
▁italie	-9767
▁provis	-9768
▁periods	-9769
▁pologne	-9770
▁engendre	-9771
▁négocier	-9772
▁reflects	-9773
▁sacrific	-9774
encourager	-9775
▁undermine	-9776
mediterranean	-9777
▁48	-9778
▁flux	-9779
▁gard	-9780
▁vain	-9781
▁certif	-9782
▁critère	-9783
▁dommage	-9784
▁partant	-9785
▁enceinte	-9786
▁effectuer	-9787
▁impliquer	-9788
entreprises	-9789
indépendance	-9790
▁ic	-9791
erai	-9792
oute	-9793
versi	-9794
▁cars	-9795
▁vuln	-9796
▁looked	-9797
armement	-9798
▁insisté	-9799
▁voterons	-9800
▁approbation	-9801
▁successfully	-9802
ardi	-9803
uding	-9804
▁nine	-9805
▁push	-9806
▁japan	-9807
érables	-9808
▁fourni	-9809
▁massac	-9810
▁drivers	-9811
▁imparti	-9812
arisation	-9813
▁appliqué	-9814
▁railways	-9815
▁organiser	-9816
▁transatlantic	-9817
ize	-9818
ries	-9819
▁vac	-9820
▁basée	-9821
▁maîtr	-9822
▁réels	-9823
accident	-9824
▁romania	-9825
▁attendent	-9826
bel	-9827
▁%,	-9828
hier	-9829
▁décr	-9830
effect	-9831
▁délib	-9832
▁incin	-9833
▁japon	-9834
▁motor	-9835
▁notes	-9836
▁précé	-9837
▁jointly	-9838
▁topical	-9839
▁observed	-9840
▁traçabilité	-9841
▁précédemment	-9842
25	-9843
▁lud	-9844
ville	-9845
▁inqu	-9846
▁méde	-9847
▁rand	-9848
▁sûrs	-9849
érales	-9850
▁exter	-9851
▁moved	-9852
édiaire	-9853
▁satell	-9854
▁seules	-9855
▁villes	-9856
discrimin	-9857
excellent	-9858
▁heritage	-9859
▁heureuse	-9860
▁encouraged	-9861
▁instamment	-9862
ems	-9863
cles	-9864
▁oly	-9865
ocide	-9866
▁sauf	-9867
▁dates	-9868
acement	-9869
▁larger	-9870
▁outset	-9871
▁indiquer	-9872
▁partager	-9873
▁salariés	-9874
▁soulever	-9875
méditerran	-9876
▁certainty	-9877
▁débattons	-9878
▁applicables	-9879
▁door	-9880
▁defic	-9881
▁trend	-9882
atrices	-9883
▁banned	-9884
▁veille	-9885
iendrons	-9886
▁creates	-9887
▁tiendra	-9888
▁animales	-9889
▁conduire	-9890
▁désastre	-9891
▁justifie	-9892
▁standing	-9893
démocrates	-9894
▁regulated	-9895
▁candidates	-9896
▁considérée	-9897
▁processing	-9898
/20	-9899
sifs	-9900
▁mic	-9901
▁vent	-9902
▁tough	-9903
▁blanch	-9904
▁doubts	-9905
▁écoles	-9906
▁passion	-9907
▁warning	-9908
▁demonstrates	-9909
▁susceptibles	-9910
▁transmission	-9911
7(	-9912
aca	-9913
▁45	-9914
▁buy	-9915
▁keen	-9916
▁surf	-9917
▁franc	-9918
▁kinds	-9919
opoulou	-9920
▁declare	-9921
extérieur	-9922
▁soutiend	-9923
quac	-9924
▁eco	-9925
▁récl	-9926
▁alleg	-9927
▁olymp	-9928
▁paris	-9929
▁tarif	-9930
▁ferons	-9931
▁island	-9932
▁superf	-9933
▁absolue	-9934
▁visible	-9935
▁whereby	-9936
▁handicap	-9937
▁jeunesse	-9938
▁attentats	-9939
▁ouverture	-9940
▁34	-9941
▁10,	-9942
ariff	-9943
▁clôt	-9944
▁egyp	-9945
▁séle	-9946
▁paral	-9947
▁toxic	-9948
▁pensent	-9949
▁rurales	-9950
▁puissance	-9951
▁guaranteeing	-9952
iz	-9953
imag	-9954
mont	-9955
▁dele	-9956
▁fresh	-9957
lusconi	-9958
actualité	-9959
▁numérique	-9960
▁indication	-9961
▁fortunately	-9962
▁globalement	-9963
▁éventuellement	-9964
10	-9965
▁rede	-9966
▁match	-9967
▁perpé	-9968
▁rigid	-9969
évaluer	-9970
▁modest	-9971
▁ajoutée	-9972
▁erreurs	-9973
▁prendra	-9974
▁revised	-9975
▁reaching	-9976
▁reconsid	-9977
▁vendredi	-9978
▁approuvée	-9979
▁prevented	-9980
méditerrané	-9981
▁diamantopoulou	-9982
erce	-9983
▁sau	-9984
tream	-9985
▁indu	-9986
▁inég	-9987
▁thir	-9988
formes	-9989
impose	-9990
étendre	-9991
approuve	-9992
▁entrepreneurs	-9993
30.	-9994
inée	-9995
ueux	-9996
isten	-9997
manie	-9998
▁teach	-9999
enquête	-10000
▁battle	-10001
▁déplac	-10002
▁affirme	-10003
▁promise	-10004
organiser	-10005
▁distingu	-10006
▁réaliste	-10007
vie	-10008
olit	-10009
estre	-10010
▁bott	-10011
▁sûre	-10012
▁cofin	-10013
▁fallu	-10014
▁discre	-10015
▁clearer	-10016
▁taliban	-10017
▁violent	-10018
▁deadline	-10019
▁stronger	-10020
▁énergies	-10021
▁incompati	-10022
▁berlusconi	-10023
▁box	-10024
▁gon	-10025
▁imb	-10026
cours	-10027
enses	-10028
issue	-10029
▁étonn	-10030
▁devenu	-10031
▁munici	-10032
▁étions	-10033
affirmer	-10034
▁chapter	-10035
▁expense	-10036
▁lasting	-10037
▁menaces	-10038
▁possède	-10039
▁valable	-10040
▁roumanie	-10041
▁buitenweg	-10042
▁destroyed	-10043
▁interromp	-10044
▁favourable	-10045
▁repeatedly	-10046
▁explanations	-10047
peu	-10048
▁32	-10049
▁pé	-10050
▁mig	-10051
mouth	-10052
▁save	-10053
anging	-10054
▁dream	-10055
▁classi	-10056
▁entrée	-10057
▁occupe	-10058
▁formule	-10059
▁threats	-10060
▁immunity	-10061
▁subsequently	-10062
bio	-10063
▁33	-10064
▁5.	-10065
▁élu	-10066
▁eyes	-10067
idation	-10068
▁éclair	-10069
▁candidat	-10070
▁judgment	-10071
▁concludes	-10072
▁phenomenon	-10073
ho	-10074
arc	-10075
▁rê	-10076
auff	-10077
incl	-10078
▁von	-10079
▁vét	-10080
▁lend	-10081
ulaire	-10082
▁boost	-10083
country	-10084
▁except	-10085
▁locale	-10086
▁nearly	-10087
▁publié	-10088
▁permanente	-10089
▁consequence	-10090
▁extraordinary	-10091
non	-10092
inde	-10093
ossé	-10094
▁guer	-10095
▁sake	-10096
▁1998.	-10097
▁karas	-10098
▁stopp	-10099
importe	-10100
▁owners	-10101
▁indique	-10102
▁informé	-10103
▁modifié	-10104
▁newspap	-10105
▁opposés	-10106
▁tchèque	-10107
▁allusion	-10108
▁restrict	-10109
▁strictes	-10110
oni	-10111
▁aug	-10112
▁2006	-10113
▁mène	-10114
▁label	-10115
▁russes	-10116
▁sought	-10117
empêcher	-10118
humanité	-10119
élaborer	-10120
▁accordé	-10121
▁command	-10122
▁élevées	-10123
▁devaient	-10124
▁voudrait	-10125
▁préoccupe	-10126
▁achievement	-10127
▁kh	-10128
▁shi	-10129
liance	-10130
érences	-10131
▁monday	-10132
▁offices	-10133
▁spectac	-10134
▁bénéfici	-10135
▁respecté	-10136
▁détaillée	-10137
▁geographical	-10138
ded	-10139
ayer	-10140
influ	-10141
▁mold	-10142
nalité	-10143
▁lundi	-10144
▁voies	-10145
▁killed	-10146
▁rejeté	-10147
▁dépasse	-10148
▁prelimin	-10149
▁communist	-10150
élimination	-10151
▁respectent	-10152
▁educational	-10153
rov	-10154
▁od	-10155
opard	-10156
otion	-10157
▁ment	-10158
▁sand	-10159
▁turc	-10160
▁hoped	-10161
▁arrivé	-10162
▁inspir	-10163
▁promis	-10164
▁surmon	-10165
▁islands	-10166
▁moments	-10167
▁confirmé	-10168
▁minorité	-10169
▁bienvenue	-10170
▁consulted	-10171
▁expensive	-10172
▁impliqués	-10173
▁librement	-10174
▁territorial	-10175
▁42	-10176
ania	-10177
anou	-10178
oupl	-10179
▁épr	-10180
joute	-10181
▁city	-10182
▁intr	-10183
alisés	-10184
▁steel	-10185
▁synth	-10186
versial	-10187
▁pestic	-10188
▁raises	-10189
▁skills	-10190
▁solide	-10191
▁dumping	-10192
▁immense	-10193
▁jeopard	-10194
habitants	-10195
▁prudence	-10196
▁affecting	-10197
▁fournisse	-10198
▁quotidien	-10199
▁développés	-10200
▁harmonised	-10201
▁preliminary	-10202
▁dictatorship	-10203
▁presentation	-10204
▁électroniques	-10205
idé	-10206
tée	-10207
blin	-10208
émie	-10209
▁lan	-10210
▁erad	-10211
sities	-10212
▁accur	-10213
▁angola	-10214
▁turned	-10215
▁victim	-10216
▁coastal	-10217
▁proclam	-10218
▁découver	-10219
autorisation	-10220
▁uncertainty	-10221
cast	-10222
habil	-10223
ousias	-10224
▁tenant	-10225
▁contest	-10226
quaculture	-10227
▁portugais	-10228
▁accounting	-10229
▁permettront	-10230
▁prochainement	-10231
ena	-10232
osex	-10233
▁moz	-10234
envis	-10235
▁liqu	-10236
▁costa	-10237
▁error	-10238
▁honte	-10239
▁shape	-10240
alistes	-10241
▁marked	-10242
▁increases	-10243
▁receiving	-10244
▁exceptional	-10245
▁inspecteurs	-10246
▁surrounding	-10247
▁approximately	-10248
èdent	-10249
▁perç	-10250
▁viet	-10251
▁virus	-10252
▁dublin	-10253
▁weaken	-10254
▁consacrer	-10255
▁climatiques	-10256
▁distributed	-10257
▁incorporate	-10258
▁nécessairement	-10259
asie	-10260
oulez	-10261
▁règne	-10262
control	-10263
insiste	-10264
▁exempl	-10265
▁voulez	-10266
▁causing	-10267
économique	-10268
▁partenaire	-10269
▁blanchiment	-10270
édie	-10271
▁12,	-10272
▁ine	-10273
▁banc	-10274
▁beau	-10275
agisse	-10276
▁sugar	-10277
▁changé	-10278
▁vaccin	-10279
▁lacking	-10280
▁councils	-10281
▁parallel	-10282
▁regulate	-10283
▁undertake	-10284
▁appropriées	-10285
▁divergences	-10286
▁technologique	-10287
▁environmentally	-10288
.,	-10289
yle	-10290
lais	-10291
▁aud	-10292
échec	-10293
▁award	-10294
▁donors	-10295
▁endors	-10296
▁ferber	-10297
▁marche	-10298
▁provin	-10299
▁trente	-10300
▁croyons	-10301
▁donnent	-10302
▁incenti	-10303
▁seville	-10304
▁requiert	-10305
▁italienne	-10306
▁surmonter	-10307
▁collaborer	-10308
▁néerlandais	-10309
▁prioritaire	-10310
▁bureaucratic	-10311
ancy	-10312
bels	-10313
▁hit	-10314
▁race	-10315
acking	-10316
▁désir	-10317
▁veill	-10318
▁fermet	-10319
▁notice	-10320
ormément	-10321
sibility	-10322
▁couvrir	-10323
▁séville	-10324
▁énormes	-10325
▁monitored	-10326
▁allocation	-10327
▁concrétiser	-10328
8.	-10329
ussie	-10330
▁canada	-10331
▁covers	-10332
▁prends	-10333
▁fournit	-10334
▁privées	-10335
▁interrog	-10336
▁thousand	-10337
▁disappointed	-10338
▁gê	-10339
apes	-10340
iran	-10341
tick	-10342
chons	-10343
▁détour	-10344
▁funded	-10345
▁jouent	-10346
▁leaving	-10347
▁whereas	-10348
▁promesses	-10349
▁apparently	-10350
▁humanitaires	-10351
▁indépendamment	-10352
ips	-10353
érin	-10354
▁13,	-10355
▁pav	-10356
▁murd	-10357
▁neuf	-10358
▁perce	-10359
accueil	-10360
attends	-10361
utation	-10362
▁députée	-10363
▁intoler	-10364
▁maintes	-10365
▁devienne	-10366
▁alongside	-10367
▁désaccord	-10368
▁recyclage	-10369
▁complaints	-10370
▁précédents	-10371
▁énormément	-10372
▁comitologie	-10373
▁judiciaires	-10374
akes	-10375
aled	-10376
▁puts	-10377
▁défic	-10378
▁lever	-10379
▁légale	-10380
▁talked	-10381
▁accepte	-10382
▁décisif	-10383
▁dégager	-10384
▁profite	-10385
▁généraux	-10386
▁promoted	-10387
▁permitted	-10388
▁étrangers	-10389
▁étudiants	-10390
▁attentivement	-10391
▁biotechnology	-10392
liv	-10393
extr	-10394
ller	-10395
▁fla	-10396
armée	-10397
exper	-10398
▁merg	-10399
▁tomb	-10400
▁borne	-10401
enfants	-10402
identif	-10403
▁patrim	-10404
▁ration	-10405
▁adéquat	-10406
▁négatif	-10407
▁origine	-10408
▁autriche	-10409
▁disagree	-10410
▁financed	-10411
▁accomplir	-10412
▁nourriture	-10413
fal	-10414
ijk	-10415
rade	-10416
▁fol	-10417
effet	-10418
▁blair	-10419
▁distr	-10420
▁soldi	-10421
étiques	-10422
▁serais	-10423
▁engaged	-10424
▁récents	-10425
▁réjouir	-10426
▁showing	-10427
infrastru	-10428
▁analyses	-10429
▁disputes	-10430
▁initiale	-10431
▁risquent	-10432
▁approfondie	-10433
▁compétentes	-10434
▁programmation	-10435
▁constitutionnel	-10436
40	-10437
▁36	-10438
▁flu	-10439
▁mix	-10440
▁nic	-10441
▁mann	-10442
▁côtés	-10443
▁decre	-10444
▁fruct	-10445
▁disait	-10446
▁galici	-10447
▁mozamb	-10448
▁tariff	-10449
▁arrêter	-10450
accroître	-10451
▁sexuelle	-10452
▁transmis	-10453
▁nettement	-10454
▁suspendue	-10455
▁incentives	-10456
▁supranational	-10457
écut	-10458
trons	-10459
(2000)	-10460
▁bless	-10461
▁mexic	-10462
currence	-10463
▁warrant	-10464
▁accompagn	-10465
▁expressing	-10466
▁negotiated	-10467
▁retirement	-10468
▁participent	-10469
5-05	-10470
ondo	-10471
▁haz	-10472
point	-10473
▁(200	-10474
▁bois	-10475
minent	-10476
▁fossé	-10477
▁india	-10478
▁usual	-10479
▁échec	-10480
▁checks	-10481
▁courte	-10482
▁dollar	-10483
▁pierre	-10484
▁customs	-10485
▁decades	-10486
▁farines	-10487
▁irakien	-10488
▁pursued	-10489
▁detriment	-10490
▁movements	-10491
▁tribunaux	-10492
▁wholehear	-10493
▁dimensions	-10494
▁generation	-10495
▁réflexions	-10496
▁répression	-10497
▁bureaucracy	-10498
▁personnelle	-10499
▁planification	-10500
auf	-10501
▁ath	-10502
▁chy	-10503
▁cou	-10504
▁1990	-10505
▁clon	-10506
▁enje	-10507
▁fire	-10508
entiss	-10509
ingent	-10510
▁fuels	-10511
▁essayé	-10512
ressions	-10513
▁broader	-10514
▁décentr	-10515
▁surplus	-10516
approuver	-10517
▁admettre	-10518
▁attaques	-10519
▁interdit	-10520
▁traceability	-10521
iann	-10522
garde	-10523
▁flor	-10524
(2001)	-10525
accomp	-10526
endous	-10527
ronter	-10528
▁unity	-10529
▁friday	-10530
▁organe	-10531
▁perpet	-10532
▁chemins	-10533
▁défavoris	-10534
▁exemption	-10535
▁sincerely	-10536
▁comparable	-10537
▁similaires	-10538
▁controversial	-10539
▁progressivement	-10540
aie	-10541
umé	-10542
▁44	-10543
berg	-10544
▁vat	-10545
▁vel	-10546
erate	-10547
▁engend	-10548
▁unlike	-10549
▁parvenu	-10550
▁raising	-10551
▁vétérin	-10552
▁promises	-10553
▁sympathy	-10554
▁constitué	-10555
▁assistants	-10556
▁dramatique	-10557
▁contribuera	-10558
▁restriction	-10559
▁territories	-10560
yr	-10561
voi	-10562
etus	-10563
osur	-10564
▁ben	-10565
▁diz	-10566
▁dras	-10567
illaud	-10568
▁lieux	-10569
▁ambass	-10570
▁indemn	-10571
▁invent	-10572
▁applaud	-10573
▁freight	-10574
▁smoking	-10575
▁coopérer	-10576
▁credible	-10577
▁employés	-10578
▁matériel	-10579
▁cabillaud	-10580
▁gradually	-10581
▁hémicycle	-10582
▁supérieur	-10583
▁laundering	-10584
▁rapprocher	-10585
lers	-10586
▁fea	-10587
▁gdp	-10588
itical	-10589
▁banan	-10590
▁chypri	-10591
▁forgot	-10592
▁shadow	-10593
▁déplore	-10594
▁enhance	-10595
▁entamer	-10596
▁saurait	-10597
▁emission	-10598
▁indicate	-10599
▁strictly	-10600
▁diffusion	-10601
▁convaincus	-10602
▁resistance	-10603
▁bureaucratie	-10604
▁pig	-10605
▁tub	-10606
ueuse	-10607
▁kong	-10608
▁mira	-10609
▁équiv	-10610
▁forêts	-10611
▁solved	-10612
▁unions	-10613
▁vieill	-10614
▁bearing	-10615
▁chinese	-10616
▁examiné	-10617
▁lessons	-10618
▁sending	-10619
▁stipule	-10620
▁augmente	-10621
▁augmenté	-10622
▁démontre	-10623
▁preserve	-10624
▁reported	-10625
▁rétablir	-10626
▁desirable	-10627
▁universel	-10628
▁enforcement	-10629
ga	-10630
run	-10631
▁150	-10632
▁50%	-10633
▁ami	-10634
wered	-10635
▁depl	-10636
ampleur	-10637
▁posées	-10638
▁napolit	-10639
christian	-10640
▁garantit	-10641
▁conscient	-10642
▁recycling	-10643
▁coexistence	-10644
▁contribuent	-10645
▁declarations	-10646
▁géographique	-10647
▁inadmissible	-10648
atri	-10649
▁cox	-10650
▁die	-10651
▁déten	-10652
pective	-10653
▁became	-10654
▁deploy	-10655
▁disreg	-10656
▁doutes	-10657
▁téléph	-10658
▁assisté	-10659
▁decentr	-10660
▁salaires	-10661
▁tragédie	-10662
▁yourself	-10663
▁negotiate	-10664
▁federation	-10665
▁linguistique	-10666
orre	-10667
▁mere	-10668
▁actif	-10669
▁révis	-10670
▁informal	-10671
▁mercosur	-10672
▁regarded	-10673
▁harmonise	-10674
▁retraites	-10675
▁inappropri	-10676
▁pesticides	-10677
▁primordial	-10678
▁underlying	-10679
▁destination	-10680
▁contribuables	-10681
▁contradictions	-10682
aria	-10683
auté	-10684
trés	-10685
aides	-10686
encer	-10687
▁accél	-10688
▁below	-10689
▁dénon	-10690
▁track	-10691
▁cesser	-10692
▁claims	-10693
▁prompt	-10694
▁choices	-10695
▁islamic	-10696
▁ludford	-10697
▁simples	-10698
▁expertise	-10699
▁gratitude	-10700
▁underline	-10701
▁yougoslavie	-10702
▁authorisation	-10703
▁exploitations	-10704
▁flow	-10705
▁minu	-10706
▁sales	-10707
▁tools	-10708
▁hausse	-10709
▁devenue	-10710
▁enabling	-10711
▁suggests	-10712
▁disponible	-10713
▁napolitano	-10714
▁officielle	-10715
▁patrimoine	-10716
▁représenter	-10717
éth	-10718
▁gh	-10719
look	-10720
ussy	-10721
▁mém	-10722
▁maes	-10723
▁seas	-10724
▁stre	-10725
attrib	-10726
erving	-10727
▁catch	-10728
▁côtes	-10729
▁russe	-10730
▁score	-10731
▁timor	-10732
▁deaths	-10733
▁voitures	-10734
▁entrepris	-10735
▁manifeste	-10736
▁indications	-10737
hm	-10738
)).	-10739
des	-10740
▁doter	-10741
▁firms	-10742
▁items	-10743
▁récon	-10744
▁sexes	-10745
orateur	-10746
▁avancé	-10747
▁obtenus	-10748
▁soldiers	-10749
▁condamner	-10750
▁preventive	-10751
▁profondeur	-10752
▁industriels	-10753
▁soutiennent	-10754
▁écologiques	-10755
umn	-10756
yez	-10757
érir	-10758
▁sale	-10759
▁wise	-10760
lander	-10761
▁1997,	-10762
▁illus	-10763
▁abouti	-10764
▁soumet	-10765
▁combler	-10766
▁logical	-10767
▁rencont	-10768
▁fourthly	-10769
▁totalité	-10770
▁révolution	-10771
▁susceptible	-10772
▁inj	-10773
activ	-10774
▁cibl	-10775
▁norme	-10776
▁scène	-10777
▁hunger	-10778
▁exercis	-10779
▁occurred	-10780
▁renoncer	-10781
roissement	-10782
▁instaurer	-10783
▁comparison	-10784
▁foundation	-10785
▁democracies	-10786
▁discriminations	-10787
hy	-10788
sted	-10789
▁anx	-10790
▁wind	-10791
▁begun	-10792
▁ferai	-10793
▁veter	-10794
▁sphere	-10795
▁victime	-10796
entissage	-10797
regulation	-10798
▁campagnes	-10799
▁assurances	-10800
▁constructif	-10801
▁obligatoires	-10802
5-06	-10803
road	-10804
▁enl	-10805
▁rul	-10806
▁blok	-10807
▁cuts	-10808
▁fixe	-10809
▁porté	-10810
▁conclus	-10811
▁journée	-10812
▁routier	-10813
▁defining	-10814
▁exprimée	-10815
▁listened	-10816
▁accélérer	-10817
▁interdire	-10818
▁précision	-10819
▁événement	-10820
▁convaincue	-10821
▁recognises	-10822
▁journalistes	-10823
dict	-10824
énor	-10825
ercul	-10826
pital	-10827
▁tank	-10828
▁farms	-10829
holders	-10830
▁stages	-10831
▁antibio	-10832
▁expliqué	-10833
▁physical	-10834
▁périodes	-10835
intervenir	-10836
▁donateurs	-10837
▁objection	-10838
▁rédaction	-10839
▁controlled	-10840
▁dépendance	-10841
▁satisfaits	-10842
▁efficiently	-10843
▁favorablement	-10844
▁nô	-10845
corm	-10846
▁cyn	-10847
▁gonz	-10848
▁wars	-10849
antime	-10850
▁burma	-10851
▁juger	-10852
cormick	-10853
falussy	-10854
ologies	-10855
▁clonage	-10856
▁convers	-10857
▁informés	-10858
▁meantime	-10859
▁réformer	-10860
▁abolition	-10861
▁clandestine	-10862
▁journalists	-10863
▁intellectual	-10864
▁partiellement	-10865
ouest	-10866
▁scen	-10867
▁vues	-10868
istics	-10869
▁mille	-10870
▁posts	-10871
▁sight	-10872
▁title	-10873
onction	-10874
reaching	-10875
▁cloning	-10876
▁scandal	-10877
▁scienti	-10878
▁craintes	-10879
▁recettes	-10880
▁resulted	-10881
▁shipping	-10882
▁spéciale	-10883
▁aspirations	-10884
▁générations	-10885
▁précédentes	-10886
eds	-10887
olu	-10888
omin	-10889
uant	-10890
▁iii	-10891
angle	-10892
voyer	-10893
▁hous	-10894
▁finir	-10895
▁shame	-10896
▁slova	-10897
▁appelé	-10898
▁maaten	-10899
▁matern	-10900
▁italien	-10901
▁refused	-10902
▁rendent	-10903
▁saluons	-10904
▁savings	-10905
▁tribute	-10906
▁renforcé	-10907
▁rencontré	-10908
▁croissante	-10909
▁deviennent	-10910
▁rencontrer	-10911
▁réglementaire	-10912
▁meal	-10913
itably	-10914
▁kilom	-10915
▁belief	-10916
culation	-10917
▁arrived	-10918
▁amérique	-10919
▁outbreak	-10920
▁reliable	-10921
▁préjudice	-10922
▁acceptance	-10923
▁lamfalussy	-10924
▁occupation	-10925
▁revolution	-10926
▁constamment	-10927
▁travaillons	-10928
11	-10929
cod	-10930
ulé	-10931
▁xx	-10932
atom	-10933
enth	-10934
ensen	-10935
▁plas	-10936
ommage	-10937
ounded	-10938
▁classe	-10939
▁confer	-10940
▁lourde	-10941
▁résolu	-10942
▁succes	-10943
▁éloign	-10944
▁définis	-10945
▁inscrit	-10946
▁scotland	-10947
▁unilateral	-10948
▁accompanied	-10949
▁automatique	-10950
▁manifestations	-10951
45	-10952
free	-10953
▁blame	-10954
▁accent	-10955
▁bovine	-10956
▁pertes	-10957
▁auteurs	-10958
▁licenci	-10959
▁atlantic	-10960
▁immigrés	-10961
▁regroupe	-10962
▁soutenue	-10963
▁judicieux	-10964
▁explication	-10965
iop	-10966
esta	-10967
observ	-10968
▁blind	-10969
▁erron	-10970
▁castro	-10971
▁laissé	-10972
▁slovak	-10973
▁uphold	-10974
ousiasme	-10975
▁homosex	-10976
▁procédé	-10977
▁civilian	-10978
▁offering	-10979
▁compléter	-10980
▁disappear	-10981
▁expansion	-10982
▁observers	-10983
opportunité	-10984
▁communiste	-10985
▁reconnaissant	-10986
cp	-10987
▁140	-10988
itter	-10989
▁chur	-10990
▁adequ	-10991
espread	-10992
▁affich	-10993
▁leaves	-10994
▁oblige	-10995
▁absurde	-10996
▁minimal	-10997
▁approfon	-10998
▁considérés	-10999
▁génération	-11000
▁linguistic	-11001
▁widespread	-11002
▁economically	-11003
▁jurisdiction	-11004
▁démocratisation	-11005
.'	-11006
izo	-11007
zio	-11008
radi	-11009
rupt	-11010
▁nar	-11011
effor	-11012
▁vide	-11013
▁dégag	-11014
▁honor	-11015
▁forese	-11016
▁tenons	-11017
▁impetus	-11018
▁longues	-11019
▁cellules	-11020
▁irrespon	-11021
▁milliard	-11022
▁plaintes	-11023
▁tiennent	-11024
▁décennies	-11025
▁maccormick	-11026
▁examination	-11027
ogm	-11028
cise	-11029
endt	-11030
iven	-11031
▁mem	-11032
▁corn	-11033
terrey	-11034
▁mouth	-11035
▁notif	-11036
▁veget	-11037
▁expert	-11038
▁pensez	-11039
▁réunir	-11040
▁ampleur	-11041
▁founded	-11042
▁poisson	-11043
érabilité	-11044
▁advocate	-11045
▁exprimés	-11046
▁tubercul	-11047
▁abstained	-11048
▁contenter	-11049
▁initially	-11050
▁procureur	-11051
▁impliquées	-11052
▁apparemment	-11053
▁ministerial	-11054
▁industrielle	-11055
ami	-11056
osse	-11057
▁nit	-11058
évent	-11059
▁deny	-11060
▁invo	-11061
▁émis	-11062
▁earth	-11063
▁gonzá	-11064
▁drafts	-11065
▁freely	-11066
▁récent	-11067
▁disprop	-11068
▁étendre	-11069
▁atteints	-11070
▁blokland	-11071
▁concerné	-11072
▁profound	-11073
occurrence	-11074
▁rejection	-11075
▁mozambique	-11076
▁indicateurs	-11077
▁limitations	-11078
▁prioritaires	-11079
71	-11080
ney	-11081
elve	-11082
▁15,	-11083
▁usd	-11084
▁wed	-11085
eping	-11086
▁died	-11087
▁pace	-11088
istrib	-11089
▁andre	-11090
▁fears	-11091
underst	-11092
▁allant	-11093
▁tableau	-11094
nellement	-11095
▁gonzález	-11096
▁récentes	-11097
▁packaging	-11098
▁taxpayers	-11099
▁provisoire	-11100
▁regardless	-11101
▁compromises	-11102
▁restructuration	-11103
)].	-11104
alg	-11105
iro	-11106
izoo	-11107
loie	-11108
▁gib	-11109
arritz	-11110
▁aggrav	-11111
▁libres	-11112
▁martin	-11113
▁écrite	-11114
▁caution	-11115
▁ceiling	-11116
▁exister	-11117
▁joining	-11118
▁veterin	-11119
▁visited	-11120
▁disregard	-11121
▁dérogation	-11122
▁xenophobia	-11123
▁qualitative	-11124
▁intelligence	-11125
discrimination	-11126
eb	-11127
abou	-11128
agon	-11129
oirs	-11130
plan	-11131
▁hes	-11132
▁qua	-11133
▁rio	-11134
foris	-11135
oring	-11136
vable	-11137
ètres	-11138
▁kati	-11139
auteur	-11140
▁lifel	-11141
europol	-11142
▁ratify	-11143
▁réussir	-11144
▁katiforis	-11145
▁éducation	-11146
▁authorised	-11147
▁eventually	-11148
▁rechercher	-11149
▁simplifier	-11150
▁disproportion	-11151
kin	-11152
▁dg	-11153
ried	-11154
▁âge	-11155
asion	-11156
plath	-11157
▁hour	-11158
▁liti	-11159
▁oost	-11160
ancies	-11161
crates	-11162
▁shift	-11163
▁corpor	-11164
▁fortes	-11165
▁souscr	-11166
▁tension	-11167
▁trouble	-11168
accession	-11169
▁complied	-11170
▁fiscales	-11171
▁modifiée	-11172
▁poursuit	-11173
▁adressées	-11174
▁monterrey	-11175
▁partisans	-11176
▁misunderst	-11177
▁oostlander	-11178
▁produisent	-11179
▁tentatives	-11180
▁exclusively	-11181
▁réjouissons	-11182
▁satisfaisant	-11183
▁multinationales	-11184
lée	-11185
tar	-11186
erge	-11187
gest	-11188
istent	-11189
▁looks	-11190
▁michel	-11191
▁prejud	-11192
▁helpful	-11193
▁prevail	-11194
▁biarritz	-11195
▁directed	-11196
▁définies	-11197
tissements	-11198
▁systematic	-11199
▁électorale	-11200
▁pourcentage	-11201
▁condamnation	-11202
▁particulières	-11203
reb	-11204
cape	-11205
ètes	-11206
▁lag	-11207
▁rum	-11208
known	-11209
tiend	-11210
entive	-11211
▁assor	-11212
▁médec	-11213
▁sucre	-11214
▁impôts	-11215
▁passée	-11216
▁proxim	-11217
▁soldats	-11218
▁confirme	-11219
▁figurent	-11220
▁handling	-11221
▁forgotten	-11222
▁communiquer	-11223
▁representing	-11224
▁sensiblement	-11225
▁reunification	-11226
ye	-11227
▁bir	-11228
disant	-11229
entend	-11230
entité	-11231
▁liked	-11232
▁ferait	-11233
▁inclus	-11234
▁morale	-11235
▁vivant	-11236
ancienne	-11237
▁forests	-11238
▁inquiry	-11239
▁randzio	-11240
ématiques	-11241
▁regarder	-11242
▁soumises	-11243
▁additives	-11244
▁préférable	-11245
▁franchement	-11246
▁entreprendre	-11247
▁participating	-11248
fond	-11249
sson	-11250
▁hés	-11251
▁coinc	-11252
▁convic	-11253
▁twelve	-11254
exigence	-11255
ractions	-11256
▁anciens	-11257
▁biggest	-11258
▁connais	-11259
▁ineffic	-11260
▁inviter	-11261
▁directeur	-11262
▁reçoivent	-11263
explication	-11264
▁durabilité	-11265
▁inevitably	-11266
▁israéliens	-11267
▁transformer	-11268
▁explicitement	-11269
▁quatrièmement	-11270
▁professionnels	-11271
ky	-11272
ria	-11273
▁uv	-11274
ggen	-11275
▁alp	-11276
▁péd	-11277
idable	-11278
intégr	-11279
licate	-11280
weggen	-11281
▁facto	-11282
▁proté	-11283
▁serre	-11284
▁troops	-11285
▁desired	-11286
▁hommage	-11287
▁interop	-11288
▁convince	-11289
▁quantités	-11290
▁similaire	-11291
▁mainstream	-11292
ds	-11293
behr	-11294
down	-11295
ming	-11296
text	-11297
élev	-11298
▁196	-11299
▁bang	-11300
▁cauc	-11301
▁cond	-11302
▁maij	-11303
▁soin	-11304
rapéri	-11305
▁began	-11306
▁judge	-11307
exprime	-11308
▁accomm	-11309
▁sollic	-11310
behrendt	-11311
▁classes	-11312
▁remplac	-11313
▁soulève	-11314
condition	-11315
▁montagne	-11316
▁recueill	-11317
▁renforce	-11318
▁climatique	-11319
än	-11320
alem	-11321
quin	-11322
èges	-11323
▁sab	-11324
oupes	-11325
▁mour	-11326
ériens	-11327
▁chute	-11328
▁équip	-11329
▁devast	-11330
▁étapes	-11331
▁broadly	-11332
▁vitesse	-11333
▁whenever	-11334
▁accepting	-11335
▁electoral	-11336
▁integrate	-11337
▁vigilance	-11338
▁criticised	-11339
▁suffisantes	-11340
▁utilisateurs	-11341
mic	-11342
vén	-11343
▁55	-11344
▁cf	-11345
▁rü	-11346
iene	-11347
▁pib	-11348
▁inse	-11349
langes	-11350
▁enshr	-11351
▁entamé	-11352
▁adhérer	-11353
▁anglais	-11354
▁essence	-11355
▁contrast	-11356
▁négative	-11357
▁complexes	-11358
▁développé	-11359
▁eliminate	-11360
▁légitimes	-11361
▁invitation	-11362
▁reinforced	-11363
▁biodiversity	-11364
ulf	-11365
kenna	-11366
▁lait	-11367
▁tobin	-11368
▁denied	-11369
▁enrich	-11370
▁greenh	-11371
building	-11372
▁mckenna	-11373
▁établis	-11374
▁aérienne	-11375
▁chemicals	-11376
▁ministère	-11377
▁adaptation	-11378
▁comitology	-11379
▁dispositif	-11380
▁equivalent	-11381
▁percentage	-11382
▁éventuelle	-11383
▁generations	-11384
▁investisseurs	-11385
▁interprétation	-11386
▁39	-11387
arri	-11388
hood	-11389
▁alg	-11390
▁pul	-11391
isons	-11392
▁2005	-11393
▁tiss	-11394
arians	-11395
▁jeune	-11396
▁naiss	-11397
▁purch	-11398
▁recip	-11399
▁sadly	-11400
anément	-11401
▁indiff	-11402
▁solbes	-11403
▁débattu	-11404
▁fragile	-11405
▁piliers	-11406
▁revenue	-11407
▁attached	-11408
▁bénéfice	-11409
▁scrutiny	-11410
▁fiscalité	-11411
▁incontest	-11412
▁necessity	-11413
▁présentes	-11414
▁transfers	-11415
▁approaches	-11416
▁différenci	-11417
▁stratégiques	-11418
ax	-11419
(2)	-11420
▁ça	-11421
hard	-11422
uled	-11423
erika	-11424
tious	-11425
attend	-11426
▁pages	-11427
▁amener	-11428
▁lourds	-11429
▁theato	-11430
▁affaibl	-11431
▁algeria	-11432
▁arrière	-11433
▁dismant	-11434
▁display	-11435
▁embargo	-11436
▁failing	-11437
▁accommod	-11438
▁outlined	-11439
▁replaced	-11440
▁criterion	-11441
▁redistrib	-11442
▁réductions	-11443
▁wholeheartedly	-11444
cía	-11445
ppe	-11446
roît	-11447
iring	-11448
▁dete	-11449
▁grat	-11450
▁cease	-11451
▁devez	-11452
▁doors	-11453
▁lobby	-11454
▁outer	-11455
▁avance	-11456
▁garcía	-11457
utrition	-11458
▁civiles	-11459
▁manquer	-11460
▁missing	-11461
▁entering	-11462
▁offences	-11463
▁établies	-11464
▁signifier	-11465
▁definitive	-11466
▁frequently	-11467
▁threatened	-11468
▁contraintes	-11469
▁bénéficiaires	-11470
wa	-11471
oué	-11472
élo	-11473
▁fic	-11474
étend	-11475
▁dell	-11476
▁haug	-11477
▁fixed	-11478
▁irres	-11479
aisance	-11480
attaquer	-11481
▁envoyer	-11482
▁exprime	-11483
▁intense	-11484
▁invited	-11485
▁suggère	-11486
▁colombia	-11487
▁expressly	-11488
▁incentive	-11489
▁slaughter	-11490
▁employeurs	-11491
▁consistently	-11492
hom	-11493
olé	-11494
▁fro	-11495
▁gis	-11496
erais	-11497
élarg	-11498
▁bonn	-11499
▁gale	-11500
▁expér	-11501
honneur	-11502
▁délits	-11503
▁paraly	-11504
▁écouté	-11505
▁tonight	-11506
ignements	-11507
inclusion	-11508
énagement	-11509
▁acceptés	-11510
▁covering	-11511
▁innocent	-11512
▁monopoly	-11513
▁respectés	-11514
▁greenhouse	-11515
▁suspension	-11516
habilitation	-11517
instauration	-11518
rak	-11519
▁75	-11520
▁ho	-11521
cade	-11522
asmus	-11523
usage	-11524
▁1995	-11525
▁goeb	-11526
▁émet	-11527
ueille	-11528
▁repos	-11529
▁volet	-11530
▁aborde	-11531
▁dupuis	-11532
▁opposé	-11533
immunité	-11534
▁chinois	-11535
▁interreg	-11536
▁campaigns	-11537
▁multiples	-11538
▁containing	-11539
▁everywhere	-11540
▁libération	-11541
▁preparatory	-11542
▁mur	-11543
▁sah	-11544
image	-11545
uaires	-11546
▁bosnia	-11547
▁peters	-11548
▁placer	-11549
▁praise	-11550
▁search	-11551
▁busquin	-11552
inflation	-11553
▁bulgaria	-11554
▁goebbels	-11555
▁physique	-11556
▁struggle	-11557
▁distances	-11558
▁fermeture	-11559
▁scientists	-11560
▁terroriste	-11561
▁démocraties	-11562
▁législatifs	-11563
▁structurelle	-11564
rm	-11565
uiss	-11566
phère	-11567
▁asem	-11568
▁conç	-11569
ulated	-11570
▁2010.	-11571
▁micro	-11572
adapter	-11573
▁confir	-11574
▁exacer	-11575
▁voisin	-11576
▁interim	-11577
▁troupes	-11578
▁cruciale	-11579
▁released	-11580
▁concentre	-11581
▁ministéri	-11582
ned	-11583
▁14,	-11584
/01):	-11585
▁page	-11586
▁suic	-11587
▁trem	-11588
▁vend	-11589
▁cells	-11590
▁musul	-11591
▁unité	-11592
▁woman	-11593
argeted	-11594
arrêter	-11595
▁birmanie	-11596
▁dramatic	-11597
▁enhanced	-11598
▁explique	-11599
▁richesse	-11600
▁évidente	-11601
▁characteristics	-11602
stat	-11603
▁arti	-11604
▁bench	-11605
▁grass	-11606
▁morte	-11607
▁autumn	-11608
▁harass	-11609
▁prouve	-11610
▁worthy	-11611
▁inciter	-11612
▁lifelong	-11613
▁rassembl	-11614
▁routière	-11615
▁éliminer	-11616
▁croissant	-11617
▁examinons	-11618
▁incapable	-11619
▁individus	-11620
▁reinforce	-11621
▁supporter	-11622
▁respecting	-11623
27	-11624
ckx	-11625
ijs	-11626
ray	-11627
yes	-11628
▁coc	-11629
▁gil	-11630
quier	-11631
requis	-11632
▁prize	-11633
▁hypoth	-11634
▁remise	-11635
iblement	-11636
▁arising	-11637
▁avoided	-11638
▁disturb	-11639
▁morator	-11640
▁bénéficie	-11641
▁functions	-11642
▁differently	-11643
▁notification	-11644
loc	-11645
▁kyi	-11646
▁luc	-11647
extra	-11648
▁hind	-11649
▁invers	-11650
▁terres	-11651
insister	-11652
▁adapter	-11653
▁optique	-11654
▁pretext	-11655
▁requête	-11656
▁familial	-11657
▁hypocris	-11658
▁syndicats	-11659
▁félicitons	-11660
▁veterinary	-11661
▁contraignant	-11662
▁spécifiquement	-11663
ome	-11664
▁95	-11665
▁10%	-11666
▁195	-11667
annex	-11668
board	-11669
enant	-11670
euses	-11671
▁gagn	-11672
▁ideal	-11673
▁mette	-11674
▁tromp	-11675
istency	-11676
▁wednes	-11677
▁arrivés	-11678
▁comités	-11679
▁exigent	-11680
▁ingredi	-11681
▁proches	-11682
▁sterckx	-11683
▁usually	-11684
▁utilise	-11685
▁answered	-11686
▁assister	-11687
▁dizaines	-11688
▁spécific	-11689
▁wherever	-11690
▁démarches	-11691
▁moratoire	-11692
▁consistant	-11693
▁résistance	-11694
▁professions	-11695
▁biotechnologie	-11696
14	-11697
19	-11698
ched	-11699
/00):	-11700
▁cosme	-11701
▁indig	-11702
▁stick	-11703
arition	-11704
personn	-11705
▁gained	-11706
▁génére	-11707
▁offert	-11708
▁élevée	-11709
sibilité	-11710
▁guerres	-11711
▁réduite	-11712
▁vietnam	-11713
▁mercredi	-11714
▁monopole	-11715
▁tackling	-11716
▁uniforme	-11717
▁provoquer	-11718
▁characterised	-11719
mans	-11720
▁hoc	-11721
▁suu	-11722
▁lobb	-11723
▁plat	-11724
▁irreg	-11725
▁couvre	-11726
▁divide	-11727
▁incons	-11728
▁navire	-11729
ignation	-11730
▁clients	-11731
▁découle	-11732
▁décisive	-11733
▁négatifs	-11734
▁stations	-11735
▁transmet	-11736
▁deadlines	-11737
▁justifiée	-11738
▁maritimes	-11739
▁wednesday	-11740
▁juridiquement	-11741
▁transnational	-11742
▁investigations	-11743
rui	-11744
uns	-11745
▁pom	-11746
harov	-11747
▁2006,	-11748
▁accum	-11749
▁faill	-11750
▁vieux	-11751
▁bosnie	-11752
▁estimé	-11753
▁fusion	-11754
▁marqué	-11755
▁papier	-11756
▁parcour	-11757
▁restera	-11758
personnel	-11759
▁améliore	-11760
▁colombie	-11761
▁pourrais	-11762
▁effectués	-11763
▁estimated	-11764
▁fulfilled	-11765
▁integrity	-11766
▁sanitaire	-11767
▁subsequent	-11768
▁transporte	-11769
▁américaines	-11770
urtz	-11771
▁abu	-11772
▁vin	-11773
arked	-11774
ients	-11775
tienne	-11776
▁1996,	-11777
▁argue	-11778
▁chaos	-11779
▁peijs	-11780
▁signs	-11781
▁wurtz	-11782
arriver	-11783
▁engine	-11784
▁moteur	-11785
▁mulder	-11786
▁redund	-11787
alliance	-11788
▁surface	-11789
▁uranium	-11790
▁déployés	-11791
▁imposing	-11792
▁investir	-11793
▁maximale	-11794
▁sections	-11795
commission	-11796
▁autorisés	-11797
▁reporting	-11798
▁ultrapéri	-11799
▁highlights	-11800
▁prévisions	-11801
▁indépendance	-11802
▁irrespective	-11803
12	-11804
affe	-11805
▁tva	-11806
inspe	-11807
annual	-11808
▁struck	-11809
▁sharing	-11810
▁generous	-11811
▁targeted	-11812
▁buildings	-11813
▁defending	-11814
▁démontrer	-11815
▁souffrent	-11816
▁coordinate	-11817
▁coordonner	-11818
▁sauvegarde	-11819
▁historiques	-11820
▁observateurs	-11821
pi	-11822
ica	-11823
sen	-11824
osis	-11825
urée	-11826
▁agi	-11827
▁mep	-11828
inten	-11829
veurs	-11830
▁fate	-11831
▁véri	-11832
▁acted	-11833
▁artis	-11834
▁mutil	-11835
▁fought	-11836
▁abolish	-11837
▁hautala	-11838
▁minutie	-11839
▁permets	-11840
▁acceptée	-11841
itablement	-11842
▁examining	-11843
▁outermost	-11844
▁xénophobie	-11845
▁biodiversité	-11846
▁65	-11847
▁7.	-11848
nest	-11849
▁agg	-11850
▁bei	-11851
ulous	-11852
usalem	-11853
▁asile	-11854
▁théor	-11855
▁écoul	-11856
▁invité	-11857
▁misère	-11858
▁valoir	-11859
▁abandon	-11860
▁sévères	-11861
▁bulgarie	-11862
▁mountain	-11863
adaptation	-11864
▁améliorée	-11865
▁envisaged	-11866
▁stringent	-11867
▁consolider	-11868
▁monopolies	-11869
▁moratorium	-11870
▁references	-11871
▁arrangement	-11872
▁programming	-11873
80	-11874
orf	-11875
1999)	-11876
ented	-11877
obile	-11878
▁nauf	-11879
▁adult	-11880
▁douan	-11881
▁issus	-11882
▁remis	-11883
▁situe	-11884
▁englob	-11885
▁vivons	-11886
oulement	-11887
▁disastr	-11888
▁prouver	-11889
▁pénales	-11890
criptions	-11891
▁disposés	-11892
▁ordinary	-11893
▁probable	-11894
▁relèvent	-11895
▁sakharov	-11896
▁africains	-11897
▁disciplin	-11898
▁impératif	-11899
▁investors	-11900
▁lancement	-11901
▁scheduled	-11902
▁tolérance	-11903
▁exemptions	-11904
▁traduction	-11905
▁directorate	-11906
▁opportunité	-11907
▁vulnérables	-11908
▁regroupement	-11909
17	-11910
pin	-11911
ithu	-11912
uner	-11913
▁11.	-11914
▁unh	-11915
▁urb	-11916
▁arme	-11917
▁cath	-11918
▁ciel	-11919
▁film	-11920
▁ravi	-11921
▁smet	-11922
enberg	-11923
rables	-11924
équipe	-11925
▁inond	-11926
▁lists	-11927
▁loans	-11928
▁absent	-11929
▁foster	-11930
▁gibral	-11931
▁refusé	-11932
▁relief	-11933
attendre	-11934
▁ratifié	-11935
▁reprend	-11936
▁seekers	-11937
▁servent	-11938
▁établie	-11939
▁ratifier	-11940
▁transpos	-11941
▁clarified	-11942
▁comparaison	-11943
▁garantissant	-11944
▁mobilisation	-11945
▁conservateurs	-11946
gi	-11947
sc	-11948
▁thr	-11949
▁scol	-11950
▁stup	-11951
▁badly	-11952
▁chira	-11953
▁déliv	-11954
▁leban	-11955
▁maybe	-11956
▁ouvre	-11957
▁révél	-11958
▁théra	-11959
▁august	-11960
▁concil	-11961
▁falling	-11962
▁postaux	-11963
▁témoign	-11964
▁amélioré	-11965
▁computer	-11966
▁employed	-11967
▁prerequis	-11968
▁disastrous	-11969
▁compétitive	-11970
▁constituera	-11971
▁culturelles	-11972
▁décisionnel	-11973
24	-11974
isc	-11975
oeu	-11976
yst	-11977
▁fä	-11978
/03)	-11979
▁16,	-11980
▁lor	-11981
▁caud	-11982
▁cope	-11983
▁harc	-11984
▁musi	-11985
▁guine	-11986
▁guise	-11987
▁remit	-11988
inscrit	-11989
▁losses	-11990
identité	-11991
▁enforce	-11992
▁malaria	-11993
▁modèles	-11994
▁émettre	-11995
▁établit	-11996
▁humanity	-11997
▁location	-11998
▁touchées	-11999
▁component	-12000
▁criticise	-12001
▁dictature	-12002
▁exécution	-12003
▁listening	-12004
▁mandatory	-12005
▁pertinent	-12006
▁fédération	-12007
▁paragraphs	-12008
▁procedural	-12009
▁sentiments	-12010
▁ultérieure	-12011
▁comprennent	-12012
ser	-12013
▁6.	-12014
ador	-12015
ging	-12016
▁eib	-12017
level	-12018
▁färm	-12019
▁hung	-12020
▁remb	-12021
▁réag	-12022
▁wage	-12023
afield	-12024
venues	-12025
ocratic	-12026
▁abuses	-12027
▁assets	-12028
▁openly	-12029
▁univer	-12030
▁attaque	-12031
▁genetic	-12032
▁learned	-12033
▁licence	-12034
▁reconci	-12035
▁sommets	-12036
▁suscité	-12037
effectuer	-12038
influence	-12039
titutions	-12040
▁distinct	-12041
▁fixation	-12042
▁migrants	-12043
▁exchanges	-12044
▁négatives	-12045
▁sellafield	-12046
▁accusations	-12047
▁assessments	-12048
▁insuffisant	-12049
▁acknowledged	-12050
▁universities	-12051
35	-12052
-00	-12053
abol	-12054
iront	-12055
▁clubs	-12056
▁exert	-12057
▁fondé	-12058
▁lithu	-12059
▁minds	-12060
▁récip	-12061
ortions	-12062
▁dégrad	-12063
▁inside	-12064
commerce	-12065
▁aériens	-12066
▁chargée	-12067
▁devions	-12068
▁giscard	-12069
▁résulte	-12070
▁suscite	-12071
▁tighten	-12072
▁touchés	-12073
▁software	-12074
▁ethniques	-12075
▁soulevées	-12076
▁sérieuses	-12077
▁grandement	-12078
▁impliquant	-12079
▁remarkable	-12080
▁diplomatique	-12081
▁democratically	-12082
ïn	-12083
▁80%	-12084
▁jac	-12085
▁aung	-12086
▁fisc	-12087
▁stor	-12088
▁allég	-12089
▁baiss	-12090
▁conve	-12091
▁egypt	-12092
▁older	-12093
▁scrup	-12094
▁seuils	-12095
▁sudden	-12096
▁appeler	-12097
▁croatia	-12098
▁donnera	-12099
▁exclude	-12100
▁formulé	-12101
▁fédéral	-12102
▁galeote	-12103
▁instaur	-12104
▁summits	-12105
▁pursuing	-12106
▁appalling	-12107
▁consulter	-12108
▁originally	-12109
▁présentera	-12110
▁intelligent	-12111
▁intéressante	-12112
▁reproductive	-12113
▁safeguarding	-12114
▁contraignante	-12115
▁feedingstuffs	-12116
cap	-12117
▁49	-12118
ypte	-12119
▁dop	-12120
ettre	-12121
▁souv	-12122
▁avéré	-12123
▁fails	-12124
▁hague	-12125
▁lehne	-12126
▁légif	-12127
avancer	-12128
▁multif	-12129
oublions	-12130
▁exacerb	-12131
▁exclure	-12132
▁premium	-12133
▁échéant	-12134
▁étudier	-12135
expliquer	-12136
▁combusti	-12137
▁needless	-12138
▁pluriann	-12139
▁traitées	-12140
▁irrespons	-12141
▁régulation	-12142
▁sanitaires	-12143
▁complaisance	-12144
▁difficilement	-12145
▁officiellement	-12146
fl	-12147
vé	-12148
ani	-12149
otes	-12150
▁foy	-12151
▁vég	-12152
▁nich	-12153
▁sums	-12154
ancien	-12155
oppose	-12156
▁birth	-12157
▁écour	-12158
ataires	-12159
écurité	-12160
▁chirac	-12161
▁cities	-12162
▁envoyé	-12163
▁finish	-12164
▁caudron	-12165
▁empêche	-12166
▁euratom	-12167
▁marquer	-12168
▁patience	-12169
▁retrouve	-12170
inquiétude	-12171
▁adéquates	-12172
▁apprendre	-12173
▁withdrawn	-12174
▁pétroliers	-12175
▁considèrent	-12176
▁incidentally	-12177
▁intervenants	-12178
▁quantitative	-12179
chés	-12180
eable	-12181
erted	-12182
▁ball	-12183
▁brid	-12184
▁litu	-12185
▁radi	-12186
interm	-12187
▁appui	-12188
▁cards	-12189
▁déloy	-12190
▁ended	-12191
▁twice	-12192
▁végét	-12193
▁cancun	-12194
▁manoeu	-12195
▁timely	-12196
isenberg	-12197
▁congrès	-12198
▁émanant	-12199
▁damaging	-12200
▁ouvertes	-12201
▁resident	-12202
▁barrières	-12203
▁satellite	-12204
implication	-12205
▁disparaître	-12206
▁désarmement	-12207
▁explanatory	-12208
▁automatically	-12209
▁reconciliation	-12210
38	-12211
jö	-12212
iel	-12213
rea	-12214
cker	-12215
▁lad	-12216
▁ram	-12217
aring	-12218
stedt	-12219
▁gest	-12220
▁heat	-12221
▁pesc	-12222
▁irrég	-12223
jöstedt	-12224
respect	-12225
▁hasard	-12226
▁suspic	-12227
adresser	-12228
iendront	-12229
▁erasmus	-12230
▁feature	-12231
▁laissez	-12232
▁patents	-12233
▁seattle	-12234
▁urgente	-12235
▁corriger	-12236
▁formulée	-12237
▁professe	-12238
▁socrates	-12239
▁tragique	-12240
▁constrain	-12241
▁participe	-12242
▁réalisées	-12243
▁respectées	-12244
▁withdrawal	-12245
▁volontaires	-12246
▁corresponding	-12247
▁pharmaceutical	-12248
ll	-12249
5-07	-12250
exer	-12251
olly	-12252
▁boy	-12253
▁sag	-12254
▁coïn	-12255
▁lent	-12256
▁sten	-12257
▁diagn	-12258
▁inher	-12259
▁légal	-12260
tements	-12261
▁allerg	-12262
▁barbar	-12263
▁désign	-12264
▁détéri	-12265
▁backing	-12266
▁faisait	-12267
▁intérim	-12268
▁perpetr	-12269
▁rapides	-12270
▁signale	-12271
▁écouter	-12272
▁implants	-12273
▁registre	-12274
▁sjöstedt	-12275
▁pouvaient	-12276
▁duisenberg	-12277
▁surprising	-12278
▁commentaire	-12279
▁fabrication	-12280
▁foundations	-12281
▁appreciation	-12282
▁investissement	-12283
▁transeuropéens	-12284
▁motif	-12285
▁staes	-12286
▁yield	-12287
istered	-12288
▁expand	-12289
▁passing	-12290
▁tackled	-12291
▁traduit	-12292
establish	-12293
président	-12294
▁entraîné	-12295
▁traduire	-12296
▁contenues	-12297
▁criminals	-12298
▁gibraltar	-12299
▁réactions	-12300
▁dangereuse	-12301
▁democratisation	-12302
ero	-12303
▁56	-12304
atti	-12305
opol	-12306
stad	-12307
▁cfp	-12308
▁swe	-12309
depth	-12310
▁basé	-12311
▁clés	-12312
▁mépr	-12313
▁user	-12314
ertion	-12315
▁bösch	-12316
▁martí	-12317
▁prévo	-12318
▁incend	-12319
▁maison	-12320
▁resort	-12321
▁disagre	-12322
▁gradual	-12323
▁gravité	-12324
▁surpris	-12325
▁congress	-12326
▁deciding	-12327
▁enquêtes	-12328
▁consciente	-12329
▁expériment	-12330
▁pornograph	-12331
beit	-12332
kers	-12333
nera	-12334
▁kab	-12335
▁pref	-12336
▁scre	-12337
▁marks	-12338
▁meets	-12339
évoquer	-12340
▁desper	-12341
▁narrow	-12342
▁rendus	-12343
▁thirty	-12344
▁rigueur	-12345
▁annuelle	-12346
▁fédérale	-12347
▁rapidité	-12348
▁culturels	-12349
▁demandant	-12350
▁indonesia	-12351
▁resolving	-12352
▁virtually	-12353
▁explicitly	-12354
▁imperative	-12355
▁séparation	-12356
▁constituerait	-12357
▁52	-12358
eler	-12359
excl	-12360
lave	-12361
voie	-12362
▁dap	-12363
▁uen	-12364
▁wyn	-12365
antly	-12366
stadt	-12367
estock	-12368
▁digne	-12369
▁excéd	-12370
▁serai	-12371
inclure	-12372
▁adjour	-12373
▁combin	-12374
▁fallen	-12375
argument	-12376
landaise	-12377
▁bureaux	-12378
▁assassin	-12379
▁modernes	-12380
▁prononcé	-12381
▁realised	-12382
▁livestock	-12383
▁experiences	-12384
oui	-12385
oût	-12386
▁46	-12387
ogue	-12388
▁err	-12389
▁kor	-12390
▁bâti	-12391
▁rare	-12392
▁rely	-12393
▁scén	-12394
engage	-12395
idémie	-12396
▁false	-12397
▁feels	-12398
develop	-12399
ointing	-12400
▁albeit	-12401
▁échapp	-12402
onnement	-12403
parcours	-12404
▁avancés	-12405
▁croatie	-12406
▁frankly	-12407
▁marques	-12408
▁passant	-12409
▁variety	-12410
▁autonomy	-12411
▁collecte	-12412
▁directes	-12413
▁dénoncer	-12414
▁estiment	-12415
▁facility	-12416
▁simplify	-12417
▁allemande	-12418
▁admittedly	-12419
▁chercheurs	-12420
▁horizontal	-12421
▁ingredients	-12422
oms	-12423
▁iz	-12424
▁600	-12425
▁dens	-12426
▁coque	-12427
extrême	-12428
▁répand	-12429
▁chacune	-12430
▁feuille	-12431
▁évoluer	-12432
▁employer	-12433
▁justifié	-12434
▁témoigne	-12435
▁chapitres	-12436
▁existante	-12437
▁adequately	-12438
▁impatience	-12439
▁déterminant	-12440
▁practically	-12441
▁insuffisante	-12442
▁manifestation	-12443
▁définitivement	-12444
ee	-12445
▁ri	-12446
ilty	-12447
ogau	-12448
rist	-12449
▁uses	-12450
/2003)	-12451
▁armée	-12452
▁rares	-12453
▁assuré	-12454
▁murder	-12455
▁remote	-12456
▁smooth	-12457
▁ignored	-12458
▁apportée	-12459
▁stimuler	-12460
▁fabricants	-12461
▁respectant	-12462
▁safeguards	-12463
▁incompatible	-12464
infrastructure	-12465
▁substantially	-12466
▁transatlantique	-12467
agog	-12468
▁17,	-12469
▁cow	-12470
▁oli	-12471
oking	-12472
xique	-12473
▁liban	-12474
▁wogau	-12475
experts	-12476
▁appell	-12477
▁belles	-12478
▁decade	-12479
▁exécut	-12480
▁guilty	-12481
▁lowest	-12482
imposent	-12483
▁attendu	-12484
▁fiscaux	-12485
▁fontaine	-12486
▁illustre	-12487
▁interloc	-12488
▁pourriez	-12489
▁contenant	-12490
▁poursuivi	-12491
▁sélection	-12492
▁complexité	-12493
▁differenti	-12494
▁résolument	-12495
▁thoroughly	-12496
▁description	-12497
▁experiencing	-12498
dad	-12499
alise	-12500
▁dogm	-12501
▁fant	-12502
▁sexe	-12503
annexe	-12504
▁2005.	-12505
▁lance	-12506
▁subje	-12507
élément	-12508
▁cattle	-12509
▁logici	-12510
▁serves	-12511
▁showed	-12512
▁joindre	-12513
rogatives	-12514
▁assessed	-12515
▁desquels	-12516
▁managing	-12517
▁précieux	-12518
▁commenter	-12519
▁connected	-12520
▁dépendent	-12521
▁irregular	-12522
▁israélien	-12523
▁tolerance	-12524
▁tremendous	-12525
▁strictement	-12526
▁unilatérale	-12527
▁prostitution	-12528
▁disponibilité	-12529
▁compréhensible	-12530
onné	-12531
stes	-12532
èves	-12533
▁18,	-12534
▁foi	-12535
▁sép	-12536
appli	-12537
▁pret	-12538
amanou	-12539
ignant	-12540
onésie	-12541
▁drive	-12542
▁baltic	-12543
▁persec	-12544
▁égards	-12545
▁délicat	-12546
▁incorre	-12547
▁delicate	-12548
▁demanded	-12549
▁friendly	-12550
▁imposées	-12551
▁concilier	-12552
▁indirecte	-12553
▁karamanou	-12554
▁passenger	-12555
▁rejoindre	-12556
▁whitehead	-12557
importantes	-12558
ographiques	-12559
▁biologique	-12560
▁préférence	-12561
▁acceptables	-12562
▁inhabitants	-12563
▁quotidienne	-12564
▁unification	-12565
▁universités	-12566
▁significatif	-12567
interprétation	-12568
ko	-12569
amer	-12570
▁raw	-12571
▁defe	-12572
▁bangl	-12573
▁intim	-12574
▁orale	-12575
▁plays	-12576
exercer	-12577
iration	-12578
mention	-12579
orously	-12580
▁ageing	-12581
▁apolog	-12582
▁fermer	-12583
▁guinea	-12584
▁plaide	-12585
▁prémat	-12586
employed	-12587
▁cashman	-12588
▁plainte	-12589
▁prépare	-12590
▁signing	-12591
▁telling	-12592
▁détruire	-12593
▁imaginer	-12594
▁réalités	-12595
▁touchent	-12596
▁consister	-12597
▁définitif	-12598
▁bourlanges	-12599
apprentissage	-12600
aim	-12601
ele	-12602
bend	-12603
▁120	-12604
▁irr	-12605
étant	-12606
▁meur	-12607
▁angle	-12608
▁assum	-12609
▁collège	-12610
▁disposé	-12611
▁passons	-12612
▁crédible	-12613
▁evaluate	-12614
▁reviewed	-12615
▁écourtée	-12616
▁confident	-12617
▁proactive	-12618
▁regularly	-12619
▁collection	-12620
▁couverture	-12621
▁juridiction	-12622
▁paragraphes	-12623
▁recommended	-12624
▁réconciliation	-12625
▁systematically	-12626
▁zu	-12627
▁won	-12628
appui	-12629
iders	-12630
▁dure	-12631
▁sauv	-12632
▁unif	-12633
overed	-12634
▁david	-12635
estaing	-12636
▁arises	-12637
▁london	-12638
▁medina	-12639
▁severe	-12640
▁tested	-12641
▁velzen	-12642
▁decline	-12643
▁suspens	-12644
▁discover	-12645
▁inutiles	-12646
▁éthiques	-12647
▁constante	-12648
▁delivered	-12649
importation	-12650
▁criticisms	-12651
▁exhaustive	-12652
▁individuels	-12653
▁évaluations	-12654
new	-12655
oli	-12656
aced	-12657
aura	-12658
lets	-12659
cribe	-12660
lsson	-12661
▁cité	-12662
▁inhum	-12663
▁input	-12664
▁sache	-12665
▁saint	-12666
▁story	-12667
▁christ	-12668
▁triste	-12669
▁adverse	-12670
▁airport	-12671
▁espoirs	-12672
▁worried	-12673
▁dépasser	-12674
▁espagnols	-12675
▁faiblesse	-12676
▁reconnais	-12677
▁unanimité	-12678
▁apparaître	-12679
▁potentiels	-12680
▁productive	-12681
▁transferts	-12682
▁évolutions	-12683
▁circonscription	-12684
▁méditerranéenne	-12685
aw	-12686
tel	-12687
ower	-12688
▁250	-12689
▁god	-12690
▁néf	-12691
▁wis	-12692
aches	-12693
autom	-12694
oints	-12695
▁book	-12696
▁cohn	-12697
▁earm	-12698
bendit	-12699
▁escal	-12700
▁merit	-12701
▁remov	-12702
accords	-12703
itables	-12704
▁breast	-12705
▁disarm	-12706
▁démant	-12707
▁secrét	-12708
▁signes	-12709
▁formula	-12710
▁mettant	-12711
▁plantes	-12712
effective	-12713
▁accurate	-12714
▁additifs	-12715
▁imported	-12716
▁sustained	-12717
▁enterprise	-12718
▁confirmation	-12719
chi	-12720
▁bét	-12721
▁gir	-12722
▁pcp	-12723
▁sun	-12724
agent	-12725
ulsen	-12726
▁bioc	-12727
▁fame	-12728
aining	-12729
rested	-12730
▁lente	-12731
▁nordi	-12732
▁noter	-12733
▁object	-12734
▁parent	-12735
▁résumé	-12736
▁suivie	-12737
▁transm	-12738
▁compete	-12739
▁paulsen	-12740
▁réelles	-12741
▁durables	-12742
▁reminded	-12743
▁returned	-12744
▁versions	-12745
▁compagnie	-12746
▁witnessed	-12747
▁permanence	-12748
▁conducteurs	-12749
dac	-12750
efe	-12751
zid	-12752
dorf	-12753
whel	-12754
▁rab	-12755
adesh	-12756
riers	-12757
▁born	-12758
▁game	-12759
▁root	-12760
ingdorf	-12761
itarian	-12762
quierdo	-12763
▁actifs	-12764
▁allait	-12765
▁exempt	-12766
▁graefe	-12767
▁impris	-12768
▁quanti	-12769
▁accused	-12770
▁assured	-12771
▁compare	-12772
▁éthique	-12773
▁annivers	-12774
▁believed	-12775
▁appointed	-12776
▁apportées	-12777
▁izquierdo	-12778
▁nullement	-12779
▁providers	-12780
▁baringdorf	-12781
▁conformité	-12782
▁disappoint	-12783
▁conjunction	-12784
▁radioactive	-12785
▁transferred	-12786
▁infringement	-12787
▁bureaucratique	-12788
how	-12789
uay	-12790
▁clin	-12791
▁poos	-12792
▁sees	-12793
▁stem	-12794
▁écar	-12795
▁bowis	-12796
▁codes	-12797
▁dedic	-12798
▁deple	-12799
▁georg	-12800
assoure	-12801
▁actors	-12802
▁arbitr	-12803
▁enfant	-12804
▁famine	-12805
▁titley	-12806
▁trains	-12807
ortement	-12808
▁appuyer	-12809
▁devoted	-12810
▁ignorer	-12811
▁replied	-12812
▁rédiger	-12813
▁salaire	-12814
▁voulait	-12815
▁overwhel	-12816
▁semestre	-12817
▁broadcast	-12818
▁organisms	-12819
▁approfondi	-12820
▁lamassoure	-12821
▁quantities	-12822
▁pertinentes	-12823
▁researchers	-12824
▁repercussions	-12825
16	-12826
ési	-12827
eiro	-12828
vens	-12829
exemp	-12830
icing	-12831
▁vary	-12832
▁alert	-12833
▁roots	-12834
▁tacis	-12835
▁unres	-12836
▁épuis	-12837
▁broken	-12838
▁chauff	-12839
▁encoun	-12840
▁images	-12841
associer	-12842
▁précisé	-12843
▁removal	-12844
▁serions	-12845
instaurer	-12846
▁appeared	-12847
▁channels	-12848
▁parvenue	-12849
imposition	-12850
▁cherchent	-12851
▁underestim	-12852
▁accessibles	-12853
▁interpreted	-12854
▁irresponsible	-12855
39	-12856
fra	-12857
umb	-12858
▁om	-12859
éric	-12860
▁12.	-12861
/02):	-12862
ticed	-12863
▁ends	-12864
▁wake	-12865
▁chief	-12866
▁epide	-12867
▁oomen	-12868
▁recul	-12869
istique	-12870
▁ancien	-12871
▁mexico	-12872
▁savary	-12873
ambition	-12874
▁banking	-12875
▁closure	-12876
▁emerged	-12877
▁pillars	-12878
▁condamné	-12879
▁resource	-12880
▁rigorous	-12881
▁stricter	-12882
▁coupables	-12883
▁interoper	-12884
▁bangladesh	-12885
▁beneficial	-12886
▁supérieure	-12887
▁innovations	-12888
▁occidentaux	-12889
▁continuerons	-12890
▁eh	-12891
mail	-12892
olig	-12893
▁hab	-12894
▁sky	-12895
irker	-12896
▁burg	-12897
▁cerc	-12898
ambigu	-12899
▁brill	-12900
▁fémin	-12901
▁malta	-12902
▁masse	-12903
▁secre	-12904
▁split	-12905
▁cathol	-12906
▁hazard	-12907
▁pirker	-12908
▁abordés	-12909
▁crainte	-12910
▁cutting	-12911
▁prenant	-12912
▁réclame	-12913
▁réservé	-12914
▁abortion	-12915
▁apparten	-12916
▁applause	-12917
▁arrested	-12918
▁features	-12919
▁hospital	-12920
▁éleveurs	-12921
▁attitudes	-12922
▁cinquante	-12923
▁consacrée	-12924
▁deviendra	-12925
▁medicinal	-12926
▁préoccupé	-12927
acceptables	-12928
▁travelling	-12929
▁consistency	-12930
▁contiennent	-12931
▁disparition	-12932
▁préparatifs	-12933
▁translation	-12934
▁conservative	-12935
▁conjointement	-12936
▁simultanément	-12937
▁accountability	-12938
▁intellectuelle	-12939
uk	-12940
cor	-12941
alie	-12942
▁amp	-12943
dibly	-12944
▁déte	-12945
alates	-12946
oriser	-12947
▁flows	-12948
▁rétic	-12949
▁unequ	-12950
version	-12951
▁appauv	-12952
▁convey	-12953
▁salmon	-12954
▁sauver	-12955
▁sentir	-12956
▁popular	-12957
▁résolus	-12958
▁extremis	-12959
▁presents	-12960
▁souhaits	-12961
▁substitu	-12962
présidente	-12963
▁affronter	-12964
▁bâtiments	-12965
▁gravement	-12966
▁postponed	-12967
▁automobile	-12968
▁identiques	-12969
▁surveiller	-12970
▁mainstreaming	-12971
▁dus	-12972
▁dieu	-12973
▁débl	-12974
aucuns	-12975
avance	-12976
ionale	-12977
ivoire	-12978
▁ramen	-12979
▁shock	-12980
allages	-12981
▁adding	-12982
▁signer	-12983
▁tomber	-12984
▁contrat	-12985
▁élargir	-12986
envisager	-12987
▁favorise	-12988
▁formally	-12989
▁injustif	-12990
▁promesse	-12991
occupation	-12992
▁hautement	-12993
▁partagent	-12994
▁parvenons	-12995
▁inégalités	-12996
▁renational	-12997
▁infractions	-12998
▁investigate	-12999
▁maintenance	-13000
▁disabilities	-13001
▁jun	-13002
abatt	-13003
arela	-13004
▁agré	-13005
▁inco	-13006
▁vies	-13007
avérer	-13008
outine	-13009
▁depth	-13010
▁guide	-13011
▁incur	-13012
visible	-13013
▁pièces	-13014
▁requis	-13015
▁turque	-13016
▁varela	-13017
▁arbitra	-13018
▁explosi	-13019
▁occuper	-13020
▁applique	-13021
▁disposée	-13022
▁essayons	-13023
▁identité	-13024
▁quantity	-13025
▁villages	-13026
▁secondary	-13027
▁attempting	-13028
▁profitable	-13029
▁unemployed	-13030
▁dérogations	-13031
▁harcèlement	-13032
▁occidentale	-13033
▁prosecution	-13034
▁secrétariat	-13035
▁supervisory	-13036
▁achievements	-13037
▁ferroviaires	-13038
▁fundamentally	-13039
▁internationally	-13040
ache	-13041
apse	-13042
chet	-13043
▁20,	-13044
▁37,	-13045
▁800	-13046
▁fan	-13047
▁lul	-13048
▁cele	-13049
▁gulf	-13050
bility	-13051
▁coins	-13052
▁drame	-13053
▁malte	-13054
▁seize	-13055
▁tardi	-13056
ulaires	-13057
élevage	-13058
▁dissim	-13059
▁halieu	-13060
▁purvis	-13061
▁reding	-13062
▁éprouv	-13063
itecture	-13064
▁mémoire	-13065
▁survive	-13066
▁attaquer	-13067
▁autonome	-13068
▁belgrade	-13069
▁chapters	-13070
▁cohérent	-13071
▁describe	-13072
▁entreten	-13073
▁naufrage	-13074
▁producer	-13075
▁slovakia	-13076
▁addresses	-13077
▁rappelons	-13078
▁bilatéraux	-13079
▁manifester	-13080
▁prestations	-13081
9.	-13082
fsp	-13083
▁110	-13084
▁sap	-13085
asant	-13086
▁finn	-13087
▁tolé	-13088
▁vigo	-13089
uteurs	-13090
▁allez	-13091
▁bille	-13092
▁fores	-13093
▁oppon	-13094
▁ecofin	-13095
▁pensée	-13096
▁stream	-13097
▁limitées	-13098
▁socially	-13099
▁superflu	-13100
▁responses	-13101
▁workplace	-13102
▁carburants	-13103
▁détaillées	-13104
▁enthusiasm	-13105
▁intégrante	-13106
▁soutiendra	-13107
▁audiovisual	-13108
▁definitions	-13109
▁intolerable	-13110
▁opportunités	-13111
▁inacceptables	-13112
▁inappropriate	-13113
▁transporteurs	-13114
26	-13115
ivoc	-13116
▁fash	-13117
▁maur	-13118
indemn	-13119
▁bénéf	-13120
▁names	-13121
▁redev	-13122
▁voyez	-13123
iendrai	-13124
zidakis	-13125
▁livres	-13126
▁adressé	-13127
▁exploiter	-13128
▁interprét	-13129
▁protéines	-13130
▁biological	-13131
▁intéressés	-13132
▁réglementer	-13133
▁traitements	-13134
▁incineration	-13135
▁identification	-13136
élor	-13137
▁alt	-13138
/1999	-13139
impos	-13140
uster	-13141
▁pick	-13142
endijk	-13143
▁cruel	-13144
▁fault	-13145
▁fossi	-13146
▁lucas	-13147
▁resse	-13148
opposer	-13149
▁bottom	-13150
▁domain	-13151
▁listes	-13152
intérêts	-13153
▁delayed	-13154
▁fashion	-13155
▁injuste	-13156
intégrité	-13157
objectifs	-13158
▁analyser	-13159
▁consists	-13160
▁incompré	-13161
▁remained	-13162
▁réalisée	-13163
▁specified	-13164
▁sympathie	-13165
▁assurément	-13166
▁harmoniser	-13167
▁hatzidakis	-13168
▁reductions	-13169
▁distorsions	-13170
▁transitoire	-13171
36	-13172
44	-13173
gner	-13174
lant	-13175
▁25,	-13176
▁prô	-13177
acted	-13178
parti	-13179
▁bass	-13180
▁cfsp	-13181
▁osce	-13182
▁riche	-13183
▁vraie	-13184
▁assign	-13185
▁dévast	-13186
▁losing	-13187
▁models	-13188
▁prouvé	-13189
▁wholly	-13190
▁billets	-13191
▁diverse	-13192
▁enabled	-13193
▁stricte	-13194
▁tabling	-13195
▁étrange	-13196
▁appelons	-13197
▁ethnique	-13198
▁sensitiv	-13199
▁shoulder	-13200
▁thoughts	-13201
rehensible	-13202
▁enshrined	-13203
▁lithuania	-13204
▁naissance	-13205
▁harassment	-13206
▁préventive	-13207
▁religieuses	-13208
18	-13209
cend	-13210
chré	-13211
▁20%	-13212
▁déç	-13213
enreg	-13214
orter	-13215
▁cold	-13216
▁fier	-13217
▁lays	-13218
▁subi	-13219
projet	-13220
▁liter	-13221
▁throw	-13222
▁appels	-13223
▁biélor	-13224
▁galice	-13225
▁lendem	-13226
▁préven	-13227
européen	-13228
▁combatt	-13229
▁définie	-13230
▁stating	-13231
▁eurostat	-13232
▁occupied	-13233
▁overlook	-13234
▁partisan	-13235
▁initiated	-13236
▁lagendijk	-13237
▁monopoles	-13238
économiques	-13239
▁accueillir	-13240
▁excellence	-13241
▁foodstuffs	-13242
▁perception	-13243
▁university	-13244
▁conviendrait	-13245
▁défavorisées	-13246
▁parviendrons	-13247
28	-13248
uy	-13249
big	-13250
cir	-13251
feu	-13252
rou	-13253
▁lap	-13254
▁veu	-13255
space	-13256
▁biof	-13257
▁bird	-13258
▁hect	-13259
▁onto	-13260
▁admet	-13261
▁neves	-13262
▁sheep	-13263
aboutir	-13264
▁connue	-13265
▁enjeux	-13266
▁préval	-13267
▁sûreté	-13268
▁thinks	-13269
▁inspire	-13270
▁offrent	-13271
▁souffre	-13272
▁étendue	-13273
istrement	-13274
▁contenus	-13275
▁intégrés	-13276
▁mistakes	-13277
▁platform	-13278
▁postpone	-13279
▁soulevée	-13280
▁bénéficié	-13281
▁certitude	-13282
▁incredibly	-13283
▁convictions	-13284
▁persecution	-13285
▁problematic	-13286
▁contributing	-13287
▁fournisseurs	-13288
▁préservation	-13289
▁démantèlement	-13290
bon	-13291
oks	-13292
ova	-13293
▁wal	-13294
force	-13295
étudi	-13296
▁noci	-13297
▁réit	-13298
▁vols	-13299
▁wynn	-13300
▁brève	-13301
▁donor	-13302
▁magnif	-13303
▁survie	-13304
▁tienne	-13305
ularités	-13306
éralisme	-13307
▁illness	-13308
▁risquer	-13309
▁traitée	-13310
▁externes	-13311
▁attendant	-13312
▁prétendre	-13313
attribution	-13314
▁derogation	-13315
/9	-13316
ji	-13317
tur	-13318
avan	-13319
onte	-13320
▁bio	-13321
▁card	-13322
▁duff	-13323
offrir	-13324
▁incer	-13325
▁infin	-13326
▁bétail	-13327
▁destru	-13328
▁female	-13329
▁hulten	-13330
▁réfère	-13331
▁claimed	-13332
▁mettons	-13333
▁airspace	-13334
▁associés	-13335
▁laissent	-13336
▁supplies	-13337
▁approuvés	-13338
▁chypriote	-13339
▁lendemain	-13340
▁religieux	-13341
▁continuons	-13342
▁directions	-13343
▁déterminée	-13344
▁permission	-13345
▁philosophy	-13346
▁présentant	-13347
▁reflection	-13348
▁constraints	-13349
▁substantielle	-13350
asp	-13351
oue	-13352
▁43	-13353
viet	-13354
▁eat	-13355
▁mir	-13356
olson	-13357
▁asie	-13358
▁ingr	-13359
▁lamb	-13360
▁égal	-13361
onomie	-13362
▁fabri	-13363
▁feder	-13364
▁fiori	-13365
▁flags	-13366
▁procl	-13367
élargir	-13368
▁extrém	-13369
▁portes	-13370
▁fermeté	-13371
▁strikes	-13372
▁acquired	-13373
▁sessions	-13374
▁subsiste	-13375
▁indicates	-13376
▁inevitable	-13377
▁mentionnés	-13378
▁nomination	-13379
▁renforcées	-13380
▁proviennent	-13381
▁élaboration	-13382
▁availability	-13383
▁continuation	-13384
▁coordinating	-13385
▁vérification	-13386
▁constitutions	-13387
jten	-13388
▁202	-13389
▁700	-13390
▁1992	-13391
▁ratt	-13392
▁zero	-13393
▁bears	-13394
▁jeter	-13395
▁negle	-13396
▁salle	-13397
keeping	-13398
▁anders	-13399
▁peines	-13400
▁teneur	-13401
▁galicia	-13402
▁honnête	-13403
▁implies	-13404
▁interpr	-13405
▁rappell	-13406
▁usagers	-13407
▁advanced	-13408
▁collecti	-13409
▁liberals	-13410
▁abolished	-13411
▁nicholson	-13412
▁proximité	-13413
▁slovaquie	-13414
▁unequivoc	-13415
▁coordonnée	-13416
▁correction	-13417
▁centralised	-13418
▁disadvantaged	-13419
70	-13420
ja	-13421
omé	-13422
emed	-13423
erto	-13424
▁squ	-13425
ergue	-13426
incin	-13427
nesty	-13428
olved	-13429
▁luck	-13430
▁cabin	-13431
▁doctr	-13432
▁dériv	-13433
occuper	-13434
ruijten	-13435
▁belder	-13436
▁wished	-13437
▁exergue	-13438
▁lancker	-13439
▁ouverts	-13440
▁préparé	-13441
▁dictator	-13442
▁lituanie	-13443
▁provoqué	-13444
▁susciter	-13445
▁victoire	-13446
▁demeurent	-13447
▁obtaining	-13448
▁motivation	-13449
▁weaknesses	-13450
▁combination	-13451
▁cooperative	-13452
▁extradition	-13453
aga	-13454
back	-13455
erte	-13456
▁doig	-13457
▁laos	-13458
▁tens	-13459
▁brefs	-13460
▁disse	-13461
accepte	-13462
entends	-13463
▁confed	-13464
▁durban	-13465
▁guinée	-13466
▁larges	-13467
▁pêcher	-13468
▁vienne	-13469
▁étendu	-13470
▁couvert	-13471
▁notably	-13472
▁recruit	-13473
▁tentent	-13474
▁inconvén	-13475
▁profondes	-13476
▁industriel	-13477
▁inondations	-13478
▁technically	-13479
▁méditerranéens	-13480
41	-13481
ama	-13482
▁flé	-13483
▁dear	-13484
▁wood	-13485
▁1995,	-13486
▁alter	-13487
▁ramos	-13488
▁utter	-13489
alisées	-13490
entamer	-13491
▁assent	-13492
▁casaca	-13493
▁crédit	-13494
▁gather	-13495
▁papers	-13496
▁sahara	-13497
éléments	-13498
▁déposer	-13499
▁exposed	-13500
▁organic	-13501
▁advisory	-13502
▁collapse	-13503
▁diversif	-13504
▁feasible	-13505
▁resolute	-13506
▁injustice	-13507
▁reforming	-13508
▁simplified	-13509
▁ideological	-13510
▁implication	-13511
▁normalement	-13512
▁prerequisite	-13513
▁administratif	-13514
▁linguistiques	-13515
fa	-13516
alia	-13517
etor	-13518
orge	-13519
▁ced	-13520
▁hyg	-13521
▁voc	-13522
▁137,	-13523
▁cere	-13524
▁elig	-13525
▁lomé	-13526
▁pond	-13527
▁sour	-13528
▁zéro	-13529
▁catal	-13530
▁dissu	-13531
efforts	-13532
▁anyway	-13533
dication	-13534
▁adapted	-13535
▁chambre	-13536
▁combine	-13537
▁machine	-13538
admission	-13539
▁courrier	-13540
▁reporter	-13541
importants	-13542
▁explicite	-13543
▁portuaires	-13544
▁consolidate	-13545
▁threatening	-13546
▁financements	-13547
▁euroméditerrané	-13548
cee	-13549
had	-13550
ulg	-13551
▁hi	-13552
▁ali	-13553
▁nov	-13554
▁films	-13555
▁posed	-13556
énormes	-13557
▁alliés	-13558
▁entour	-13559
▁fixées	-13560
▁refund	-13561
▁served	-13562
▁sooner	-13563
▁surviv	-13564
aviation	-13565
▁ambiguï	-13566
▁banning	-13567
▁déroule	-13568
▁renewed	-13569
▁albanais	-13570
▁findings	-13571
▁intermod	-13572
▁mondiaux	-13573
▁chrétiens	-13574
▁isolation	-13575
▁adjustments	-13576
▁autorisation	-13577
▁encouragement	-13578
▁intéressantes	-13579
▁professionnel	-13580
▁41	-13581
ilit	-13582
▁40%	-13583
▁era	-13584
▁hiv	-13585
/03):	-13586
ouvre	-13587
écart	-13588
▁hugh	-13589
▁jean	-13590
▁noir	-13591
friend	-13592
▁1997.	-13593
▁belle	-13594
▁chile	-13595
▁chris	-13596
▁saine	-13597
ibility	-13598
install	-13599
ranging	-13600
▁allies	-13601
▁disgra	-13602
▁fleets	-13603
▁listed	-13604
▁teleph	-13605
étranger	-13606
▁défendu	-13607
▁fournis	-13608
▁majeurs	-13609
▁patient	-13610
▁vehicle	-13611
▁anywhere	-13612
▁pressing	-13613
▁divisions	-13614
▁déboucher	-13615
▁reception	-13616
▁completion	-13617
▁frustration	-13618
▁philosophie	-13619
▁prohibition	-13620
▁statistical	-13621
▁rémunération	-13622
46	-13623
-08	-13624
ech	-13625
roed	-13626
eding	-13627
▁entr	-13628
▁marg	-13629
▁pity	-13630
mström	-13631
▁coïnc	-13632
▁sympt	-13633
entrepr	-13634
▁connex	-13635
▁numéro	-13636
▁rendue	-13637
▁suisse	-13638
apprécie	-13639
▁profile	-13640
▁communic	-13641
▁estimates	-13642
▁malmström	-13643
▁meanwhile	-13644
▁newspaper	-13645
▁precedent	-13646
▁utilisent	-13647
▁wonderful	-13648
▁compliment	-13649
▁pertinente	-13650
▁sensibilité	-13651
▁overwhelming	-13652
3(	-13653
will	-13654
▁map	-13655
hardt	-13656
▁coff	-13657
▁rejo	-13658
▁soud	-13659
ackson	-13660
umeurs	-13661
▁récol	-13662
▁éparg	-13663
avaient	-13664
▁chanti	-13665
▁albania	-13666
▁arrivée	-13667
▁echelon	-13668
▁passent	-13669
▁reverse	-13670
▁secrecy	-13671
▁côtières	-13672
▁endorsed	-13673
▁focusing	-13674
▁guidance	-13675
▁vigilant	-13676
▁légiférer	-13677
▁matériaux	-13678
▁premature	-13679
▁restaurer	-13680
▁meaningful	-13681
▁personnelles	-13682
▁rétablissement	-13683
iki	-13684
▁99	-13685
icon	-13686
▁naï	-13687
giène	-13688
▁2010	-13689
▁mers	-13690
(1999)	-13691
usions	-13692
▁amené	-13693
▁advers	-13694
▁mother	-13695
▁méndez	-13696
▁rhetor	-13697
▁biocarb	-13698
▁jackson	-13699
▁reposer	-13700
▁schroed	-13701
▁sincere	-13702
▁swiftly	-13703
▁tunisia	-13704
▁invitons	-13705
▁pointing	-13706
avortement	-13707
▁allemands	-13708
▁autoriser	-13709
▁découlent	-13710
▁détention	-13711
▁hazardous	-13712
▁requiring	-13713
▁puissances	-13714
▁supporters	-13715
▁terminerai	-13716
▁étiquetage	-13717
▁poursuivent	-13718
▁secretariat	-13719
▁enseignement	-13720
▁confrontation	-13721
▁irregularities	-13722
▁établissements	-13723
jo	-13724
alba	-13725
tera	-13726
▁dos	-13727
▁haye	-13728
▁advis	-13729
▁nomin	-13730
▁pensé	-13731
▁safer	-13732
▁commod	-13733
▁intens	-13734
▁ruling	-13735
intéress	-13736
tilement	-13737
▁adresse	-13738
▁channel	-13739
▁définit	-13740
▁noticed	-13741
▁orateur	-13742
▁sagesse	-13743
▁verrons	-13744
autonomie	-13745
important	-13746
▁enforced	-13747
▁likewise	-13748
▁normally	-13749
▁assessing	-13750
▁chocolate	-13751
▁incidence	-13752
▁policière	-13753
▁rejecting	-13754
▁souffrance	-13755
▁préadhésion	-13756
▁opérationnel	-13757
66	-13758
▁ku	-13759
abus	-13760
▁pau	-13761
▁tox	-13762
▁biom	-13763
▁mens	-13764
▁toul	-13765
terror	-13766
▁impré	-13767
▁cadres	-13768
▁décrit	-13769
▁hughes	-13770
▁lament	-13771
▁livrer	-13772
habitude	-13773
▁accepts	-13774
▁college	-13775
▁footing	-13776
▁langage	-13777
▁lebanon	-13778
▁préféré	-13779
▁ralenti	-13780
▁station	-13781
▁étiquet	-13782
▁attended	-13783
▁benefici	-13784
▁disgrace	-13785
▁integral	-13786
▁minimale	-13787
▁médecins	-13788
▁soulevés	-13789
▁unsatisf	-13790
▁voulions	-13791
inspection	-13792
▁découlant	-13793
▁familiale	-13794
▁incendies	-13795
▁inférieur	-13796
▁mobiliser	-13797
▁modifiées	-13798
▁preferred	-13799
▁ambitieuse	-13800
▁possession	-13801
▁repression	-13802
▁securities	-13803
▁potentially	-13804
▁conventional	-13805
▁vieillissement	-13806
90	-13807
log	-13808
▁hô	-13809
allo	-13810
care	-13811
elli	-13812
▁19,	-13813
▁cun	-13814
afran	-13815
utors	-13816
▁exec	-13817
▁runs	-13818
▁énum	-13819
assoni	-13820
curity	-13821
ilians	-13822
ocrate	-13823
▁décès	-13824
▁fixée	-13825
▁leçon	-13826
▁subir	-13827
▁turcs	-13828
afranca	-13829
▁church	-13830
▁decoup	-13831
▁joined	-13832
▁mépris	-13833
▁prolif	-13834
▁soviet	-13835
friendly	-13836
helsinki	-13837
▁abordée	-13838
▁directs	-13839
▁détenus	-13840
▁flottes	-13841
▁mexique	-13842
▁délicate	-13843
▁endroits	-13844
▁frassoni	-13845
▁critiquer	-13846
▁reactions	-13847
▁solidaire	-13848
▁autrichien	-13849
▁salafranca	-13850
▁satisfaite	-13851
▁équipements	-13852
intermédiaire	-13853
▁halieutiques	-13854
▁publiquement	-13855
▁tv	-13856
astes	-13857
rompe	-13858
▁horm	-13859
▁molu	-13860
arrass	-13861
interv	-13862
ressed	-13863
▁imbal	-13864
▁ozone	-13865
▁abroad	-13866
▁driven	-13867
▁planet	-13868
▁réunis	-13869
▁slowly	-13870
▁sortes	-13871
▁synerg	-13872
▁trompe	-13873
▁collect	-13874
▁flights	-13875
▁liaison	-13876
▁protein	-13877
▁refusal	-13878
▁autorisé	-13879
▁protégés	-13880
▁recourse	-13881
▁apologise	-13882
▁consacrés	-13883
▁parallèle	-13884
▁possèdent	-13885
▁proposent	-13886
▁faiblesses	-13887
▁fourniture	-13888
▁poursuites	-13889
▁appointment	-13890
▁controlling	-13891
▁définitions	-13892
amo	-13893
eec	-13894
▁wu	-13895
eneg	-13896
inen	-13897
turn	-13898
▁fré	-13899
▁rav	-13900
▁tor	-13901
isembl	-13902
▁arabe	-13903
▁croit	-13904
▁empty	-13905
▁illic	-13906
▁retir	-13907
▁écart	-13908
informer	-13909
▁closing	-13910
▁devoirs	-13911
▁infecti	-13912
▁bâtiment	-13913
▁persuade	-13914
▁reaffirm	-13915
▁sûrement	-13916
▁displaced	-13917
▁incorrect	-13918
▁manoeuvre	-13919
▁mentionne	-13920
▁prévoient	-13921
▁tragiques	-13922
▁organising	-13923
▁religieuse	-13924
▁candidature	-13925
▁convenience	-13926
▁établissant	-13927
▁formellement	-13928
55	-13929
eni	-13930
vié	-13931
yers	-13932
▁cir	-13933
asses	-13934
ayann	-13935
▁avoc	-13936
▁enem	-13937
émique	-13938
▁cosmé	-13939
▁games	-13940
▁helps	-13941
ukraine	-13942
▁corrig	-13943
▁seemed	-13944
▁acquire	-13945
▁donnons	-13946
▁dépassé	-13947
▁endroit	-13948
▁heavily	-13949
▁hygiene	-13950
▁parlent	-13951
▁signals	-13952
▁summary	-13953
▁terreur	-13954
▁tribune	-13955
▁venture	-13956
ayannakis	-13957
▁semences	-13958
▁souvenir	-13959
▁synthèse	-13960
▁touchant	-13961
▁civilians	-13962
▁compétent	-13963
▁identique	-13964
▁honorables	-13965
▁cosmétiques	-13966
▁enregistrés	-13967
▁parviennent	-13968
▁papayannakis	-13969
▁reproduction	-13970
▁certification	-13971
▁industrielles	-13972
law	-13973
tio	-13974
éma	-13975
chée	-13976
pper	-13977
aband	-13978
ourge	-13979
uries	-13980
aisons	-13981
atisme	-13982
▁doive	-13983
▁délit	-13984
▁revis	-13985
uranium	-13986
▁caught	-13987
▁laying	-13988
▁offence	-13989
▁résolue	-13990
activités	-13991
▁adoptant	-13992
▁fournies	-13993
▁teachers	-13994
▁components	-13995
▁inventions	-13996
▁punishment	-13997
▁unsatisfactory	-13998
jac	-13999
île	-14000
diff	-14001
ppän	-14002
with	-14003
▁gré	-14004
▁mél	-14005
▁rib	-14006
▁édu	-14007
▁calm	-14008
▁hide	-14009
▁kill	-14010
▁magh	-14011
▁pare	-14012
▁quan	-14013
justif	-14014
▁acade	-14015
▁annan	-14016
▁cunha	-14017
▁forts	-14018
▁misle	-14019
▁rübig	-14020
▁spati	-14021
▁towns	-14022
royable	-14023
▁déplor	-14024
▁instit	-14025
▁seppän	-14026
▁évoque	-14027
▁actives	-14028
▁alleged	-14029
▁confine	-14030
▁donnant	-14031
▁fondées	-14032
▁handled	-14033
▁légales	-14034
▁opposer	-14035
▁prudent	-14036
interdire	-14037
▁certific	-14038
▁couverts	-14039
▁publicly	-14040
▁recorded	-14041
▁sciences	-14042
democratic	-14043
productive	-14044
▁impulsion	-14045
▁nutrition	-14046
▁utilisant	-14047
▁violences	-14048
▁formations	-14049
▁formidable	-14050
▁formulated	-14051
▁pluralisme	-14052
▁productivité	-14053
▁raisonnables	-14054
▁inévitablement	-14055
▁multinationals	-14056
éb	-14057
hus	-14058
dian	-14059
▁gets	-14060
▁iron	-14061
avions	-14062
robles	-14063
stabil	-14064
▁admis	-14065
▁affér	-14066
▁chôme	-14067
▁cuban	-14068
▁homog	-14069
▁noire	-14070
▁nôtre	-14071
▁excess	-14072
▁exclus	-14073
▁floods	-14074
▁imagin	-14075
▁moldav	-14076
▁topics	-14077
▁adaptée	-14078
▁perturb	-14079
▁quarter	-14080
▁stopped	-14081
▁strange	-14082
▁tourner	-14083
▁albanian	-14084
▁chocolat	-14085
▁doctrine	-14086
▁genocide	-14087
▁removing	-14088
▁seppänen	-14089
▁ultimate	-14090
▁accordées	-14091
▁mauvaises	-14092
▁municipal	-14093
lementation	-14094
▁emphasises	-14095
▁optimistic	-14096
▁phénomènes	-14097
▁distinguish	-14098
▁propagation	-14099
▁automatiquement	-14100
▁kn	-14101
asts	-14102
lent	-14103
▁gig	-14104
▁sén	-14105
trées	-14106
▁rêve	-14107
▁thro	-14108
▁unie	-14109
exiger	-14110
quants	-14111
▁mitch	-14112
▁plaît	-14113
▁smugg	-14114
▁celebr	-14115
▁hoolig	-14116
▁remedy	-14117
▁superp	-14118
▁discour	-14119
▁jacques	-14120
▁kurdish	-14121
▁subsidy	-14122
▁tunisie	-14123
accélérer	-14124
▁biofuels	-14125
▁envisagé	-14126
▁examinée	-14127
▁feelings	-14128
▁octroyer	-14129
▁complaint	-14130
▁offensive	-14131
▁viabilité	-14132
▁persistent	-14133
▁références	-14134
▁integrating	-14135
▁pornography	-14136
▁recognising	-14137
▁partnerships	-14138
▁productivity	-14139
▁biocarburants	-14140
▁disappointing	-14141
▁documentation	-14142
▁propriétaires	-14143
[...]
