<pad>	0
<unk>	0
<s>	0
</s>	0
▁t	-0
on	-1
▁d	-2
es	-3
en	-4
▁a	-5
▁p	-6
▁c	-7
▁l	-8
in	-9
▁th	-10
re	-11
▁s	-12
ti	-13
is	-14
er	-15
ou	-16
▁the	-17
an	-18
▁m	-19
ent	-20
it	-21
▁de	-22
or	-23
▁e	-24
qu	-25
▁n	-26
tion	-27
▁w	-28
▁f	-29
ro	-30
ar	-31
le	-32
at	-33
▁b	-34
▁o	-35
▁in	-36
om	-37
al	-38
ment	-39
un	-40
▁qu	-41
si	-42
▁la	-43
▁to	-44
il	-45
ur	-46
▁r	-47
▁of	-48
▁an	-49
ve	-50
te	-51
▁le	-52
ic	-53
ation	-54
▁h	-55
▁con	-56
as	-57
▁com	-58
us	-59
▁re	-60
ing	-61
▁un	-62
▁and	-63
our	-64
el	-65
▁pro	-66
▁v	-67
▁en	-68
▁i	-69
ce	-70
▁et	-71
ra	-72
▁les	-73
et	-74
▁par	-75
ed	-76
▁à	-77
ous	-78
▁des	-79
▁comm	-80
▁pr	-81
▁is	-82
▁g	-83
pe	-84
▁j	-85
ol	-86
ir	-87
est	-88
▁be	-89
ut	-90
▁on	-91
▁que	-92
ort	-93
▁that	-94
os	-95
ant	-96
sion	-97
▁é	-98
▁eu	-99
ot	-100
me	-101
pp	-102
ans	-103
▁wh	-104
ci	-105
ch	-106
ons	-107
mp	-108
▁for	-109
ly	-110
▁we	-111
▁ma	-112
▁euro	-113
ire	-114
id	-115
ul	-116
tr	-117
▁dé	-118
▁au	-119
▁it	-120
▁nous	-121
ct	-122
▁ne	-123
▁this	-124
ig	-125
▁pour	-126
▁fa	-127
▁al	-128
▁su	-129
ter	-130
▁se	-131
▁commis	-132
és	-133
▁as	-134
ble	-135
▁ex	-136
▁du	-137
ta	-138
end	-139
ess	-140
▁ce	-141
ie	-142
ers	-143
ff	-144
▁dans	-145
que	-146
▁commission	-147
▁me	-148
ion	-149
▁not	-150
▁ha	-151
ne	-152
lement	-153
▁est	-154
se	-155
▁je	-156
oul	-157
out	-158
iti	-159
▁pl	-160
▁une	-161
▁are	-162
▁qui	-163
op	-164
de	-165
▁pas	-166
ver	-167
ure	-168
ér	-169
▁il	-170
ay	-171
ag	-172
mb	-173
ill	-174
ont	-175
▁y	-176
▁ra	-177
▁ré	-178
ith	-179
▁ch	-180
ate	-181
ow	-182
ould	-183
▁sur	-184
▁europe	-185
▁with	-186
▁ac	-187
li	-188
▁so	-189
ich	-190
ité	-191
ux	-192
▁mo	-193
▁have	-194
▁do	-195
res	-196
tre	-197
tions	-198
▁imp	-199
▁which	-200
▁pré	-201
pé	-202
tive	-203
ue	-204
▁tr	-205
oun	-206
bl	-207
▁pol	-208
and	-209
ations	-210
▁at	-211
im	-212
▁mon	-213
di	-214
tat	-215
▁res	-216
ke	-217
▁prop	-218
▁pe	-219
▁sa	-220
sid	-221
ée	-222
ence	-223
ord	-224
st	-225
ac	-226
▁sh	-227
ity	-228
pr	-229
th	-230
ement	-231
▁conc	-232
ens	-233
iv	-234
▁po	-235
▁dis	-236
ère	-237
▁am	-238
▁cet	-239
▁will	-240
ad	-241
ain	-242
▁cons	-243
▁europé	-244
▁mr	-245
pport	-246
▁ag	-247
mes	-248
int	-249
▁european	-250
▁by	-251
00	-252
ance	-253
du	-254
▁tra	-255
▁av	-256
▁pres	-257
la	-258
urs	-259
▁li	-260
▁plus	-261
▁has	-262
▁européen	-263
té	-264
tic	-265
▁memb	-266
▁gr	-267
ore	-268
ust	-269
▁1	-270
▁app	-271
▁ad	-272
igh	-273
▁-	-274
oc	-275
ven	-276
able	-277
▁cette	-278
▁there	-279
port	-280
▁all	-281
▁coun	-282
▁or	-283
▁inter	-284
am	-285
vel	-286
les	-287
▁comp	-288
con	-289
▁ser	-290
for	-291
ard	-292
ud	-293
ction	-294
ments	-295
ts	-296
aire	-297
ted	-298
ution	-299
▁politi	-300
ies	-301
ès	-302
elle	-303
um	-304
▁présid	-305
ques	-306
▁fin	-307
sie	-308
ise	-309
▁ques	-310
cess	-311
ge	-312
▁dire	-313
▁di	-314
au	-315
so	-316
ces	-317
ament	-318
▁co	-319
▁import	-320
ern	-321
▁si	-322
▁presid	-323
▁ab	-324
tit	-325
▁would	-326
▁commun	-327
ient	-328
▁mais	-329
tif	-330
rom	-331
tain	-332
ait	-333
▁int	-334
▁but	-335
▁can	-336
▁cr	-337
▁ta	-338
▁aux	-339
▁he	-340
ique	-341
cial	-342
être	-343
▁sont	-344
ien	-345
ées	-346
▁président	-347
ves	-348
bil	-349
▁eff	-350
▁ent	-351
▁reg	-352
▁pre	-353
▁dev	-354
▁u	-355
▁should	-356
oir	-357
ist	-358
use	-359
ays	-360
▁propos	-361
▁aut	-362
▁must	-363
ég	-364
▁also	-365
▁ave	-366
▁president	-367
▁2	-368
▁our	-369
▁man	-370
▁mar	-371
▁pos	-372
▁cont	-373
ctive	-374
▁no	-375
▁ins	-376
▁tout	-377
ale	-378
▁union	-379
▁pu	-380
▁st	-381
▁som	-382
ures	-383
ions	-384
ite	-385
▁don	-386
sieur	-387
▁monsieur	-388
▁dem	-389
▁per	-390
cis	-391
ors	-392
je	-393
▁from	-394
▁te	-395
lo	-396
▁vo	-397
▁k	-398
▁parlement	-399
▁avec	-400
▁point	-401
▁rapport	-402
▁been	-403
▁you	-404
▁ces	-405
liament	-406
sition	-407
age	-408
▁str	-409
form	-410
▁question	-411
▁européenne	-412
▁go	-413
ult	-414
ign	-415
ally	-416
air	-417
▁report	-418
com	-419
▁prog	-420
▁cer	-421
▁ob	-422
fic	-423
▁être	-424
og	-425
ier	-426
▁parliament	-427
une	-428
ière	-429
▁wor	-430
▁important	-431
▁was	-432
▁trans	-433
ese	-434
▁sou	-435
ose	-436
▁fait	-437
▁ou	-438
▁ar	-439
▁cel	-440
ais	-441
▁diff	-442
▁ver	-443
all	-444
ish	-445
aut	-446
ond	-447
aux	-448
▁certain	-449
▁vous	-450
od	-451
ong	-452
▁stat	-453
▁ca	-454
▁part	-455
cl	-456
its	-457
▁été	-458
conom	-459
▁acc	-460
▁amend	-461
▁more	-462
oup	-463
▁pays	-464
▁these	-465
ms	-466
▁its	-467
ème	-468
▁état	-469
cep	-470
▁ég	-471
▁conf	-472
ine	-473
▁us	-474
ational	-475
alement	-476
cil	-477
king	-478
ary	-479
▁conse	-480
ther	-481
ace	-482
▁ont	-483
ive	-484
ight	-485
ca	-486
▁parti	-487
▁comme	-488
▁el	-489
ime	-490
ice	-491
velop	-492
▁cour	-493
ussi	-494
▁they	-495
▁mes	-496
▁(	-497
▁countr	-498
orte	-499
ib	-500
▁produ	-501
▁what	-502
▁concern	-503
ême	-504
reat	-505
pect	-506
▁like	-507
▁pers	-508
▁sit	-509
▁ter	-510
fin	-511
par	-512
gh	-513
aires	-514
ues	-515
ésent	-516
ui	-517
▁col	-518
ear	-519
▁politique	-520
én	-521
èg	-522
sible	-523
va	-524
▁if	-525
▁cas	-526
ins	-527
ang	-528
▁out	-529
isation	-530
ten	-531
ell	-532
ticul	-533
▁entre	-534
▁how	-535
▁need	-536
union	-537
▁tou	-538
▁sy	-539
ouv	-540
cip	-541
▁particul	-542
▁dro	-543
▁op	-544
▁conseil	-545
▁disc	-546
▁exp	-547
fore	-548
▁aussi	-549
che	-550
▁states	-551
▁my	-552
▁min	-553
lic	-554
ram	-555
▁rem	-556
her	-557
99	-558
uation	-559
▁council	-560
olution	-561
▁member	-562
get	-563
▁bien	-564
▁rés	-565
éd	-566
▁very	-567
▁sub	-568
▁états	-569
▁fr	-570
▁également	-571
til	-572
▁than	-573
▁contr	-574
▁car	-575
jet	-576
▁one	-577
nement	-578
▁their	-579
av	-580
▁cela	-581
▁who	-582
▁fe	-583
▁notre	-584
▁program	-585
▁nom	-586
▁rapp	-587
ide	-588
ants	-589
▁prin	-590
▁up	-591
▁rég	-592
ai	-593
ense	-594
vir	-595
ati	-596
ande	-597
▁propo	-598
▁resp	-599
▁ind	-600
onn	-601
▁commit	-602
▁polic	-603
ois	-604
ités	-605
▁faire	-606
enti	-607
bat	-608
▁bud	-609
jour	-610
▁membres	-611
ough	-612
ille	-613
titu	-614
met	-615
▁peut	-616
min	-617
▁très	-618
viron	-619
ric	-620
▁cl	-621
▁dép	-622
▁spe	-623
▁doit	-624
▁situation	-625
▁bas	-626
▁:	-627
vent	-628
▁other	-629
cy	-630
▁consid	-631
▁br	-632
▁intern	-633
▁enc	-634
els	-635
▁iss	-636
▁nou	-637
▁jus	-638
bre	-639
cu	-640
▁directive	-641
ely	-642
▁und	-643
▁about	-644
oud	-645
▁es	-646
arg	-647
iter	-648
▁même	-649
▁?	-650
▁peop	-651
tru	-652
▁trava	-653
▁son	-654
vis	-655
▁tous	-656
▁"	-657
▁appro	-658
000	-659
▁leg	-660
▁social	-661
▁avons	-662
endre	-663
rais	-664
gan	-665
ouver	-666
ex	-667
ced	-668
▁act	-669
▁non	-670
▁people	-671
▁year	-672
▁aff	-673
▁only	-674
▁now	-675
blic	-676
eu	-677
oi	-678
ante	-679
red	-680
▁soci	-681
▁deux	-682
▁adop	-683
sions	-684
▁any	-685
▁countries	-686
▁work	-687
▁time	-688
▁fir	-689
▁ass	-690
▁bet	-691
bles	-692
▁rec	-693
mple	-694
▁agre	-695
▁finan	-696
ieve	-697
▁proposal	-698
▁présent	-699
▁probl	-700
▁rel	-701
▁vot	-702
cur	-703
ia	-704
if	-705
ated	-706
▁policy	-707
▁new	-708
▁some	-709
▁group	-710
cte	-711
▁elle	-712
▁leur	-713
▁hum	-714
rois	-715
ap	-716
ind	-717
lé	-718
▁bel	-719
cal	-720
▁emp	-721
▁therefore	-722
▁né	-723
ises	-724
▁support	-725
ici	-726
▁lors	-727
lear	-728
▁beca	-729
euro	-730
▁rapporte	-731
▁voud	-732
ost	-733
▁public	-734
▁again	-735
▁ref	-736
▁donc	-737
▁inform	-738
ocra	-739
▁budget	-740
▁process	-741
oy	-742
▁because	-743
elles	-744
▁long	-745
rait	-746
ner	-747
tis	-748
ious	-749
▁mat	-750
ever	-751
und	-752
we	-753
▁vote	-754
ative	-755
▁obje	-756
▁first	-757
▁év	-758
▁mad	-759
ements	-760
▁possible	-761
▁develop	-762
ities	-763
▁nos	-764
▁rep	-765
▁coop	-766
▁environ	-767
ustr	-768
rer	-769
▁sé	-770
▁prote	-771
▁committe	-772
bilité	-773
ents	-774
▁inc	-775
▁take	-776
▁see	-777
▁sta	-778
iques	-779
▁voudrais	-780
▁ann	-781
▁men	-782
▁accord	-783
ink	-784
ach	-785
▁make	-786
▁peu	-787
▁organ	-788
▁vie	-789
▁disp	-790
▁199	-791
▁serv	-792
▁however	-793
▁when	-794
▁faut	-795
cision	-796
▁ro	-797
▁pouv	-798
tière	-799
ob	-800
▁fact	-801
ulation	-802
▁committee	-803
▁dom	-804
bility	-805
▁princip	-806
vention	-807
▁sign	-808
ab	-809
▁rapporteur	-810
▁contin	-811
▁national	-812
▁into	-813
▁fond	-814
▁inv	-815
ères	-816
▁proble	-817
▁toute	-818
▁form	-819
pend	-820
ights	-821
ks	-822
▁clear	-823
▁nombre	-824
gr	-825
▁prem	-826
▁devons	-827
aine	-828
▁proposition	-829
▁encore	-830
▁place	-831
alité	-832
▁débat	-833
▁such	-834
order	-835
▁effe	-836
ress	-837
▁being	-838
▁programme	-839
▁contre	-840
érie	-841
he	-842
chn	-843
iss	-844
now	-845
tes	-846
▁accep	-847
▁econom	-848
isse	-849
▁rép	-850
céd	-851
▁deb	-852
▁discus	-853
act	-854
▁3	-855
app	-856
▁rais	-857
▁under	-858
▁rights	-859
vern	-860
▁lib	-861
▁respect	-862
▁actu	-863
tives	-864
▁commiss	-865
acc	-866
mber	-867
▁nécess	-868
▁droits	-869
▁march	-870
ri	-871
▁met	-872
▁nu	-873
alis	-874
▁position	-875
mm	-876
day	-877
▁say	-878
▁way	-879
▁ses	-880
▁gen	-881
▁pri	-882
ween	-883
▁between	-884
▁éta	-885
▁cla	-886
olog	-887
ug	-888
▁soit	-889
▁règ	-890
▁lég	-891
▁communaut	-892
▁made	-893
▁dont	-894
▁fund	-895
▁ren	-896
▁initi	-897
lu	-898
▁commissioner	-899
▁mark	-900
▁quel	-901
▁human	-902
▁particular	-903
▁those	-904
▁commissaire	-905
ting	-906
imin	-907
ound	-908
▁demand	-909
ences	-910
urr	-911
▁were	-912
▁dém	-913
ency	-914
cer	-915
▁tur	-916
▁personn	-917
▁ve	-918
jourd	-919
▁vis	-920
▁économ	-921
▁far	-922
▁travail	-923
ards	-924
▁over	-925
▁debate	-926
▁great	-927
▁permet	-928
▁gu	-929
▁matière	-930
cid	-931
▁coll	-932
▁know	-933
eration	-934
olu	-935
▁just	-936
▁issue	-937
ivent	-938
▁requ	-939
▁fut	-940
ctif	-941
▁ess	-942
▁right	-943
▁questions	-944
mps	-945
ices	-946
▁repr	-947
one	-948
▁sans	-949
▁political	-950
mis	-951
ération	-952
▁state	-953
led	-954
▁mill	-955
are	-956
isl	-957
ree	-958
▁cent	-959
ales	-960
▁protection	-961
mble	-962
xt	-963
▁many	-964
▁ain	-965
▁sp	-966
▁them	-967
ject	-968
▁techn	-969
titution	-970
▁ainsi	-971
ame	-972
éta	-973
iste	-974
ôle	-975
▁af	-976
▁ever	-977
▁market	-978
ken	-979
oupe	-980
▁char	-981
▁collèg	-982
▁prov	-983
▁port	-984
sitions	-985
▁too	-986
▁aujourd	-987
tiv	-988
▁déj	-989
▁déjà	-990
▁concer	-991
▁dern	-992
▁contrib	-993
auc	-994
erci	-995
▁tw	-996
eral	-997
équ	-998
▁aid	-999
itoy	-1000
ctions	-1001
▁even	-1002
ural	-1003
ip	-1004
▁rest	-1005
▁suis	-1006
▁supp	-1007
▁govern	-1008
▁ris	-1009
veloppe	-1010
▁maj	-1011
anti	-1012
europe	-1013
▁condi	-1014
▁ens	-1015
▁does	-1016
ved	-1017
▁respons	-1018
ful	-1019
ste	-1020
wn	-1021
▁cap	-1022
▁major	-1023
▁sav	-1024
▁believe	-1025
▁think	-1026
▁vi	-1027
ass	-1028
ange	-1029
ld	-1030
onne	-1031
▁pense	-1032
▁fra	-1033
▁nouvel	-1034
/2	-1035
▁meas	-1036
read	-1037
▁nat	-1038
ances	-1039
▁here	-1040
come	-1041
▁groupe	-1042
▁pra	-1043
ope	-1044
▁incl	-1045
▁développe	-1046
ann	-1047
▁mrs	-1048
▁emplo	-1049
▁community	-1050
uct	-1051
adre	-1052
▁regard	-1053
▁institu	-1054
▁matter	-1055
ellement	-1056
▁jour	-1057
▁syste	-1058
not	-1059
▁prof	-1060
ulture	-1061
oin	-1062
▁citoy	-1063
▁cor	-1064
venir	-1065
▁sommes	-1066
iment	-1067
ast	-1068
cr	-1069
▁concerne	-1070
▁against	-1071
▁cannot	-1072
▁transport	-1073
▁within	-1074
ils	-1075
▁agric	-1076
ere	-1077
▁aur	-1078
▁doivent	-1079
▁mal	-1080
▁action	-1081
islation	-1082
▁well	-1083
enir	-1084
èmes	-1085
▁seu	-1086
bli	-1087
▁4	-1088
▁want	-1089
▁secon	-1090
tique	-1091
mo	-1092
▁200	-1093
▁autres	-1094
▁environment	-1095
▁pass	-1096
▁institutions	-1097
larg	-1098
▁organis	-1099
▁every	-1100
▁where	-1101
▁mesures	-1102
▁sera	-1103
▁industr	-1104
curité	-1105
▁développement	-1106
fe	-1107
cher	-1108
ase	-1109
▁two	-1110
5-	-1111
erg	-1112
▁future	-1113
hui	-1114
▁view	-1115
▁gén	-1116
▁manière	-1117
▁could	-1118
▁economic	-1119
ième	-1120
▁order	-1121
▁essenti	-1122
ety	-1123
▁end	-1124
▁gouver	-1125
▁sécurité	-1126
▁years	-1127
ov	-1128
ied	-1129
era	-1130
▁may	-1131
▁same	-1132
▁madame	-1133
oth	-1134
▁problème	-1135
rodu	-1136
▁procéd	-1137
▁droit	-1138
▁grand	-1139
▁fav	-1140
▁high	-1141
▁syst	-1142
▁dur	-1143
ating	-1144
▁giv	-1145
▁souh	-1146
▁lim	-1147
▁expr	-1148
▁mu	-1149
▁dit	-1150
ical	-1151
▁mis	-1152
▁mod	-1153
dies	-1154
▁nive	-1155
▁où	-1156
▁development	-1157
ication	-1158
▁amendments	-1159
ateurs	-1160
▁exe	-1161
éra	-1162
▁prior	-1163
▁second	-1164
▁différ	-1165
▁information	-1166
▁today	-1167
▁pa	-1168
▁last	-1169
▁good	-1170
▁course	-1171
man	-1172
▁tant	-1173
▁ét	-1174
ente	-1175
▁set	-1176
▁present	-1177
▁had	-1178
▁why	-1179
vre	-1180
▁5	-1181
ready	-1182
▁already	-1183
▁international	-1184
arge	-1185
▁members	-1186
▁crois	-1187
ving	-1188
ét	-1189
ack	-1190
▁points	-1191
▁mme	-1192
ticle	-1193
iers	-1194
▁services	-1195
go	-1196
cted	-1197
▁cadre	-1198
▁most	-1199
▁avant	-1200
itiz	-1201
▁citiz	-1202
▁sol	-1203
ph	-1204
till	-1205
ings	-1206
▁measures	-1207
▁much	-1208
▁then	-1209
▁sin	-1210
▁docu	-1211
▁use	-1212
tice	-1213
sive	-1214
comm	-1215
ory	-1216
▁struct	-1217
▁ils	-1218
ources	-1219
▁citoyens	-1220
elf	-1221
ak	-1222
▁marché	-1223
▁dou	-1224
▁hope	-1225
▁your	-1226
près	-1227
▁ans	-1228
▁incre	-1229
▁diffic	-1230
uses	-1231
ates	-1232
quoi	-1233
▁nouve	-1234
▁plan	-1235
▁souhait	-1236
▁still	-1237
▁simp	-1238
▁pourquoi	-1239
▁temps	-1240
▁gar	-1241
quer	-1242
▁oc	-1243
▁country	-1244
▁fi	-1245
▁contra	-1246
▁effort	-1247
▁suff	-1248
▁off	-1249
▁cha	-1250
▁conv	-1251
▁ban	-1252
▁put	-1253
▁level	-1254
lem	-1255
illeurs	-1256
ables	-1257
▁cré	-1258
▁afin	-1259
▁sujet	-1260
ual	-1261
▁ext	-1262
ently	-1263
ieu	-1264
nes	-1265
▁taken	-1266
▁minis	-1267
▁conditions	-1268
▁effet	-1269
eng	-1270
wor	-1271
▁abs	-1272
▁leurs	-1273
▁respon	-1274
▁déput	-1275
▁ach	-1276
▁mont	-1277
▁said	-1278
▁mé	-1279
uis	-1280
▁certains	-1281
▁rev	-1282
ari	-1283
▁dra	-1284
▁nor	-1285
ctives	-1286
arm	-1287
▁eng	-1288
oll	-1289
▁auc	-1290
▁main	-1291
▁posi	-1292
▁thank	-1293
▁dep	-1294
▁niveau	-1295
▁sein	-1296
▁che	-1297
uer	-1298
▁objectif	-1299
▁own	-1300
▁opin	-1301
▁treat	-1302
▁common	-1303
▁imm	-1304
ats	-1305
▁déf	-1306
▁sout	-1307
ited	-1308
▁suc	-1309
▁souti	-1310
▁domaine	-1311
▁citizens	-1312
▁possi	-1313
▁pop	-1314
▁differ	-1315
▁hel	-1316
▁both	-1317
cts	-1318
▁effic	-1319
▁his	-1320
▁collègues	-1321
hing	-1322
▁politiques	-1323
▁democra	-1324
▁ur	-1325
ler	-1326
▁case	-1327
▁thr	-1328
aucoup	-1329
▁personnes	-1330
▁system	-1331
▁beaucoup	-1332
▁implement	-1333
▁beh	-1334
▁compr	-1335
▁toutes	-1336
land	-1337
▁fon	-1338
▁fur	-1339
▁représent	-1340
▁ful	-1341
▁grande	-1342
▁interest	-1343
▁fois	-1344
▁vue	-1345
ile	-1346
imp	-1347
fois	-1348
ality	-1349
▁let	-1350
▁rap	-1351
▁problem	-1352
rop	-1353
▁exa	-1354
▁démocra	-1355
▁conclu	-1356
▁réf	-1357
agit	-1358
▁amendements	-1359
éli	-1360
▁entrepr	-1361
▁agreement	-1362
▁reas	-1363
▁éle	-1364
ial	-1365
▁remerci	-1366
ser	-1367
▁jur	-1368
▁fer	-1369
▁demande	-1370
▁curr	-1371
ild	-1372
▁through	-1373
▁add	-1374
▁area	-1375
▁parce	-1376
ules	-1377
▁able	-1378
▁secte	-1379
tention	-1380
▁moy	-1381
▁cooperation	-1382
▁ph	-1383
▁ret	-1384
aines	-1385
blish	-1386
▁programmes	-1387
▁further	-1388
dition	-1389
clar	-1390
▁mom	-1391
▁indi	-1392
▁autre	-1393
▁employ	-1394
▁lieu	-1395
▁moins	-1396
▁résolution	-1397
sieurs	-1398
mbl	-1399
▁deal	-1400
autres	-1401
▁chang	-1402
▁mention	-1403
▁trois	-1404
▁exist	-1405
▁mil	-1406
tern	-1407
▁inf	-1408
▁asse	-1409
▁voul	-1410
▁nég	-1411
▁consider	-1412
atives	-1413
▁legal	-1414
▁règlement	-1415
tement	-1416
▁ask	-1417
▁proced	-1418
cisions	-1419
▁esp	-1420
▁intér	-1421
▁rela	-1422
▁world	-1423
row	-1424
ctor	-1425
▁projet	-1426
▁sc	-1427
▁val	-1428
▁avoir	-1429
lex	-1430
alth	-1431
▁before	-1432
ouve	-1433
▁anim	-1434
▁2000	-1435
▁number	-1436
pportun	-1437
▁med	-1438
▁ceux	-1439
5-0	-1440
▁financial	-1441
▁invol	-1442
▁savoir	-1443
▁sus	-1444
▁processus	-1445
esp	-1446
▁government	-1447
▁speci	-1448
▁inde	-1449
▁présidente	-1450
▁moment	-1451
▁clos	-1452
▁maint	-1453
▁financi	-1454
▁nice	-1455
▁conséqu	-1456
▁donn	-1457
ret	-1458
jours	-1459
hor	-1460
▁problèmes	-1461
▁toujours	-1462
▁transpar	-1463
action	-1464
▁;	-1465
ront	-1466
▁seulement	-1467
▁pen	-1468
ordin	-1469
▁raison	-1470
▁pouvoir	-1471
▁example	-1472
▁resolution	-1473
▁importance	-1474
▁première	-1475
▁z	-1476
▁particip	-1477
▁since	-1478
elon	-1479
cipe	-1480
▁law	-1481
▁necess	-1482
éri	-1483
amment	-1484
omm	-1485
▁propositions	-1486
▁lo	-1487
▁bal	-1488
ouse	-1489
alf	-1490
ément	-1491
xte	-1492
▁aspect	-1493
▁bes	-1494
▁économique	-1495
▁opinion	-1496
▁amendment	-1497
▁convention	-1498
▁nature	-1499
ages	-1500
érence	-1501
▁compte	-1502
▁contro	-1503
▁conn	-1504
▁base	-1505
▁opportun	-1506
▁repres	-1507
work	-1508
omen	-1509
▁id	-1510
▁région	-1511
▁gouvernement	-1512
lication	-1513
ene	-1514
ivers	-1515
▁ple	-1516
ck	-1517
▁sous	-1518
▁jurid	-1519
blig	-1520
▁four	-1521
▁impro	-1522
ether	-1523
▁partie	-1524
fication	-1525
▁'	-1526
ablish	-1527
vision	-1528
▁6	-1529
▁recon	-1530
ré	-1531
▁given	-1532
▁activ	-1533
▁author	-1534
ines	-1535
▁exc	-1536
▁arr	-1537
alisation	-1538
tim	-1539
▁viol	-1540
ute	-1541
▁problems	-1542
▁ensure	-1543
▁ir	-1544
▁ici	-1545
▁give	-1546
▁introdu	-1547
▁effective	-1548
▁health	-1549
▁système	-1550
lab	-1551
aiss	-1552
▁commune	-1553
table	-1554
▁appli	-1555
▁initiative	-1556
▁means	-1557
oire	-1558
▁principe	-1559
▁ke	-1560
▁aw	-1561
▁après	-1562
▁achieve	-1563
▁autor	-1564
issement	-1565
▁without	-1566
▁fo	-1567
aî	-1568
/2000	-1569
▁soul	-1570
rit	-1571
▁att	-1572
vid	-1573
êt	-1574
▁stand	-1575
ition	-1576
▁instru	-1577
▁comment	-1578
ollow	-1579
▁issues	-1580
▁serait	-1581
▁européens	-1582
▁hom	-1583
▁establish	-1584
enant	-1585
▁décision	-1586
dic	-1587
▁mettre	-1588
▁house	-1589
▁follow	-1590
▁fé	-1591
agement	-1592
▁traité	-1593
ude	-1594
▁fem	-1595
▁lead	-1596
▁wish	-1597
▁exemple	-1598
pri	-1599
▁util	-1600
▁suiv	-1601
ital	-1602
▁pouvons	-1603
▁compe	-1604
▁gra	-1605
asi	-1606
▁consomm	-1607
▁opp	-1608
ately	-1609
▁progress	-1610
▁.	-1611
▁depuis	-1612
ft	-1613
entif	-1614
▁coopération	-1615
own	-1616
vers	-1617
▁reform	-1618
▁bi	-1619
▁contrôle	-1620
▁relations	-1621
▁decision	-1622
▁efforts	-1623
▁fonction	-1624
▁criti	-1625
▁cours	-1626
▁difficult	-1627
▁region	-1628
▁ste	-1629
amental	-1630
lément	-1631
▁alors	-1632
alog	-1633
oration	-1634
▁cre	-1635
▁prév	-1636
▁sens	-1637
mblée	-1638
quelle	-1639
▁control	-1640
▁prendre	-1641
▁laquelle	-1642
irc	-1643
▁concernant	-1644
entes	-1645
▁tax	-1646
▁mise	-1647
çon	-1648
▁necessary	-1649
▁là	-1650
▁allow	-1651
▁députés	-1652
▁refer	-1653
▁compé	-1654
▁areas	-1655
▁women	-1656
▁equ	-1657
▁cand	-1658
▁concerned	-1659
iser	-1660
▁claire	-1661
▁soient	-1662
▁ty	-1663
▁plu	-1664
▁gent	-1665
▁particularly	-1666
▁lui	-1667
▁elles	-1668
▁candid	-1669
▁rules	-1670
▁selon	-1671
▁nécessaire	-1672
urer	-1673
igr	-1674
mment	-1675
▁votre	-1676
▁colle	-1677
▁includ	-1678
▁responsa	-1679
▁garanti	-1680
▁specific	-1681
accord	-1682
▁priv	-1683
▁adopted	-1684
▁toutefois	-1685
▁fre	-1686
▁after	-1687
▁require	-1688
▁principle	-1689
lemen	-1690
▁justice	-1691
▁gentlemen	-1692
▁madam	-1693
oci	-1694
▁ress	-1695
▁admin	-1696
▁oblig	-1697
▁shall	-1698
▁competi	-1699
▁proposals	-1700
▁secteur	-1701
▁solution	-1702
ning	-1703
▁%	-1704
▁atte	-1705
▁défin	-1706
▁subject	-1707
▁renfor	-1708
▁ladies	-1709
▁modi	-1710
▁recomm	-1711
ateg	-1712
▁few	-1713
▁civ	-1714
▁basis	-1715
▁commer	-1716
ression	-1717
▁déclar	-1718
▁large	-1719
▁fam	-1720
duc	-1721
▁était	-1722
ry	-1723
▁help	-1724
▁whether	-1725
alogue	-1726
▁dès	-1727
ount	-1728
ian	-1729
atég	-1730
▁résul	-1731
▁production	-1732
lob	-1733
▁vic	-1734
▁quelques	-1735
▁bon	-1736
▁deuxième	-1737
erc	-1738
hé	-1739
ires	-1740
▁terms	-1741
isla	-1742
▁loo	-1743
tin	-1744
▁hand	-1745
▁attention	-1746
▁sw	-1747
▁particulière	-1748
▁word	-1749
tiques	-1750
ira	-1751
▁serious	-1752
▁satis	-1753
▁présidence	-1754
anc	-1755
▁satisf	-1756
▁represent	-1757
cup	-1758
▁monde	-1759
▁uvre	-1760
▁publi	-1761
▁ele	-1762
▁vol	-1763
▁façon	-1764
▁consum	-1765
▁continue	-1766
▁sch	-1767
▁spé	-1768
▁subst	-1769
▁article	-1770
ird	-1771
▁communication	-1772
▁vra	-1773
▁nouvelle	-1774
kes	-1775
▁wel	-1776
▁années	-1777
▁treaty	-1778
▁soutien	-1779
▁loc	-1780
▁offic	-1781
▁constru	-1782
▁peuvent	-1783
heure	-1784
▁responsi	-1785
▁legislation	-1786
▁discussion	-1787
▁va	-1788
▁frame	-1789
▁devrait	-1790
▁positive	-1791
▁communautaire	-1792
▁ten	-1793
vement	-1794
▁meet	-1795
▁rapid	-1796
erst	-1797
▁mor	-1798
▁presidency	-1799
bour	-1800
mplo	-1801
pendant	-1802
▁conte	-1803
▁quite	-1804
comp	-1805
▁regulation	-1806
ward	-1807
▁sant	-1808
usement	-1809
▁exam	-1810
soci	-1811
▁ni	-1812
▁félic	-1813
nent	-1814
oint	-1815
▁saf	-1816
▁dialogue	-1817
été	-1818
▁call	-1819
▁next	-1820
▁parties	-1821
▁happ	-1822
▁nouveau	-1823
▁trop	-1824
▁7	-1825
▁lut	-1826
▁express	-1827
▁excell	-1828
▁pay	-1829
▁pow	-1830
▁constitu	-1831
elves	-1832
▁accept	-1833
▁pris	-1834
▁different	-1835
▁entreprises	-1836
▁rôle	-1837
▁come	-1838
▁particulier	-1839
vious	-1840
▁circ	-1841
▁mesure	-1842
▁enfin	-1843
▁behalf	-1844
▁framework	-1845
ock	-1846
ordre	-1847
▁done	-1848
▁femmes	-1849
iens	-1850
▁négoci	-1851
esse	-1852
gment	-1853
▁liv	-1854
▁appropri	-1855
▁whole	-1856
▁technolog	-1857
itable	-1858
▁!	-1859
▁glob	-1860
▁bl	-1861
aly	-1862
art	-1863
▁exper	-1864
side	-1865
▁prac	-1866
ss	-1867
goti	-1868
▁tal	-1869
rimin	-1870
irm	-1871
▁culture	-1872
▁reconn	-1873
hip	-1874
ieux	-1875
▁favour	-1876
▁coordin	-1877
tie	-1878
▁besoin	-1879
▁résultat	-1880
▁pat	-1881
ather	-1882
▁negoti	-1883
aient	-1884
▁rece	-1885
▁nation	-1886
▁clearly	-1887
▁face	-1888
quel	-1889
▁fran	-1890
asse	-1891
gg	-1892
▁éc	-1893
▁santé	-1894
▁inte	-1895
▁open	-1896
su	-1897
▁celui	-1898
▁reason	-1899
▁sociale	-1900
ôt	-1901
▁extre	-1902
▁united	-1903
▁réfor	-1904
▁regul	-1905
▁remar	-1906
ém	-1907
▁notamment	-1908
tifs	-1909
▁1999	-1910
▁safety	-1911
▁procédure	-1912
▁find	-1913
▁fonds	-1914
▁rédu	-1915
ased	-1916
▁discrimin	-1917
▁9	-1918
▁impos	-1919
▁service	-1920
ffic	-1921
other	-1922
raient	-1923
hom	-1924
▁moi	-1925
▁juridique	-1926
ty	-1927
antes	-1928
▁proposed	-1929
▁recher	-1930
▁her	-1931
▁third	-1932
▁8	-1933
év	-1934
▁sci	-1935
usion	-1936
▁lis	-1937
▁bar	-1938
▁urg	-1939
▁proch	-1940
ties	-1941
wards	-1942
▁comprom	-1943
▁population	-1944
ains	-1945
▁celle	-1946
▁industry	-1947
▁sm	-1948
▁dispo	-1949
▁sector	-1950
▁secur	-1951
▁cependant	-1952
▁discuss	-1953
▁liber	-1954
▁fish	-1955
endu	-1956
orer	-1957
▁environnement	-1958
tant	-1959
▁actions	-1960
▁vers	-1961
▁obser	-1962
▁back	-1963
▁premier	-1964
▁going	-1965
istr	-1966
▁jud	-1967
▁general	-1968
old	-1969
inter	-1970
▁approach	-1971
▁agree	-1972
▁underst	-1973
▁fundamental	-1974
▁crimin	-1975
étaire	-1976
veur	-1977
▁result	-1978
▁soulign	-1979
ep	-1980
▁role	-1981
ail	-1982
▁dispos	-1983
ctr	-1984
▁three	-1985
▁force	-1986
▁document	-1987
dam	-1988
▁cro	-1989
▁change	-1990
avant	-1991
▁puis	-1992
▁absolu	-1993
▁bonne	-1994
▁cal	-1995
▁procedure	-1996
ends	-1997
▁maintenant	-1998
ateur	-1999
▁milit	-2000
▁bus	-2001
▁provid	-2002
▁faveur	-2003
▁répons	-2004
▁get	-2005
hésion	-2006
▁unique	-2007
érieur	-2008
raph	-2009
▁san	-2010
▁aim	-2011
iller	-2012
▁step	-2013
▁appr	-2014
oses	-2015
▁déc	-2016
êts	-2017
▁19	-2018
amend	-2019
gu	-2020
homme	-2021
estion	-2022
▁effect	-2023
▁another	-2024
▁environmental	-2025
ised	-2026
▁sû	-2027
▁produits	-2028
ething	-2029
olutions	-2030
▁amb	-2031
rons	-2032
état	-2033
▁constitution	-2034
▁organisations	-2035
▁ide	-2036
▁institution	-2037
ze	-2038
ways	-2039
▁once	-2040
▁concurr	-2041
▁forward	-2042
▁finally	-2043
▁fondament	-2044
▁something	-2045
▁guar	-2046
enda	-2047
ières	-2048
▁real	-2049
opp	-2050
▁millions	-2051
".	-2052
▁harm	-2053
▁génér	-2054
▁better	-2055
▁encour	-2056
environ	-2057
jou	-2058
▁child	-2059
▁rather	-2060
ible	-2061
▁security	-2062
▁législation	-2063
▁série	-2064
▁précis	-2065
qué	-2066
▁aucun	-2067
▁court	-2068
▁victi	-2069
ole	-2070
ific	-2071
▁chaque	-2072
▁donner	-2073
▁affair	-2074
▁bu	-2075
▁sal	-2076
▁read	-2077
▁exig	-2078
▁individ	-2079
▁tot	-2080
▁équ	-2081
orth	-2082
▁semble	-2083
eld	-2084
▁excl	-2085
▁justif	-2086
▁constit	-2087
▁working	-2088
▁aspects	-2089
▁chose	-2090
▁comple	-2091
▁vér	-2092
ultural	-2093
▁strateg	-2094
▁enlarg	-2095
unis	-2096
▁améli	-2097
▁jusqu	-2098
▁peace	-2099
ode	-2100
ran	-2101
als	-2102
▁project	-2103
fer	-2104
▁table	-2105
▁yet	-2106
cially	-2107
per	-2108
▁objectifs	-2109
▁food	-2110
▁tour	-2111
▁chers	-2112
▁small	-2113
▁summ	-2114
▁compan	-2115
accep	-2116
environnement	-2117
▁million	-2118
▁guarante	-2119
ying	-2120
▁mois	-2121
▁voulons	-2122
▁12	-2123
▁during	-2124
▁stratég	-2125
igne	-2126
▁affairs	-2127
▁responsibility	-2128
▁addition	-2129
▁resear	-2130
▁pourrait	-2131
▁er	-2132
▁down	-2133
▁welcome	-2134
ey	-2135
êche	-2136
▁jou	-2137
▁research	-2138
▁sen	-2139
▁spéci	-2140
▁responsabilité	-2141
casion	-2142
ili	-2143
▁clairement	-2144
▁employment	-2145
▁portug	-2146
▁excellent	-2147
ater	-2148
▁espe	-2149
▁especially	-2150
ule	-2151
rions	-2152
▁inten	-2153
ager	-2154
▁var	-2155
▁inst	-2156
▁speak	-2157
▁really	-2158
▁minister	-2159
ared	-2160
▁extrem	-2161
▁règles	-2162
▁towards	-2163
largissement	-2164
▁terme	-2165
▁société	-2166
▁did	-2167
▁régions	-2168
▁itself	-2169
▁understand	-2170
▁dés	-2171
▁pens	-2172
part	-2173
▁meille	-2174
▁centr	-2175
lev	-2176
▁def	-2177
▁ap	-2178
mit	-2179
uge	-2180
termin	-2181
▁seront	-2182
▁money	-2183
▁inves	-2184
▁assemblée	-2185
co	-2186
▁used	-2187
espère	-2188
▁nouvelles	-2189
▁poursu	-2190
▁propose	-2191
ench	-2192
▁plusieurs	-2193
▁favor	-2194
tle	-2195
▁nations	-2196
▁hon	-2197
▁certaines	-2198
▁structure	-2199
▁aura	-2200
▁congr	-2201
▁adopt	-2202
▁20	-2203
▁avis	-2204
▁cause	-2205
▁15	-2206
▁promo	-2207
▁bro	-2208
▁extremely	-2209
acité	-2210
▁réalis	-2211
leg	-2212
▁communauté	-2213
emplo	-2214
▁society	-2215
istes	-2216
▁feel	-2217
▁look	-2218
▁needs	-2219
tout	-2220
ducation	-2221
▁enlargement	-2222
▁freed	-2223
▁charter	-2224
▁fore	-2225
▁france	-2226
em	-2227
▁trade	-2228
▁affe	-2229
▁less	-2230
▁short	-2231
ness	-2232
isme	-2233
▁telle	-2234
érer	-2235
cing	-2236
▁lisb	-2237
▁documents	-2238
▁concurrence	-2239
▁réglement	-2240
▁del	-2241
▁constitue	-2242
ogn	-2243
▁lorsque	-2244
▁fl	-2245
▁indeed	-2246
imes	-2247
ours	-2248
▁budg	-2249
▁prom	-2250
▁least	-2251
ception	-2252
▁associ	-2253
▁ense	-2254
▁recogn	-2255
▁freedom	-2256
▁provide	-2257
▁surtout	-2258
ger	-2259
tely	-2260
▁kos	-2261
▁2001	-2262
▁charte	-2263
▁existe	-2264
up	-2265
ocr	-2266
▁qual	-2267
amendement	-2268
cture	-2269
▁outre	-2270
▁nombreux	-2271
ath	-2272
▁orig	-2273
▁moyen	-2274
▁democratic	-2275
▁redu	-2276
▁toget	-2277
▁resources	-2278
▁texte	-2279
▁together	-2280
▁kosov	-2281
▁recherche	-2282
ession	-2283
▁bo	-2284
▁importante	-2285
▁opportunity	-2286
▁energ	-2287
▁finance	-2288
▁adv	-2289
▁play	-2290
▁sugg	-2291
▁type	-2292
▁agenda	-2293
▁certainly	-2294
▁corre	-2295
▁reste	-2296
▁coordination	-2297
ily	-2298
aide	-2299
▁réponse	-2300
▁become	-2301
▁lang	-2302
inform	-2303
▁always	-2304
avenir	-2305
▁répond	-2306
ète	-2307
▁eur	-2308
▁limit	-2309
▁never	-2310
▁party	-2311
tres	-2312
▁cru	-2313
anger	-2314
▁lutte	-2315
▁mondi	-2316
▁making	-2317
▁competition	-2318
▁rien	-2319
▁success	-2320
imer	-2321
abord	-2322
▁qualité	-2323
▁each	-2324
▁voir	-2325
▁pêche	-2326
gn	-2327
▁parag	-2328
▁train	-2329
▁quant	-2330
▁combat	-2331
▁continu	-2332
▁discrimination	-2333
aise	-2334
▁aliment	-2335
▁fix	-2336
▁perspe	-2337
thing	-2338
▁oper	-2339
éné	-2340
▁avez	-2341
▁bene	-2342
▁pal	-2343
▁account	-2344
▁internal	-2345
▁concerns	-2346
▁vig	-2347
▁sûr	-2348
▁consommateurs	-2349
▁current	-2350
▁interests	-2351
▁contribution	-2352
▁fais	-2353
▁fourn	-2354
▁gestion	-2355
▁10	-2356
▁clair	-2357
/2000)	-2358
▁ai	-2359
▁remercier	-2360
indre	-2361
▁hist	-2362
▁dernier	-2363
▁net	-2364
iness	-2365
▁condu	-2366
orm	-2367
▁unf	-2368
▁bre	-2369
▁coû	-2370
iterran	-2371
▁préoc	-2372
▁contribu	-2373
▁solid	-2374
▁avait	-2375
islative	-2376
▁involved	-2377
▁scientif	-2378
▁sure	-2379
▁aucune	-2380
teurs	-2381
▁energy	-2382
gin	-2383
▁job	-2384
▁territ	-2385
▁déch	-2386
titude	-2387
▁funds	-2388
▁having	-2389
atul	-2390
af	-2391
off	-2392
trib	-2393
▁choses	-2394
▁congratul	-2395
▁confer	-2396
▁enf	-2397
▁vale	-2398
▁war	-2399
aps	-2400
▁coh	-2401
ick	-2402
▁décisions	-2403
▁tit	-2404
ames	-2405
ets	-2406
▁grow	-2407
▁autorités	-2408
utes	-2409
▁dernière	-2410
▁signific	-2411
time	-2412
issent	-2413
▁harmon	-2414
exp	-2415
▁atta	-2416
▁various	-2417
▁defin	-2418
▁kosovo	-2419
aît	-2420
▁11	-2421
tisse	-2422
▁objective	-2423
▁initiatives	-2424
▁access	-2425
▁moyens	-2426
▁sem	-2427
entr	-2428
▁année	-2429
ism	-2430
▁civil	-2431
▁quand	-2432
▁greater	-2433
aix	-2434
▁address	-2435
même	-2436
▁assist	-2437
▁souvent	-2438
▁efficace	-2439
▁tel	-2440
▁tom	-2441
▁reach	-2442
▁divers	-2443
▁farm	-2444
ave	-2445
▁paix	-2446
ensemble	-2447
▁européennes	-2448
▁bring	-2449
▁authorities	-2450
pl	-2451
▁quelque	-2452
▁direct	-2453
nements	-2454
▁constat	-2455
ium	-2456
▁examin	-2457
▁regret	-2458
▁garantir	-2459
▁oppos	-2460
enu	-2461
ren	-2462
▁direction	-2463
▁month	-2464
▁sommet	-2465
▁majority	-2466
ches	-2467
▁demander	-2468
▁essential	-2469
ably	-2470
ortun	-2471
cle	-2472
▁mean	-2473
though	-2474
▁power	-2475
▁donné	-2476
▁increase	-2477
arity	-2478
▁appar	-2479
▁decisions	-2480
bilités	-2481
ither	-2482
▁french	-2483
▁integr	-2484
▁words	-2485
▁nécessité	-2486
▁mieux	-2487
▁différents	-2488
▁apport	-2489
▁aware	-2490
▁publique	-2491
▁déb	-2492
▁joint	-2493
▁cos	-2494
▁although	-2495
be	-2496
▁happen	-2497
▁internation	-2498
▁taking	-2499
laboration	-2500
igration	-2501
▁dr	-2502
entre	-2503
ought	-2504
▁democracy	-2505
mbre	-2506
▁full	-2507
▁béné	-2508
imum	-2509
▁prot	-2510
article	-2511
▁lit	-2512
▁tas	-2513
▁often	-2514
▁post	-2515
▁franç	-2516
▁exerc	-2517
▁proper	-2518
▁relative	-2519
tage	-2520
▁ait	-2521
▁anti	-2522
ête	-2523
▁risk	-2524
import	-2525
▁collègue	-2526
ength	-2527
▁engag	-2528
autre	-2529
atique	-2530
▁ressources	-2531
resp	-2532
▁extr	-2533
idence	-2534
▁décid	-2535
▁simply	-2536
ceed	-2537
▁upon	-2538
ister	-2539
▁text	-2540
▁avail	-2541
▁modif	-2542
uve	-2543
▁products	-2544
▁utilis	-2545
agne	-2546
êmes	-2547
cteurs	-2548
▁minor	-2549
tire	-2550
▁life	-2551
▁show	-2552
▁réforme	-2553
cès	-2554
▁ear	-2555
▁souhaite	-2556
itor	-2557
▁companies	-2558
▁regions	-2559
osition	-2560
▁accomp	-2561
▁conference	-2562
▁démocratie	-2563
▁éch	-2564
▁press	-2565
▁person	-2566
▁augment	-2567
▁swed	-2568
▁prevent	-2569
▁sing	-2570
▁business	-2571
001	-2572
▁étant	-2573
itation	-2574
▁final	-2575
▁economy	-2576
▁special	-2577
▁négociations	-2578
▁gre	-2579
▁free	-2580
avantage	-2581
ventions	-2582
▁expl	-2583
▁seul	-2584
▁wee	-2585
cla	-2586
ilib	-2587
asing	-2588
▁sport	-2589
▁conférence	-2590
élé	-2591
▁appe	-2592
▁ailleurs	-2593
▁kind	-2594
▁explo	-2595
▁permette	-2596
▁attend	-2597
▁domaines	-2598
▁ensemble	-2599
▁application	-2600
uel	-2601
▁reports	-2602
▁sec	-2603
▁bure	-2604
▁invest	-2605
▁children	-2606
▁intervention	-2607
▁faud	-2608
▁libér	-2609
▁benef	-2610
▁field	-2611
▁subsi	-2612
▁voted	-2613
▁improve	-2614
▁messieurs	-2615
ote	-2616
▁actuellement	-2617
▁based	-2618
▁following	-2619
▁directives	-2620
▁negotiations	-2621
ma	-2622
▁organisation	-2623
▁cat	-2624
▁fig	-2625
▁things	-2626
▁six	-2627
▁rappel	-2628
▁participation	-2629
▁cli	-2630
▁rapports	-2631
▁inté	-2632
▁analy	-2633
▁considér	-2634
▁majorité	-2635
▁pur	-2636
▁creat	-2637
▁membre	-2638
eless	-2639
▁comb	-2640
ension	-2641
▁lesqu	-2642
ications	-2643
▁request	-2644
▁including	-2645
▁liberal	-2646
rès	-2647
▁progrès	-2648
▁possibilité	-2649
▁prix	-2650
ban	-2651
▁fully	-2652
▁origin	-2653
haps	-2654
▁bénéfic	-2655
▁perhaps	-2656
anim	-2657
▁voie	-2658
▁camp	-2659
▁connaiss	-2660
▁start	-2661
▁conflic	-2662
▁matters	-2663
key	-2664
▁while	-2665
aluation	-2666
quie	-2667
▁péri	-2668
▁concl	-2669
over	-2670
rent	-2671
▁answ	-2672
élargissement	-2673
▁000	-2674
▁best	-2675
▁affaires	-2676
uss	-2677
▁nouveaux	-2678
▁fight	-2679
▁mul	-2680
endra	-2681
▁peri	-2682
▁lequel	-2683
unes	-2684
▁davantage	-2685
▁conséquent	-2686
arité	-2687
▁period	-2688
erv	-2689
éc	-2690
▁facil	-2691
▁heure	-2692
▁enfants	-2693
▁fis	-2694
▁pot	-2695
▁turkey	-2696
▁rapidement	-2697
eux	-2698
▁remercie	-2699
udes	-2700
▁poll	-2701
▁test	-2702
▁actuelle	-2703
▁groupes	-2704
▁rou	-2705
thers	-2706
▁juste	-2707
▁parten	-2708
▁restric	-2709
moi	-2710
▁sais	-2711
▁soutenir	-2712
▁danger	-2713
▁available	-2714
▁sorte	-2715
▁trait	-2716
acceptable	-2717
▁suffis	-2718
▁diffici	-2719
▁conclusions	-2720
tent	-2721
▁air	-2722
▁croiss	-2723
▁actually	-2724
▁care	-2725
emploi	-2726
▁others	-2727
▁regional	-2728
fs	-2729
▁popul	-2730
▁groups	-2731
lin	-2732
▁summit	-2733
dames	-2734
▁mesdames	-2735
tières	-2736
▁policies	-2737
▁préoccup	-2738
▁conclusion	-2739
qui	-2740
▁consumer	-2741
▁individual	-2742
vi	-2743
▁aide	-2744
▁observ	-2745
util	-2746
▁vraiment	-2747
▁management	-2748
enne	-2749
most	-2750
érale	-2751
▁instrument	-2752
reg	-2753
▁commen	-2754
▁single	-2755
cident	-2756
▁égard	-2757
▁strong	-2758
▁balance	-2759
▁implementation	-2760
ering	-2761
▁sanctions	-2762
▁impli	-2763
tra	-2764
▁eux	-2765
▁envis	-2766
▁event	-2767
ras	-2768
role	-2769
▁entendu	-2770
▁violence	-2771
édi	-2772
▁motion	-2773
▁colleag	-2774
▁général	-2775
▁receive	-2776
▁nécessaires	-2777
less	-2778
▁discussions	-2779
nel	-2780
▁cases	-2781
▁unfortun	-2782
▁lorsqu	-2783
▁visant	-2784
▁dim	-2785
▁she	-2786
diction	-2787
▁liberté	-2788
▁naturel	-2789
▁apply	-2790
istration	-2791
▁according	-2792
▁instruments	-2793
▁peup	-2794
▁longer	-2795
▁crime	-2796
▁create	-2797
▁agriculture	-2798
▁13	-2799
▁strategy	-2800
▁intérêts	-2801
▁note	-2802
▁confl	-2803
▁extrême	-2804
▁secondly	-2805
▁trouver	-2806
▁14	-2807
▁peux	-2808
▁ouver	-2809
▁signal	-2810
▁mentioned	-2811
▁puisse	-2812
▁nationaux	-2813
▁objectives	-2814
▁pap	-2815
▁étr	-2816
▁1998	-2817
▁balk	-2818
▁tiens	-2819
▁quat	-2820
▁quality	-2821
▁relation	-2822
iés	-2823
▁projets	-2824
▁budgétaire	-2825
nous	-2826
▁im	-2827
▁might	-2828
▁résultats	-2829
▁turquie	-2830
lég	-2831
ster	-2832
the	-2833
▁contraire	-2834
▁demain	-2835
▁malheure	-2836
agn	-2837
▁ju	-2838
ones	-2839
▁emph	-2840
▁économiques	-2841
▁ago	-2842
ove	-2843
▁permettez	-2844
velopp	-2845
▁concep	-2846
▁hui	-2847
▁stock	-2848
istra	-2849
▁mess	-2850
aff	-2851
ling	-2852
▁voté	-2853
▁thems	-2854
▁themselves	-2855
bit	-2856
▁propre	-2857
▁souligner	-2858
ueur	-2859
orrow	-2860
▁rail	-2861
▁fort	-2862
▁doute	-2863
▁nombreuses	-2864
▁responsible	-2865
▁mot	-2866
▁profession	-2867
ners	-2868
endant	-2869
▁regarding	-2870
▁stratégie	-2871
▁administra	-2872
▁consequ	-2873
ended	-2874
▁list	-2875
▁création	-2876
hol	-2877
ica	-2878
uni	-2879
▁local	-2880
▁consult	-2881
▁commerce	-2882
▁active	-2883
▁potenti	-2884
▁simplement	-2885
▁comes	-2886
▁parler	-2887
▁spécif	-2888
▁trouve	-2889
▁développ	-2890
▁démocratique	-2891
dire	-2892
▁afric	-2893
▁consci	-2894
information	-2895
▁font	-2896
▁begin	-2897
▁confi	-2898
▁jam	-2899
tical	-2900
▁compris	-2901
▁day	-2902
▁argu	-2903
▁destin	-2904
▁foreign	-2905
▁conta	-2906
▁obten	-2907
▁signif	-2908
▁commercial	-2909
▁fondamentaux	-2910
nerg	-2911
▁pros	-2912
▁assess	-2913
▁raisons	-2914
ried	-2915
▁cin	-2916
▁serb	-2917
▁contrô	-2918
eau	-2919
uite	-2920
▁increasing	-2921
▁transparence	-2922
ub	-2923
/2001	-2924
ability	-2925
▁capital	-2926
▁meeting	-2927
▁concerning	-2928
mi	-2929
▁resul	-2930
▁central	-2931
▁difficile	-2932
▁sex	-2933
▁prob	-2934
▁amendement	-2935
▁suite	-2936
▁strength	-2937
uelle	-2938
▁larg	-2939
▁doing	-2940
▁nothing	-2941
▁impact	-2942
▁contain	-2943
▁basi	-2944
uit	-2945
▁fron	-2946
▁brit	-2947
▁flex	-2948
▁export	-2949
▁orient	-2950
▁simple	-2951
▁tota	-2952
▁titre	-2953
▁basic	-2954
▁stric	-2955
▁tomorrow	-2956
▁firstly	-2957
▁véritable	-2958
▁sim	-2959
▁devant	-2960
..	-2961
▁formul	-2962
cé	-2963
▁enough	-2964
▁malheureusement	-2965
urd	-2966
▁candidats	-2967
▁fisher	-2968
▁content	-2969
▁pau	-2970
année	-2971
▁élev	-2972
▁risque	-2973
cont	-2974
ght	-2975
▁emphas	-2976
▁déclaration	-2977
▁cris	-2978
▁veut	-2979
▁guarantee	-2980
▁prep	-2981
▁total	-2982
▁congratulate	-2983
▁due	-2984
aître	-2985
▁jamais	-2986
▁période	-2987
▁agricultural	-2988
▁draw	-2989
ograph	-2990
▁troisième	-2991
oles	-2992
▁partners	-2993
▁recent	-2994
▁30	-2995
▁fall	-2996
▁voter	-2997
▁obvious	-2998
▁dan	-2999
▁keep	-3000
▁line	-3001
▁prés	-3002
▁accepter	-3003
▁forces	-3004
▁eth	-3005
▁modern	-3006
ars	-3007
▁abord	-3008
▁found	-3009
▁caract	-3010
▁crucial	-3011
hod	-3012
▁sud	-3013
atic	-3014
▁isra	-3015
▁peti	-3016
▁crisis	-3017
▁devrions	-3018
omb	-3019
mission	-3020
▁little	-3021
▁appropriate	-3022
▁key	-3023
▁créer	-3024
▁termes	-3025
▁balkans	-3026
▁currently	-3027
itaire	-3028
▁féliciter	-3029
▁certainement	-3030
organ	-3031
▁méd	-3032
▁refus	-3033
▁until	-3034
▁essentiel	-3035
▁remain	-3036
▁tre	-3037
▁police	-3038
atory	-3039
▁traffic	-3040
▁const	-3041
▁libre	-3042
▁inn	-3043
nelle	-3044
▁celles	-3045
▁volont	-3046
pens	-3047
▁date	-3048
▁discut	-3049
▁complex	-3050
▁reasons	-3051
▁personne	-3052
▁context	-3053
▁poursuiv	-3054
to	-3055
▁plut	-3056
▁rendre	-3057
▁conne	-3058
▁établ	-3059
▁pratique	-3060
ief	-3061
▁méth	-3062
▁idea	-3063
▁months	-3064
▁previous	-3065
▁dispositions	-3066
▁doub	-3067
▁among	-3068
▁formation	-3069
tir	-3070
▁nav	-3071
▁compl	-3072
▁method	-3073
▁intérieur	-3074
ienne	-3075
▁cô	-3076
▁past	-3077
▁trouv	-3078
▁pension	-3079
▁youn	-3080
▁informations	-3081
▁seule	-3082
▁sever	-3083
▁devraient	-3084
ists	-3085
▁head	-3086
▁judici	-3087
▁indis	-3088
▁stress	-3089
▁him	-3090
▁défense	-3091
▁répondre	-3092
▁governments	-3093
▁rural	-3094
ror	-3095
▁aurait	-3096
▁clar	-3097
rastru	-3098
▁share	-3099
▁unfortunately	-3100
ps	-3101
mar	-3102
ites	-3103
sterdam	-3104
▁legislative	-3105
▁expect	-3106
▁précéd	-3107
▁dist	-3108
▁prodi	-3109
▁alimentaire	-3110
▁extrêmement	-3111
oph	-3112
erve	-3113
lande	-3114
▁ensuite	-3115
▁convient	-3116
▁deta	-3117
",	-3118
▁agit	-3119
▁acces	-3120
▁savons	-3121
▁distrib	-3122
▁nationales	-3123
gré	-3124
▁arm	-3125
▁confirm	-3126
▁supplément	-3127
ody	-3128
▁réjou	-3129
▁dépens	-3130
▁plutôt	-3131
▁qualif	-3132
▁systems	-3133
▁red	-3134
▁honour	-3135
▁den	-3136
▁ours	-3137
▁énerg	-3138
▁several	-3139
▁recommend	-3140
▁occasion	-3141
▁palest	-3142
▁technical	-3143
▁provis	-3144
▁everyone	-3145
rich	-3146
temps	-3147
▁adap	-3148
▁answer	-3149
▁monitor	-3150
▁cher	-3151
▁charg	-3152
▁obs	-3153
▁coup	-3154
▁thing	-3155
▁étrang	-3156
▁permettre	-3157
▁rejet	-3158
▁preuve	-3159
▁condition	-3160
cement	-3161
▁vu	-3162
▁évo	-3163
▁young	-3164
▁réalité	-3165
▁différentes	-3166
▁plein	-3167
▁confiance	-3168
▁results	-3169
▁cy	-3170
gence	-3171
▁petit	-3172
▁code	-3173
▁tent	-3174
euros	-3175
▁applic	-3176
▁rend	-3177
▁tabled	-3178
▁standards	-3179
▁van	-3180
▁indé	-3181
économ	-3182
▁protect	-3183
▁détermin	-3184
▁ev	-3185
▁foc	-3186
▁norm	-3187
▁internet	-3188
▁amer	-3189
▁quelle	-3190
▁ger	-3191
▁présente	-3192
ges	-3193
▁remp	-3194
▁rule	-3195
idemment	-3196
▁personnel	-3197
▁normes	-3198
▁projects	-3199
gra	-3200
anted	-3201
ester	-3202
▁education	-3203
ossi	-3204
▁consumers	-3205
▁évidemment	-3206
▁budgetary	-3207
▁statement	-3208
udi	-3209
▁move	-3210
▁voting	-3211
▁oct	-3212
itime	-3213
▁lack	-3214
▁loin	-3215
▁subsidi	-3216
▁sustain	-3217
orted	-3218
▁situ	-3219
ident	-3220
▁broad	-3221
▁conséquences	-3222
▁emb	-3223
▁estim	-3224
▁ratif	-3225
▁adopté	-3226
▁proté	-3227
▁volonté	-3228
truction	-3229
▁costs	-3230
▁decid	-3231
▁partis	-3232
▁tar	-3233
▁plans	-3234
▁quick	-3235
▁closed	-3236
ié	-3237
rap	-3238
here	-3239
▁log	-3240
▁makes	-3241
ève	-3242
sh	-3243
▁quoi	-3244
▁draft	-3245
▁prises	-3246
adhésion	-3247
▁compromis	-3248
iliation	-3249
enons	-3250
quent	-3251
▁global	-3252
dio	-3253
▁gener	-3254
▁water	-3255
▁principes	-3256
self	-3257
fully	-3258
▁equal	-3259
ctement	-3260
ience	-3261
▁mind	-3262
▁forme	-3263
ailleurs	-3264
▁concept	-3265
▁concr	-3266
▁agreements	-3267
▁déta	-3268
▁left	-3269
▁true	-3270
▁ministre	-3271
▁recommand	-3272
intér	-3273
▁univers	-3274
▁substances	-3275
▁tiers	-3276
▁indic	-3277
▁pourra	-3278
moins	-3279
▁transparency	-3280
▁internationale	-3281
▁guid	-3282
▁mand	-3283
▁seen	-3284
▁passé	-3285
▁prise	-3286
▁votes	-3287
▁jeunes	-3288
▁renforcer	-3289
▁sep	-3290
▁appelle	-3291
importance	-3292
▁ourselves	-3293
ls	-3294
▁ceci	-3295
▁soon	-3296
▁compét	-3297
▁partage	-3298
▁dernières	-3299
yp	-3300
▁entra	-3301
▁lab	-3302
▁clim	-3303
▁exprim	-3304
▁gouvernements	-3305
▁em	-3306
cent	-3307
office	-3308
uff	-3309
ène	-3310
quis	-3311
objet	-3312
▁manif	-3313
▁carried	-3314
▁importants	-3315
él	-3316
ède	-3317
▁ay	-3318
▁respe	-3319
▁ital	-3320
▁aides	-3321
▁message	-3322
▁independ	-3323
▁croissance	-3324
▁div	-3325
▁sort	-3326
rir	-3327
▁sensi	-3328
▁régime	-3329
▁principles	-3330
▁lat	-3331
▁turn	-3332
▁achieved	-3333
▁contexte	-3334
▁solutions	-3335
ross	-3336
▁chall	-3337
▁farmers	-3338
▁indispens	-3339
▁south	-3340
▁début	-3341
▁super	-3342
▁animaux	-3343
▁regulations	-3344
used	-3345
▁guer	-3346
▁waste	-3347
ablement	-3348
▁hold	-3349
▁voil	-3350
ortion	-3351
▁accords	-3352
▁priority	-3353
▁ground	-3354
▁growth	-3355
▁financement	-3356
▁perspective	-3357
▁travailleurs	-3358
obje	-3359
▁merci	-3360
coming	-3361
▁appel	-3362
▁seems	-3363
▁budgets	-3364
vous	-3365
▁conciliation	-3366
ocol	-3367
clear	-3368
ber	-3369
▁max	-3370
▁crit	-3371
▁desp	-3372
ising	-3373
▁activités	-3374
application	-3375
▁cur	-3376
ledge	-3377
▁purp	-3378
iennent	-3379
▁altern	-3380
▁entire	-3381
▁convain	-3382
▁pendant	-3383
▁maintain	-3384
▁signifie	-3385
▁commitment	-3386
tivité	-3387
▁victimes	-3388
▁pollution	-3389
oires	-3390
govern	-3391
▁porte	-3392
▁histor	-3393
term	-3394
ture	-3395
▁voilà	-3396
▁german	-3397
▁needed	-3398
ix	-3399
orp	-3400
éch	-3401
onstr	-3402
ancer	-3403
▁practice	-3404
▁25	-3405
prit	-3406
▁crise	-3407
▁simil	-3408
▁procedures	-3409
lig	-3410
aces	-3411
rique	-3412
▁include	-3413
▁significant	-3414
èle	-3415
▁inqui	-3416
▁road	-3417
▁relev	-3418
▁autant	-3419
industr	-3420
▁strengthen	-3421
dem	-3422
▁médi	-3423
▁tels	-3424
▁télé	-3425
▁laiss	-3426
▁stage	-3427
▁agreed	-3428
▁task	-3429
mental	-3430
▁assurer	-3431
▁présenter	-3432
▁comité	-3433
▁activities	-3434
eff	-3435
▁asked	-3436
▁assur	-3437
anmoins	-3438
iew	-3439
▁parole	-3440
missions	-3441
▁session	-3442
▁néanmoins	-3443
▁représente	-3444
tip	-3445
objectif	-3446
▁workers	-3447
▁collaboration	-3448
▁cost	-3449
▁procédures	-3450
▁mut	-3451
▁haut	-3452
▁repe	-3453
▁attitude	-3454
▁veux	-3455
▁exemp	-3456
dit	-3457
▁talk	-3458
▁structural	-3459
▁meilleure	-3460
▁absolument	-3461
aur	-3462
▁hard	-3463
▁manque	-3464
▁tradition	-3465
▁communautaires	-3466
onnes	-3467
▁telles	-3468
▁conform	-3469
▁palestin	-3470
hen	-3471
▁week	-3472
▁transports	-3473
▁jan	-3474
▁close	-3475
▁grandes	-3476
▁rappeler	-3477
▁continuer	-3478
▁uniquement	-3479
âce	-3480
▁ber	-3481
intég	-3482
▁grâce	-3483
▁either	-3484
uf	-3485
▁pén	-3486
▁50	-3487
ctron	-3488
▁save	-3489
▁dimension	-3490
▁uk	-3491
uring	-3492
atoire	-3493
▁tenir	-3494
iée	-3495
▁dam	-3496
▁urgent	-3497
▁benefit	-3498
▁conflict	-3499
ators	-3500
▁identif	-3501
▁mér	-3502
▁déla	-3503
léments	-3504
▁reconnaiss	-3505
▁construction	-3506
▁ec	-3507
▁tran	-3508
▁existing	-3509
yer	-3510
▁heures	-3511
▁traités	-3512
▁candidate	-3513
▁réellement	-3514
oid	-3515
rier	-3516
▁prim	-3517
▁term	-3518
governmental	-3519
cism	-3520
▁amér	-3521
▁fair	-3522
▁extern	-3523
▁infrastru	-3524
▁doubt	-3525
▁minutes	-3526
▁presented	-3527
cies	-3528
appro	-3529
▁austr	-3530
améli	-3531
5-01	-3532
umer	-3533
▁chac	-3534
▁animal	-3535
▁chance	-3536
▁provided	-3537
▁throughout	-3538
▁carry	-3539
▁sense	-3540
▁centre	-3541
▁everything	-3542
▁séance	-3543
yl	-3544
▁transfer	-3545
▁dér	-3546
▁dois	-3547
▁dossi	-3548
▁systèmes	-3549
tile	-3550
▁refuge	-3551
▁required	-3552
more	-3553
▁military	-3554
▁pourtant	-3555
▁structures	-3556
ina	-3557
▁reç	-3558
industrie	-3559
▁stability	-3560
avoir	-3561
▁risques	-3562
▁équilib	-3563
illes	-3564
issant	-3565
mitted	-3566
▁debat	-3567
▁assistance	-3568
/00	-3569
▁compromise	-3570
▁established	-3571
▁précisément	-3572
▁18	-3573
▁travaill	-3574
aged	-3575
▁habit	-3576
▁deuxièmement	-3577
att	-3578
▁prepared	-3579
▁temp	-3580
▁sitting	-3581
▁parmi	-3582
▁approche	-3583
initi	-3584
▁above	-3585
▁marchés	-3586
▁vigueur	-3587
▁générale	-3588
▁expressed	-3589
éré	-3590
▁experience	-3591
ides	-3592
▁der	-3593
▁low	-3594
▁threat	-3595
▁administration	-3596
▁paper	-3597
▁approuv	-3598
inte	-3599
venu	-3600
▁build	-3601
▁intéress	-3602
edi	-3603
adop	-3604
▁old	-3605
▁quot	-3606
▁highl	-3607
▁demonstr	-3608
▁stabilité	-3609
▁tell	-3610
▁fail	-3611
▁grands	-3612
▁prépar	-3613
▁données	-3614
▁quickly	-3615
▁provisions	-3616
ean	-3617
▁assez	-3618
▁affect	-3619
▁gree	-3620
▁durable	-3621
lle	-3622
▁ppe	-3623
▁présenté	-3624
▁external	-3625
▁safe	-3626
▁changes	-3627
▁sociaux	-3628
▁developing	-3629
▁criter	-3630
▁acceptable	-3631
▁tâ	-3632
▁held	-3633
▁furthermore	-3634
ana	-3635
itim	-3636
venus	-3637
▁refle	-3638
▁compens	-3639
osé	-3640
rog	-3641
dequ	-3642
▁lisbon	-3643
▁étaient	-3644
▁cop	-3645
▁ambiti	-3646
▁hommes	-3647
▁saying	-3648
▁decided	-3649
▁minimum	-3650
▁lisbonne	-3651
▁exception	-3652
ka	-3653
bourg	-3654
▁compli	-3655
▁mission	-3656
▁réglementation	-3657
clé	-3658
▁coûts	-3659
▁consens	-3660
▁correct	-3661
▁despite	-3662
▁star	-3663
▁valeurs	-3664
▁veiller	-3665
▁éléments	-3666
line	-3667
▁hear	-3668
quet	-3669
▁cra	-3670
▁roy	-3671
agric	-3672
▁defence	-3673
▁substanti	-3674
ume	-3675
▁vrai	-3676
▁capit	-3677
▁deleg	-3678
▁x	-3679
▁mer	-3680
▁suéd	-3681
▁intégr	-3682
lier	-3683
▁cig	-3684
cul	-3685
était	-3686
▁honourable	-3687
cide	-3688
avons	-3689
▁extra	-3690
▁cho	-3691
bilities	-3692
na	-3693
▁raised	-3694
iner	-3695
▁corresp	-3696
-0	-3697
asbourg	-3698
caution	-3699
▁intérêt	-3700
sif	-3701
cidents	-3702
▁intention	-3703
▁confidence	-3704
tead	-3705
▁devoir	-3706
▁perman	-3707
limin	-3708
▁réfug	-3709
▁considération	-3710
▁17	-3711
▁dû	-3712
ibles	-3713
commun	-3714
▁vient	-3715
▁instead	-3716
ource	-3717
▁commencer	-3718
▁én	-3719
▁mort	-3720
▁britann	-3721
▁parvenir	-3722
▁française	-3723
utilisation	-3724
▁completely	-3725
né	-3726
érien	-3727
▁exact	-3728
▁influ	-3729
▁response	-3730
▁fisheries	-3731
aster	-3732
▁link	-3733
▁though	-3734
▁criminal	-3735
▁référence	-3736
way	-3737
▁uni	-3738
énerg	-3739
▁lecture	-3740
▁agricole	-3741
▁importantes	-3742
▁bil	-3743
ature	-3744
▁journ	-3745
▁funding	-3746
▁underta	-3747
ori	-3748
▁ira	-3749
▁trag	-3750
▁passe	-3751
▁clarif	-3752
▁official	-3753
égalité	-3754
▁remind	-3755
▁demandé	-3756
▁correspond	-3757
▁strasbourg	-3758
rez	-3759
rale	-3760
▁avoid	-3761
▁élément	-3762
▁consensus	-3763
▁considéra	-3764
▁financiers	-3765
tag	-3766
▁top	-3767
▁suffic	-3768
▁markets	-3769
▁nuclear	-3770
▁technologies	-3771
hic	-3772
▁tele	-3773
▁vont	-3774
▁rapide	-3775
▁critères	-3776
▁rapporteurs	-3777
▁ship	-3778
iled	-3779
▁dise	-3780
▁gens	-3781
▁analys	-3782
▁called	-3783
▁victims	-3784
érons	-3785
▁nord	-3786
▁guerre	-3787
▁éviter	-3788
▁swedish	-3789
▁sufficient	-3790
5-02	-3791
▁item	-3792
▁quatre	-3793
▁approved	-3794
▁libéralisation	-3795
yn	-3796
▁devra	-3797
▁termin	-3798
▁pleased	-3799
▁private	-3800
ider	-3801
▁terror	-3802
▁législa	-3803
▁eas	-3804
▁tab	-3805
argent	-3806
▁enter	-3807
▁tob	-3808
▁five	-3809
▁nove	-3810
▁taux	-3811
▁pensons	-3812
▁concentr	-3813
▁moreover	-3814
agriculture	-3815
▁parliamentary	-3816
▁administrative	-3817
can	-3818
▁consac	-3819
▁training	-3820
ata	-3821
▁included	-3822
cise	-3823
▁purs	-3824
).	-3825
gen	-3826
▁run	-3827
▁russi	-3828
▁prepar	-3829
▁contenu	-3830
▁reading	-3831
▁parlementaire	-3832
▁délég	-3833
iterranean	-3834
▁absolutely	-3835
▁investisse	-3836
ué	-3837
gos	-3838
ood	-3839
ctors	-3840
▁tend	-3841
▁depend	-3842
▁proposé	-3843
initiative	-3844
▁promotion	-3845
▁naturellement	-3846
▁offer	-3847
▁touch	-3848
énergie	-3849
▁chacun	-3850
▁priorités	-3851
imm	-3852
▁cut	-3853
▁déchets	-3854
▁transf	-3855
▁impossible	-3856
az	-3857
▁jobs	-3858
▁live	-3859
lac	-3860
tien	-3861
▁tim	-3862
aking	-3863
arian	-3864
tient	-3865
▁dimin	-3866
▁extent	-3867
▁indispensable	-3868
▁vois	-3869
▁along	-3870
▁totalement	-3871
tig	-3872
alised	-3873
liquer	-3874
mettre	-3875
économie	-3876
▁north	-3877
▁produit	-3878
▁priorité	-3879
▁langu	-3880
▁times	-3881
▁catast	-3882
▁profit	-3883
▁semaine	-3884
▁difficul	-3885
▁discussed	-3886
▁possibilités	-3887
▁rich	-3888
▁compet	-3889
▁patten	-3890
▁16	-3891
quée	-3892
▁nam	-3893
▁attemp	-3894
▁immedi	-3895
▁authority	-3896
▁paragraph	-3897
▁souhaiter	-3898
▁implemented	-3899
oit	-3900
▁resol	-3901
pes	-3902
▁ép	-3903
ariat	-3904
▁deli	-3905
5-00	-3906
▁dési	-3907
▁hier	-3908
▁unanim	-3909
men	-3910
/00)	-3911
ested	-3912
▁pose	-3913
ination	-3914
▁consultation	-3915
der	-3916
aume	-3917
êtes	-3918
▁fif	-3919
▁trib	-3920
▁exten	-3921
▁promote	-3922
▁obligations	-3923
arr	-3924
exam	-3925
▁député	-3926
avis	-3927
intérêt	-3928
▁améric	-3929
▁concrè	-3930
▁royaume	-3931
▁réunion	-3932
▁dépenses	-3933
▁financières	-3934
▁occup	-3935
▁values	-3936
▁exercice	-3937
▁maritime	-3938
▁prochaine	-3939
lav	-3940
▁améliorer	-3941
▁ill	-3942
▁capac	-3943
▁passer	-3944
30	-3945
rup	-3946
holm	-3947
accès	-3948
▁poor	-3949
érieure	-3950
▁incorp	-3951
occasion	-3952
▁criteria	-3953
▁movement	-3954
▁obsta	-3955
▁surpr	-3956
esterday	-3957
▁talking	-3958
▁félicite	-3959
▁unacceptable	-3960
▁dir	-3961
intégr	-3962
▁element	-3963
▁yesterday	-3964
▁situations	-3965
▁donne	-3966
▁nuclé	-3967
▁longtemps	-3968
▁stockholm	-3969
▁premièrement	-3970
atis	-3971
▁acp	-3972
gouver	-3973
▁received	-3974
▁recently	-3975
▁connection	-3976
▁effectivement	-3977
emb	-3978
▁rus	-3979
▁adress	-3980
▁traitement	-3981
uary	-3982
▁vos	-3983
▁1997	-3984
▁else	-3985
▁foot	-3986
▁spee	-3987
▁powers	-3988
▁centrale	-3989
▁encourage	-3990
▁colleagues	-3991
▁ign	-3992
▁rele	-3993
▁grave	-3994
▁value	-3995
▁lesquels	-3996
orn	-3997
▁compéti	-3998
▁propres	-3999
▁investment	-4000
▁opportunities	-4001
urn	-4002
▁compar	-4003
▁review	-4004
▁secteurs	-4005
▁ministers	-4006
▁lear	-4007
▁succès	-4008
▁brought	-4009
gouvernement	-4010
by	-4011
▁40	-4012
▁jug	-4013
▁dipl	-4014
▁behind	-4015
▁bureauc	-4016
▁mondiale	-4017
▁difficultés	-4018
oss	-4019
▁réduire	-4020
▁obviously	-4021
▁priorities	-4022
amb	-4023
ron	-4024
▁light	-4025
▁relevant	-4026
▁réfugiés	-4027
ories	-4028
nelles	-4029
▁allons	-4030
▁constater	-4031
▁monitoring	-4032
ox	-4033
▁mau	-4034
▁cinq	-4035
▁simpli	-4036
▁integration	-4037
▁considerable	-4038
orient	-4039
veness	-4040
▁faudra	-4041
▁labour	-4042
▁consist	-4043
▁ordre	-4044
▁frontières	-4045
▁zone	-4046
▁avanc	-4047
▁proceed	-4048
assemblée	-4049
▁économie	-4050
▁relatives	-4051
▁technique	-4052
eth	-4053
cles	-4054
▁relig	-4055
▁montre	-4056
▁increased	-4057
tré	-4058
▁join	-4059
▁whose	-4060
▁avenir	-4061
iture	-4062
▁malgré	-4063
▁parfois	-4064
▁regards	-4065
effic	-4066
▁biais	-4067
▁unies	-4068
▁requirements	-4069
▁côté	-4070
cisely	-4071
tences	-4072
▁precisely	-4073
▁travailler	-4074
cs	-4075
oque	-4076
▁home	-4077
▁ought	-4078
▁compétences	-4079
▁circulation	-4080
oins	-4081
▁rig	-4082
▁ethn	-4083
▁poss	-4084
199	-4085
▁genu	-4086
ighted	-4087
▁savez	-4088
▁transp	-4089
▁animals	-4090
▁amsterdam	-4091
voy	-4092
▁condam	-4093
▁réformes	-4094
▁caractère	-4095
▁positions	-4096
▁bank	-4097
▁measure	-4098
▁puissent	-4099
▁provision	-4100
arer	-4101
rely	-4102
vaux	-4103
▁took	-4104
▁charge	-4105
▁humanit	-4106
▁comments	-4107
▁sl	-4108
aties	-4109
établ	-4110
▁2000.	-4111
▁disch	-4112
▁recons	-4113
▁representatives	-4114
ool	-4115
raphe	-4116
▁dut	-4117
ously	-4118
▁declar	-4119
▁confront	-4120
▁ministres	-4121
▁financière	-4122
arder	-4123
▁alban	-4124
▁flexi	-4125
▁guidel	-4126
tiveness	-4127
▁accession	-4128
▁dix	-4129
▁fun	-4130
▁mid	-4131
▁viv	-4132
▁stud	-4133
▁treaties	-4134
▁pleinement	-4135
▁techniques	-4136
▁2002	-4137
▁constituent	-4138
▁try	-4139
▁focus	-4140
▁radio	-4141
theless	-4142
▁entière	-4143
▁liberalisation	-4144
sidered	-4145
▁dispar	-4146
itish	-4147
mêmes	-4148
▁zones	-4149
▁emploi	-4150
▁elections	-4151
▁nevertheless	-4152
▁parl	-4153
▁considère	-4154
▁immigration	-4155
cri	-4156
▁ang	-4157
▁pron	-4158
ulteurs	-4159
▁applied	-4160
▁reached	-4161
▁paragraphe	-4162
étique	-4163
▁almost	-4164
▁concre	-4165
▁cultural	-4166
▁révision	-4167
▁sustainable	-4168
▁apporter	-4169
▁fed	-4170
▁levels	-4171
▁reduce	-4172
▁financier	-4173
oser	-4174
erial	-4175
▁homme	-4176
▁staff	-4177
▁takes	-4178
▁bureaucra	-4179
▁tex	-4180
ulent	-4181
▁around	-4182
▁comptes	-4183
▁continent	-4184
▁consequences	-4185
rain	-4186
▁via	-4187
▁affirm	-4188
▁courage	-4189
▁conflits	-4190
▁élections	-4191
▁scientific	-4192
▁transition	-4193
ris	-4194
crit	-4195
jouter	-4196
▁sociales	-4197
▁producteurs	-4198
▁fell	-4199
▁allem	-4200
▁british	-4201
▁inquiét	-4202
▁sensible	-4203
▁atteint	-4204
ending	-4205
▁thanks	-4206
ha	-4207
▁liste	-4208
▁septe	-4209
▁valeur	-4210
▁overall	-4211
▁office	-4212
▁effects	-4213
lications	-4214
▁relating	-4215
▁wr	-4216
▁déce	-4217
▁sait	-4218
angere	-4219
▁exclu	-4220
▁peine	-4221
▁dangere	-4222
▁travaux	-4223
▁lot	-4224
arily	-4225
▁across	-4226
▁knowledge	-4227
▁réduction	-4228
▁sent	-4229
▁ports	-4230
▁venir	-4231
▁indépend	-4232
▁surve	-4233
▁democr	-4234
▁peuple	-4235
érieures	-4236
▁citoyen	-4237
▁anything	-4238
▁guidelines	-4239
▁constructive	-4240
▁,	-4241
yons	-4242
▁auxqu	-4243
▁brief	-4244
▁livre	-4245
dequate	-4246
▁développer	-4247
val	-4248
▁préf	-4249
▁tack	-4250
▁poursuivre	-4251
dé	-4252
▁tenu	-4253
▁africa	-4254
▁affaire	-4255
fait	-4256
appla	-4257
▁pack	-4258
▁vital	-4259
▁statut	-4260
▁quelles	-4261
▁similar	-4262
▁-,	-4263
▁huge	-4264
▁â	-4265
▁produc	-4266
▁adopter	-4267
▁travers	-4268
▁exigences	-4269
▁comprendre	-4270
▁sea	-4271
▁audit	-4272
▁death	-4273
▁amount	-4274
▁permettant	-4275
▁consideration	-4276
▁dossier	-4277
parliament	-4278
▁bord	-4279
▁media	-4280
▁penal	-4281
▁consol	-4282
▁enable	-4283
gue	-4284
tés	-4285
▁ue	-4286
▁fil	-4287
ublic	-4288
▁away	-4289
▁thus	-4290
▁considered	-4291
▁monop	-4292
▁mêmes	-4293
▁convin	-4294
bilisation	-4295
▁practical	-4296
erves	-4297
▁using	-4298
iff	-4299
del	-4300
dom	-4301
inki	-4302
ubli	-4303
estime	-4304
ez	-4305
labor	-4306
▁dirig	-4307
▁retra	-4308
elsinki	-4309
▁circum	-4310
▁diplom	-4311
▁plupart	-4312
▁puisque	-4313
rée	-4314
▁seem	-4315
▁1999,	-4316
▁cross	-4317
▁espérons	-4318
▁favorable	-4319
▁harmonisation	-4320
venue	-4321
▁bill	-4322
▁trafic	-4323
actions	-4324
▁effets	-4325
▁namely	-4326
▁purpose	-4327
▁efficient	-4328
▁transform	-4329
organisation	-4330
▁fonctionnement	-4331
ylum	-4332
▁east	-4333
▁west	-4334
▁bse	-4335
▁ire	-4336
cteur	-4337
▁bear	-4338
▁asylum	-4339
▁conver	-4340
▁prochain	-4341
▁agriculteurs	-4342
wh	-4343
iez	-4344
ring	-4345
▁material	-4346
bly	-4347
▁oil	-4348
isent	-4349
▁rate	-4350
▁parle	-4351
▁scope	-4352
▁décidé	-4353
▁21	-4354
orig	-4355
▁flo	-4356
cadre	-4357
▁yeux	-4358
▁faudrait	-4359
▁incorpor	-4360
▁reference	-4361
▁perspectives	-4362
aging	-4363
▁coming	-4364
▁entraî	-4365
▁pauvre	-4366
▁trying	-4367
▁respond	-4368
▁independent	-4369
▁24	-4370
▁ge	-4371
ynam	-4372
▁diver	-4373
▁phase	-4374
▁procès	-4375
▁ireland	-4376
▁stop	-4377
verty	-4378
▁land	-4379
▁heard	-4380
▁objet	-4381
▁certes	-4382
▁civile	-4383
▁target	-4384
▁install	-4385
▁poverty	-4386
▁referred	-4387
▁giving	-4388
▁rester	-4389
intégration	-4390
▁méditerran	-4391
▁conformément	-4392
crib	-4393
idée	-4394
inten	-4395
▁belg	-4396
▁feed	-4397
▁turk	-4398
atiques	-4399
tier	-4400
▁double	-4401
▁résoud	-4402
▁assessment	-4403
▁mediterranean	-4404
▁chiff	-4405
▁dynam	-4406
▁jouer	-4407
▁interp	-4408
▁proportion	-4409
▁rév	-4410
▁spo	-4411
▁data	-4412
iation	-4413
▁cover	-4414
▁price	-4415
6,	-4416
▁198	-4417
▁mener	-4418
introdu	-4419
▁contribuer	-4420
▁ky	-4421
mage	-4422
▁exch	-4423
▁half	-4424
▁green	-4425
▁illeg	-4426
▁poser	-4427
▁modèle	-4428
▁suivre	-4429
▁prévention	-4430
oix	-4431
uels	-4432
▁euros	-4433
▁experts	-4434
▁protéger	-4435
▁responsabilités	-4436
▁dég	-4437
▁pure	-4438
▁aller	-4439
▁ayant	-4440
▁model	-4441
▁fellow	-4442
▁pourraient	-4443
èce	-4444
chan	-4445
oule	-4446
ology	-4447
contre	-4448
▁adéqu	-4449
▁jours	-4450
▁derniers	-4451
▁specifically	-4452
▁représentants	-4453
cée	-4454
▁spir	-4455
inking	-4456
▁choix	-4457
▁mécan	-4458
3,	-4459
▁age	-4460
▁front	-4461
▁mechan	-4462
▁outside	-4463
▁publics	-4464
▁influence	-4465
inn	-4466
jus	-4467
ignes	-4468
▁2000,	-4469
▁family	-4470
▁immédi	-4471
▁myself	-4472
▁secret	-4473
▁industri	-4474
▁respecter	-4475
gar	-4476
▁sérieux	-4477
▁seriously	-4478
ép	-4479
▁dépend	-4480
▁partir	-4481
gouvernementale	-4482
▁natur	-4483
▁sound	-4484
▁viande	-4485
▁méthode	-4486
▁republic	-4487
delà	-4488
▁entend	-4489
▁return	-4490
▁positif	-4491
▁solidarity	-4492
inf	-4493
oise	-4494
▁estime	-4495
▁discharge	-4496
ton	-4497
uese	-4498
isant	-4499
oncer	-4500
river	-4501
naires	-4502
▁autom	-4503
▁inspe	-4504
▁risks	-4505
▁évent	-4506
qués	-4507
▁dece	-4508
▁petites	-4509
▁speaking	-4510
▁territoire	-4511
inst	-4512
▁paie	-4513
▁réun	-4514
▁certaine	-4515
ij	-4516
aign	-4517
▁ligne	-4518
▁souff	-4519
ublique	-4520
▁évident	-4521
▁circumst	-4522
▁portuguese	-4523
▁criminalité	-4524
▁sche	-4525
▁obtain	-4526
▁capacité	-4527
▁potential	-4528
▁créd	-4529
▁vise	-4530
▁alloc	-4531
▁arriv	-4532
▁rightly	-4533
▁partnership	-4534
assi	-4535
▁big	-4536
▁tire	-4537
▁investig	-4538
tons	-4539
▁soi	-4540
times	-4541
tirer	-4542
▁parlé	-4543
▁condem	-4544
▁sectors	-4545
▁adoption	-4546
▁feira	-4547
▁americ	-4548
▁explain	-4549
alu	-4550
vres	-4551
istance	-4552
▁immigr	-4553
▁réseau	-4554
tiss	-4555
▁cle	-4556
ually	-4557
▁days	-4558
▁product	-4559
▁pressure	-4560
▁refugees	-4561
▁résoudre	-4562
just	-4563
wise	-4564
▁bey	-4565
▁views	-4566
▁disaster	-4567
▁reconstruction	-4568
ologique	-4569
▁additional	-4570
▁lesquelles	-4571
▁circumstances	-4572
▁vit	-4573
▁goes	-4574
▁imag	-4575
▁side	-4576
▁source	-4577
▁determin	-4578
▁français	-4579
▁organised	-4580
▁populations	-4581
▁connaissance	-4582
know	-4583
▁subs	-4584
▁causes	-4585
▁prévoit	-4586
êcher	-4587
lation	-4588
▁insta	-4589
▁plann	-4590
▁senti	-4591
origine	-4592
▁properly	-4593
▁treatment	-4594
▁solidarité	-4595
aci	-4596
▁chez	-4597
▁evid	-4598
▁former	-4599
▁status	-4600
▁procéder	-4601
institution	-4602
▁responsable	-4603
rehen	-4604
▁tard	-4605
urance	-4606
ressive	-4607
▁reality	-4608
▁contrôles	-4609
▁obligation	-4610
▁près	-4611
érique	-4612
▁tabac	-4613
roy	-4614
léch	-4615
▁maje	-4616
ologie	-4617
▁israel	-4618
▁besoins	-4619
▁obtenir	-4620
▁promouv	-4621
▁essay	-4622
▁auquel	-4623
▁sometimes	-4624
▁engagement	-4625
▁disposition	-4626
▁modification	-4627
fect	-4628
▁innov	-4629
▁impression	-4630
ew	-4631
ttes	-4632
▁etc	-4633
▁syn	-4634
▁assure	-4635
▁applies	-4636
▁setting	-4637
▁intended	-4638
▁technology	-4639
▁directement	-4640
pol	-4641
gent	-4642
▁réflex	-4643
▁vision	-4644
érations	-4645
▁maximum	-4646
issements	-4647
▁creating	-4648
tics	-4649
▁fraud	-4650
▁crises	-4651
▁wanted	-4652
▁réjouis	-4653
▁reforms	-4654
▁souligné	-4655
outh	-4656
teur	-4657
vered	-4658
▁minim	-4659
▁proven	-4660
▁décharge	-4661
▁république	-4662
▁alternative	-4663
▁effectively	-4664
▁déclaré	-4665
▁sources	-4666
▁industrie	-4667
▁partenaires	-4668
bal	-4669
mploy	-4670
enge	-4671
▁perd	-4672
tation	-4673
▁chair	-4674
ématique	-4675
▁chô	-4676
▁wait	-4677
▁distin	-4678
▁statis	-4679
▁dispose	-4680
▁traiter	-4681
▁électron	-4682
communications	-4683
ark	-4684
éro	-4685
agir	-4686
ases	-4687
étés	-4688
▁pil	-4689
▁exer	-4690
▁permis	-4691
▁earlier	-4692
▁pourrons	-4693
▁standard	-4694
▁unemploy	-4695
▁pratiques	-4696
▁dispon	-4697
▁présence	-4698
▁prend	-4699
▁thème	-4700
étaires	-4701
▁advant	-4702
▁fournir	-4703
▁leaders	-4704
▁portugal	-4705
▁définition	-4706
▁association	-4707
▁renew	-4708
▁débats	-4709
▁strict	-4710
▁sweden	-4711
▁requires	-4712
▁nationale	-4713
▁promouvoir	-4714
5,	-4715
5-03	-4716
istan	-4717
▁gene	-4718
/2001)	-4719
▁malad	-4720
▁tradu	-4721
▁amélior	-4722
▁pauvreté	-4723
▁possibility	-4724
1999	-4725
autor	-4726
inted	-4727
ophob	-4728
▁prefer	-4729
▁quotas	-4730
▁définiti	-4731
▁pensions	-4732
▁beginning	-4733
▁reçu	-4734
orable	-4735
▁scand	-4736
▁morning	-4737
fications	-4738
▁décembre	-4739
▁developments	-4740
acco	-4741
odes	-4742
▁quo	-4743
▁tests	-4744
▁december	-4745
▁introduction	-4746
tte	-4747
where	-4748
itions	-4749
abilité	-4750
érience	-4751
▁arrive	-4752
▁beyond	-4753
▁accepted	-4754
▁conclure	-4755
▁explan	-4756
ological	-4757
▁legitim	-4758
▁totally	-4759
▁affected	-4760
▁naturally	-4761
▁changement	-4762
erait	-4763
▁deep	-4764
▁reme	-4765
▁matin	-4766
▁lignes	-4767
▁tobacco	-4768
▁arguments	-4769
▁committed	-4770
▁discussing	-4771
▁lu	-4772
iend	-4773
ined	-4774
▁attach	-4775
▁creation	-4776
▁supported	-4777
▁bur	-4778
▁lux	-4779
▁répar	-4780
▁spirit	-4781
▁useful	-4782
▁fishing	-4783
▁veulent	-4784
▁successful	-4785
▁humanitarian	-4786
▁responsables	-4787
br	-4788
lands	-4789
▁excep	-4790
▁turkish	-4791
▁convainc	-4792
▁atteindre	-4793
▁developed	-4794
roc	-4795
▁2,	-4796
▁gl	-4797
quées	-4798
works	-4799
▁suppr	-4800
▁design	-4801
▁created	-4802
▁pointed	-4803
▁complément	-4804
▁suffisamment	-4805
▁rom	-4806
égard	-4807
▁oubli	-4808
cemment	-4809
▁highly	-4810
▁contributions	-4811
▁1,	-4812
▁sor	-4813
▁milli	-4814
adoption	-4815
▁récemment	-4816
▁supplémentaires	-4817
fi	-4818
▁lev	-4819
ussels	-4820
▁accès	-4821
▁emerg	-4822
▁faits	-4823
▁dealing	-4824
attention	-4825
▁institutional	-4826
ège	-4827
▁idée	-4828
▁forms	-4829
▁allowed	-4830
▁faisons	-4831
▁campaign	-4832
▁sil	-4833
making	-4834
▁annual	-4835
▁challenge	-4836
▁accordance	-4837
▁self	-4838
▁wrong	-4839
▁offici	-4840
▁speech	-4841
▁directly	-4842
▁conséquence	-4843
ening	-4844
issons	-4845
▁consul	-4846
▁aborder	-4847
▁personal	-4848
▁finalement	-4849
ered	-4850
opin	-4851
▁draf	-4852
▁urge	-4853
▁cohes	-4854
▁arrang	-4855
▁stated	-4856
▁peuples	-4857
▁spécifique	-4858
▁supplement	-4859
▁implementing	-4860
imb	-4861
appr	-4862
çons	-4863
otechn	-4864
▁actuel	-4865
▁petits	-4866
▁germany	-4867
▁spécifiques	-4868
▁difficulties	-4869
▁renforcement	-4870
▁parlementaires	-4871
▁fear	-4872
▁tâche	-4873
▁accoun	-4874
▁expend	-4875
▁brussels	-4876
▁complete	-4877
▁justement	-4878
▁businesses	-4879
acy	-4880
▁dec	-4881
▁loi	-4882
èrent	-4883
▁erre	-4884
▁ways	-4885
▁catég	-4886
▁later	-4887
▁conflit	-4888
elling	-4889
▁route	-4890
▁suède	-4891
▁worth	-4892
▁disease	-4893
▁cohésion	-4894
▁consiste	-4895
▁délégation	-4896
0,	-4897
▁brux	-4898
▁suivi	-4899
▁types	-4900
▁circons	-4901
▁conserv	-4902
▁remains	-4903
▁version	-4904
▁probably	-4905
▁expenditure	-4906
▁structurels	-4907
▁féd	-4908
▁mas	-4909
exist	-4910
▁tempor	-4911
intention	-4912
2,	-4913
cin	-4914
▁separ	-4915
▁speed	-4916
▁banque	-4917
▁exactly	-4918
▁lic	-4919
▁réd	-4920
▁easi	-4921
▁exces	-4922
▁participer	-4923
▁considérable	-4924
▁dén	-4925
▁évé	-4926
▁reje	-4927
▁2001.	-4928
▁chois	-4929
▁genre	-4930
▁greece	-4931
▁medium	-4932
▁prevention	-4933
▁fondamental	-4934
▁sk	-4935
ticles	-4936
▁utile	-4937
urgence	-4938
▁events	-4939
▁mérite	-4940
▁condemn	-4941
▁demands	-4942
efficacité	-4943
▁monétaire	-4944
▁reconnaissance	-4945
▁él	-4946
▁agir	-4947
▁mars	-4948
▁fiscal	-4949
▁souhaiterais	-4950
of	-4951
mos	-4952
pir	-4953
▁neg	-4954
▁quin	-4955
▁régul	-4956
▁autrich	-4957
▁pression	-4958
/0	-4959
▁illegal	-4960
▁parfait	-4961
▁contrary	-4962
▁conscience	-4963
▁inacceptable	-4964
▁vir	-4965
▁prime	-4966
▁retard	-4967
▁function	-4968
▁pourront	-4969
▁establishing	-4970
oto	-4971
▁bad	-4972
▁tam	-4973
etary	-4974
▁faci	-4975
▁delay	-4976
▁exige	-4977
▁figure	-4978
▁lutter	-4979
▁counter	-4980
▁presque	-4981
▁cohesion	-4982
▁discuter	-4983
▁juridiques	-4984
▁opposition	-4985
▁augmentation	-4986
0.	-4987
▁berlin	-4988
▁limited	-4989
▁biotechn	-4990
▁opinions	-4991
▁déclarations	-4992
elt	-4993
uded	-4994
▁voix	-4995
▁aider	-4996
▁alone	-4997
▁decide	-4998
▁reject	-4999
▁austria	-5000
▁devront	-5001
▁partenariat	-5002
▁exac	-5003
▁traite	-5004
cks	-5005
▁har	-5006
erver	-5007
▁categ	-5008
▁shown	-5009
mination	-5010
▁chamber	-5011
▁helsinki	-5012
▁militaire	-5013
▁recognise	-5014
▁compétence	-5015
▁changements	-5016
eaux	-5017
hold	-5018
onom	-5019
▁tch	-5020
▁dign	-5021
▁bilat	-5022
▁graves	-5023
▁quanti	-5024
▁laisser	-5025
▁suggest	-5026
▁suspend	-5027
head	-5028
ourg	-5029
anges	-5030
▁avions	-5031
▁critique	-5032
▁publiques	-5033
▁resolutions	-5034
expr	-5035
▁paid	-5036
▁seek	-5037
▁soir	-5038
▁closely	-5039
▁devenir	-5040
▁raisonn	-5041
▁introduced	-5042
ump	-5043
▁damage	-5044
▁looking	-5045
▁natural	-5046
▁sociétés	-5047
▁distribution	-5048
▁dic	-5049
▁réc	-5050
ormais	-5051
▁incom	-5052
écution	-5053
▁living	-5054
▁produce	-5055
▁consolid	-5056
▁exprimer	-5057
▁accidents	-5058
▁désormais	-5059
▁permettra	-5060
▁satisfait	-5061
ino	-5062
mer	-5063
ands	-5064
▁smo	-5065
▁abou	-5066
▁étro	-5067
▁normal	-5068
▁emplois	-5069
▁bruxelles	-5070
▁consommateur	-5071
▁27	-5072
réci	-5073
▁prévu	-5074
laborer	-5075
opinion	-5076
▁bodies	-5077
▁russie	-5078
▁humains	-5079
évaluation	-5080
éti	-5081
ened	-5082
▁reply	-5083
▁aérien	-5084
▁mainly	-5085
▁articles	-5086
▁disposer	-5087
▁dangerous	-5088
▁delegation	-5089
▁engagements	-5090
▁representative	-5091
▁wat	-5092
▁gain	-5093
▁insuff	-5094
▁réseaux	-5095
▁networks	-5096
▁satisfaction	-5097
▁préoccupations	-5098
imbab	-5099
▁coher	-5100
▁noneth	-5101
▁employe	-5102
▁colleague	-5103
▁contradic	-5104
▁nonetheless	-5105
ruct	-5106
tiers	-5107
▁drug	-5108
▁retr	-5109
▁vacc	-5110
▁kyoto	-5111
▁élevé	-5112
dra	-5113
orde	-5114
▁asi	-5115
▁dealt	-5116
▁acquis	-5117
▁solana	-5118
▁monetary	-5119
▁vice	-5120
iction	-5121
entrepr	-5122
▁parlons	-5123
▁restruct	-5124
▁commitments	-5125
oine	-5126
▁gro	-5127
▁claim	-5128
▁bureau	-5129
▁zimbab	-5130
▁equality	-5131
▁instance	-5132
▁exclusive	-5133
▁producers	-5134
▁internationales	-5135
onde	-5136
ished	-5137
▁grant	-5138
▁parts	-5139
▁adopte	-5140
▁school	-5141
▁network	-5142
▁comporte	-5143
io	-5144
teen	-5145
éraux	-5146
ruption	-5147
▁interventions	-5148
▁duty	-5149
identi	-5150
▁capacity	-5151
▁meilleur	-5152
▁aver	-5153
▁fulf	-5154
▁prép	-5155
▁crimes	-5156
▁prison	-5157
▁record	-5158
▁regime	-5159
european	-5160
▁crédits	-5161
ufact	-5162
▁symp	-5163
▁famil	-5164
▁lives	-5165
▁taxes	-5166
▁verts	-5167
▁volon	-5168
▁white	-5169
▁bonnes	-5170
▁manner	-5171
▁prices	-5172
▁safegu	-5173
▁borders	-5174
▁expression	-5175
emp	-5176
▁gives	-5177
▁soulev	-5178
▁accompl	-5179
▁produced	-5180
▁utiliser	-5181
▁obstacles	-5182
▁restrictions	-5183
▁ii	-5184
anche	-5185
iency	-5186
▁démar	-5187
itaires	-5188
▁colomb	-5189
▁adoptée	-5190
▁manufact	-5191
body	-5192
▁hop	-5193
▁stip	-5194
▁known	-5195
▁learn	-5196
▁luxemb	-5197
▁postal	-5198
▁infrastructure	-5199
-2	-5200
▁bul	-5201
ically	-5202
▁early	-5203
▁leave	-5204
augment	-5205
éducation	-5206
▁comprehen	-5207
▁immédiate	-5208
ane	-5209
▁slo	-5210
▁deme	-5211
▁says	-5212
▁enorm	-5213
▁faite	-5214
▁pauvres	-5215
▁garantie	-5216
▁remember	-5217
▁maintenir	-5218
▁investissements	-5219
▁vé	-5220
crip	-5221
lace	-5222
pere	-5223
▁wid	-5224
forme	-5225
▁fera	-5226
▁vais	-5227
ctures	-5228
▁grèce	-5229
▁relatif	-5230
▁convinced	-5231
esb	-5232
ator	-5233
osed	-5234
vier	-5235
▁ech	-5236
▁body	-5237
▁vert	-5238
▁ensuring	-5239
▁disposons	-5240
▁supplémentaire	-5241
▁name	-5242
▁forte	-5243
▁intend	-5244
▁perform	-5245
▁american	-5246
▁manifest	-5247
▁provides	-5248
▁thinking	-5249
▁britannique	-5250
▁23	-5251
voir	-5252
▁pan	-5253
▁firm	-5254
▁spend	-5255
▁espère	-5256
▁matéri	-5257
▁speakers	-5258
nex	-5259
▁caused	-5260
▁espagn	-5261
▁quinze	-5262
associ	-5263
esprit	-5264
▁entit	-5265
▁longue	-5266
▁thirdly	-5267
▁taxation	-5268
▁largement	-5269
▁représentant	-5270
enn	-5271
ters	-5272
▁étudi	-5273
tically	-5274
▁desire	-5275
▁soumis	-5276
▁contact	-5277
▁limites	-5278
évolution	-5279
▁otherwise	-5280
▁bos	-5281
▁sad	-5282
▁wond	-5283
▁forum	-5284
▁chômage	-5285
▁genuine	-5286
▁zimbabwe	-5287
▁declaration	-5288
ged	-5289
iles	-5290
▁cul	-5291
▁dot	-5292
▁king	-5293
▁tampere	-5294
▁communes	-5295
▁happened	-5296
▁semaines	-5297
▁improving	-5298
▁trafficking	-5299
dle	-5300
▁mac	-5301
▁meda	-5302
▁writ	-5303
▁weeks	-5304
èvement	-5305
jud	-5306
▁span	-5307
équilib	-5308
▁activity	-5309
▁addressed	-5310
bas	-5311
▁blo	-5312
encies	-5313
▁wants	-5314
▁perfect	-5315
▁profond	-5316
▁remarques	-5317
▁transparent	-5318
inves	-5319
▁iraq	-5320
▁impose	-5321
▁concernés	-5322
▁definition	-5323
▁subsidiarity	-5324
ika	-5325
▁alli	-5326
alités	-5327
iments	-5328
▁discip	-5329
▁succeed	-5330
▁thought	-5331
▁régionale	-5332
lia	-5333
iger	-5334
ored	-5335
uter	-5336
▁délai	-5337
▁happy	-5338
landais	-5339
▁importe	-5340
▁maladie	-5341
▁analysis	-5342
▁becoming	-5343
▁emphasise	-5344
▁luxembourg	-5345
▁unemployment	-5346
reci	-5347
▁anci	-5348
▁dead	-5349
iendra	-5350
umière	-5351
▁faisant	-5352
tissement	-5353
▁critiques	-5354
▁highlight	-5355
▁sup	-5356
▁chap	-5357
▁défi	-5358
▁raise	-5359
▁steps	-5360
▁violations	-5361
▁28	-5362
▁100	-5363
▁uns	-5364
▁meps	-5365
▁cigare	-5366
▁repeat	-5367
▁législative	-5368
▁recognition	-5369
▁observations	-5370
▁rein	-5371
▁voit	-5372
▁divis	-5373
▁thous	-5374
▁asking	-5375
▁forest	-5376
▁limité	-5377
▁arriver	-5378
▁withdra	-5379
▁contains	-5380
▁évaluation	-5381
▁compensation	-5382
hér	-5383
▁fat	-5384
asile	-5385
▁vite	-5386
▁auprès	-5387
▁climate	-5388
▁appliquer	-5389
▁submitted	-5390
nels	-5391
unch	-5392
▁voy	-5393
ctric	-5394
▁décla	-5395
▁pursu	-5396
▁calend	-5397
▁mondial	-5398
▁navires	-5399
▁faites	-5400
▁penser	-5401
▁ajouter	-5402
▁commerci	-5403
▁providing	-5404
▁contribute	-5405
▁subsidiarité	-5406
6.	-5407
clusion	-5408
▁actual	-5409
▁auditors	-5410
▁remarque	-5411
▁60	-5412
▁1999.	-5413
▁ferme	-5414
▁provo	-5415
assurer	-5416
▁forget	-5417
▁leader	-5418
▁tribun	-5419
▁ul	-5420
▁plac	-5421
▁surv	-5422
▁promis	-5423
▁unable	-5424
▁billion	-5425
▁exclusion	-5426
pt	-5427
bation	-5428
▁haute	-5429
▁globale	-5430
▁humaine	-5431
▁democrats	-5432
▁reduction	-5433
▁étrangère	-5434
▁immediately	-5435
."	-5436
abs	-5437
xic	-5438
▁appear	-5439
▁closer	-5440
▁suédoise	-5441
ades	-5442
rage	-5443
▁shar	-5444
▁blanc	-5445
▁racis	-5446
▁appreci	-5447
▁combien	-5448
▁modifier	-5449
▁concrètes	-5450
▁increasingly	-5451
▁élargissement	-5452
▁abol	-5453
▁conj	-5454
▁aient	-5455
casions	-5456
▁acknow	-5457
▁famili	-5458
▁chances	-5459
▁outcome	-5460
▁original	-5461
▁proposer	-5462
▁permanent	-5463
▁rise	-5464
▁ferro	-5465
▁welcom	-5466
▁décider	-5467
▁initial	-5468
▁réfléch	-5469
immigration	-5470
▁comprehensive	-5471
cale	-5472
▁kar	-5473
▁drawn	-5474
▁heureux	-5475
▁envoy	-5476
▁goods	-5477
▁chemin	-5478
▁établi	-5479
▁définir	-5480
▁ferrovi	-5481
▁willing	-5482
▁seraient	-5483
▁surveill	-5484
▁industrial	-5485
▁wto	-5486
▁garan	-5487
▁occur	-5488
umption	-5489
uration	-5490
▁presse	-5491
▁russia	-5492
itations	-5493
▁niveaux	-5494
▁argument	-5495
▁exchange	-5496
▁criticism	-5497
▁delighted	-5498
▁milliards	-5499
▁improvement	-5500
▁reconnaître	-5501
▁utilisation	-5502
),	-5503
loy	-5504
roî	-5505
endum	-5506
ueill	-5507
▁énor	-5508
▁grounds	-5509
▁suivante	-5510
▁occasions	-5511
▁installations	-5512
▁constitutional	-5513
org	-5514
ival	-5515
▁espace	-5516
▁compati	-5517
▁scientifique	-5518
uls	-5519
▁fal	-5520
▁lac	-5521
▁achie	-5522
▁actes	-5523
▁champ	-5524
▁viens	-5525
ouverture	-5526
▁implications	-5527
▁relationship	-5528
ec	-5529
▁bov	-5530
▁led	-5531
ports	-5532
▁weak	-5533
▁spain	-5534
▁calling	-5535
▁neither	-5536
▁défendre	-5537
▁nucléaire	-5538
▁conventions	-5539
enh	-5540
atif	-5541
▁whom	-5542
▁domes	-5543
▁durant	-5544
▁entièrement	-5545
pré	-5546
sec	-5547
▁bou	-5548
▁pun	-5549
▁répé	-5550
border	-5551
▁monna	-5552
▁dirige	-5553
▁esprit	-5554
▁insist	-5555
▁parlia	-5556
▁informed	-5557
▁interven	-5558
▁reprises	-5559
▁excessive	-5560
▁financing	-5561
▁parliaments	-5562
ague	-5563
▁shows	-5564
▁classi	-5565
▁fraude	-5566
▁envisage	-5567
▁réaliser	-5568
▁terminer	-5569
▁évolution	-5570
▁souhaitons	-5571
▁communities	-5572
▁électronique	-5573
▁recommendation	-5574
▁pér	-5575
itent	-5576
rophe	-5577
▁enqu	-5578
▁liés	-5579
▁mobil	-5580
▁study	-5581
▁announ	-5582
▁marchand	-5583
▁protocol	-5584
▁soutiens	-5585
▁consommation	-5586
ón	-5587
ocks	-5588
▁moroc	-5589
▁chocol	-5590
▁envers	-5591
▁middle	-5592
▁sujets	-5593
▁kingdom	-5594
▁limiter	-5595
▁logique	-5596
▁improved	-5597
vc	-5598
▁dram	-5599
▁maroc	-5600
▁promot	-5601
▁spanish	-5602
▁emissions	-5603
▁introduce	-5604
▁involving	-5605
ys	-5606
▁31	-5607
▁paci	-5608
▁susc	-5609
▁enfor	-5610
▁postp	-5611
atoires	-5612
▁recours	-5613
▁politici	-5614
▁principal	-5615
▁catastrophe	-5616
▁37	-5617
aisse	-5618
inding	-5619
▁explic	-5620
▁mandat	-5621
▁covered	-5622
▁methods	-5623
▁adhésion	-5624
▁exercise	-5625
▁reasonable	-5626
▁recognised	-5627
isé	-5628
oure	-5629
iving	-5630
onner	-5631
▁annon	-5632
▁dépos	-5633
▁heart	-5634
▁ideas	-5635
▁dépass	-5636
▁january	-5637
▁tourism	-5638
▁gé	-5639
▁pes	-5640
quant	-5641
▁acqu	-5642
▁tunis	-5643
▁visit	-5644
ighbour	-5645
▁avaient	-5646
▁judiciaire	-5647
ok	-5648
lique	-5649
entrer	-5650
▁china	-5651
▁janvier	-5652
▁simplif	-5653
▁benefits	-5654
▁constate	-5655
▁language	-5656
▁neighbour	-5657
▁substance	-5658
ade	-5659
son	-5660
▁burd	-5661
▁plén	-5662
▁quels	-5663
▁souci	-5664
chement	-5665
essions	-5666
▁législ	-5667
▁serbia	-5668
ury	-5669
jout	-5670
▁lik	-5671
outes	-5672
▁couv	-5673
▁paraît	-5674
▁protoc	-5675
améliorer	-5676
▁attendre	-5677
▁bla	-5678
après	-5679
▁aband	-5680
▁stade	-5681
▁accident	-5682
▁constant	-5683
▁critical	-5684
▁currency	-5685
▁enormous	-5686
▁libertés	-5687
▁probablement	-5688
▁compétitivité	-5689
▁fonctionnaires	-5690
anci	-5691
lait	-5692
▁mai	-5693
▁tru	-5694
▁conclude	-5695
▁implique	-5696
▁portugaise	-5697
ére	-5698
▁4,	-5699
onia	-5700
▁fab	-5701
explo	-5702
▁2004	-5703
uelles	-5704
▁calls	-5705
▁fasse	-5706
▁rappro	-5707
uellement	-5708
▁supporting	-5709
▁communications	-5710
ef	-5711
▁chine	-5712
ocrates	-5713
▁history	-5714
▁package	-5715
▁revenir	-5716
▁ambitious	-5717
▁existence	-5718
▁interesting	-5719
▁démocratiques	-5720
roph	-5721
▁pvc	-5722
▁easy	-5723
▁laws	-5724
▁offre	-5725
▁plain	-5726
▁tient	-5727
▁agency	-5728
▁anyone	-5729
▁accorder	-5730
▁balanced	-5731
▁agricoles	-5732
▁exploitation	-5733
▁té	-5734
cupe	-5735
▁pét	-5736
▁near	-5737
▁told	-5738
tition	-5739
▁board	-5740
▁round	-5741
▁examine	-5742
▁contraign	-5743
▁parlements	-5744
hon	-5745
active	-5746
▁multip	-5747
▁company	-5748
▁discours	-5749
▁législatif	-5750
▁budgétaires	-5751
▁arms	-5752
verbal	-5753
▁surely	-5754
▁supports	-5755
▁demandons	-5756
▁soutenons	-5757
▁differences	-5758
exc	-5759
rière	-5760
▁mouve	-5761
▁wishes	-5762
▁debates	-5763
▁concrete	-5764
▁collective	-5765
▁orientations	-5766
rant	-5767
▁pertin	-5768
▁conduct	-5769
▁montrer	-5770
▁réalisé	-5771
▁négociation	-5772
▁scientifiques	-5773
hab	-5774
▁80	-5775
cisive	-5776
▁forth	-5777
▁higher	-5778
▁spécial	-5779
▁cohérence	-5780
udissements	-5781
▁industries	-5782
▁modifications	-5783
ché	-5784
▁jo	-5785
▁tort	-5786
ateful	-5787
ennent	-5788
▁credi	-5789
▁irish	-5790
aujourd	-5791
▁délais	-5792
▁extend	-5793
▁challeng	-5794
▁elements	-5795
▁âg	-5796
▁deg	-5797
crire	-5798
▁oral	-5799
ducing	-5800
▁hence	-5801
▁noise	-5802
▁sépar	-5803
▁merely	-5804
▁analyse	-5805
▁attempt	-5806
▁ouverte	-5807
▁strategic	-5808
▁bénéficier	-5809
▁précaution	-5810
▁amélioration	-5811
▁pac	-5812
▁june	-5813
called	-5814
▁atten	-5815
▁tasks	-5816
▁devait	-5817
▁wonder	-5818
▁avancer	-5819
▁building	-5820
▁plénière	-5821
▁réalisation	-5822
zed	-5823
êtres	-5824
▁stim	-5825
▁america	-5826
▁describ	-5827
▁precaution	-5828
▁parfaitement	-5829
ids	-5830
ores	-5831
▁oui	-5832
unité	-5833
▁beef	-5834
▁juin	-5835
pected	-5836
▁cohér	-5837
▁prêts	-5838
▁detail	-5839
▁autonom	-5840
▁exprimé	-5841
▁efficiency	-5842
▁convergence	-5843
ung	-5844
cour	-5845
▁ong	-5846
▁mots	-5847
▁nato	-5848
▁suffit	-5849
▁reinfor	-5850
▁reprise	-5851
▁établir	-5852
▁matières	-5853
▁safeguard	-5854
ows	-5855
xim	-5856
mark	-5857
▁bat	-5858
engen	-5859
▁brok	-5860
▁chem	-5861
▁prét	-5862
▁floor	-5863
▁border	-5864
▁absence	-5865
▁entreprise	-5866
▁appropriations	-5867
▁3,	-5868
▁90	-5869
▁fas	-5870
▁added	-5871
▁armes	-5872
▁crédi	-5873
▁compos	-5874
▁réussi	-5875
▁accompli	-5876
▁grateful	-5877
▁extension	-5878
ël	-5879
▁pied	-5880
tering	-5881
▁aurons	-5882
▁croati	-5883
▁départ	-5884
▁figures	-5885
▁terrain	-5886
▁carefully	-5887
▁prochaines	-5888
▁progressive	-5889
mid	-5890
aste	-5891
fond	-5892
▁ine	-5893
▁stu	-5894
▁lour	-5895
▁breve	-5896
▁argent	-5897
▁capable	-5898
▁centres	-5899
▁finland	-5900
existence	-5901
ification	-5902
▁maintien	-5903
▁rejected	-5904
▁schengen	-5905
▁souligne	-5906
▁confusion	-5907
▁constituer	-5908
▁efficacité	-5909
▁intervenir	-5910
▁recommandation	-5911
bur	-5912
cap	-5913
▁seuls	-5914
▁additi	-5915
▁médias	-5916
▁granted	-5917
▁monnaie	-5918
▁proposes	-5919
▁tourisme	-5920
▁intentions	-5921
▁étrangères	-5922
▁surveillance	-5923
(2	-5924
hr	-5925
igu	-5926
ians	-5927
acter	-5928
ismes	-5929
▁echo	-5930
▁mista	-5931
▁serve	-5932
▁option	-5933
▁élabor	-5934
▁reducing	-5935
▁sensitive	-5936
▁competitive	-5937
cas	-5938
▁decla	-5939
▁remet	-5940
▁élarg	-5941
tisation	-5942
▁soutient	-5943
▁événements	-5944
▁establishment	-5945
unt	-5946
▁véhic	-5947
▁limite	-5948
▁montant	-5949
▁putting	-5950
▁approval	-5951
▁judicial	-5952
▁réaction	-5953
▁officials	-5954
▁réflexion	-5955
nés	-5956
rai	-5957
esses	-5958
▁vive	-5959
▁entam	-5960
▁factor	-5961
▁minute	-5962
▁serbie	-5963
▁protest	-5964
▁réserve	-5965
▁novembre	-5966
▁signaler	-5967
▁évidence	-5968
▁achieving	-5969
▁qualified	-5970
▁violation	-5971
▁considérer	-5972
▁statements	-5973
▁représentent	-5974
ugos	-5975
lines	-5976
riers	-5977
▁gave	-5978
▁lines	-5979
▁assemb	-5980
▁accepté	-5981
▁devrons	-5982
▁enterpr	-5983
▁speaker	-5984
▁approuvé	-5985
▁méthodes	-5986
▁november	-5987
▁pouvoirs	-5988
▁exceptions	-5989
intervention	-5990
des	-5991
ular	-5992
vais	-5993
▁siè	-5994
isées	-5995
▁news	-5996
ugoslav	-5997
▁racism	-5998
▁renouve	-5999
▁adequate	-6000
▁controls	-6001
▁communautés	-6002
▁troisièmement	-6003
▁personnellement	-6004
eté	-6005
▁1.	-6006
▁dig	-6007
illed	-6008
▁laid	-6009
▁frais	-6010
▁gradu	-6011
▁moindre	-6012
arification	-6013
introduction	-6014
▁humanitaire	-6015
orie	-6016
▁vehic	-6017
▁beings	-6018
▁please	-6019
▁elected	-6020
▁caractér	-6021
▁empêcher	-6022
▁character	-6023
▁émissions	-6024
▁competitiveness	-6025
▁recommendations	-6026
50	-6027
ipe	-6028
pro	-6029
▁22	-6030
êter	-6031
▁came	-6032
▁caus	-6033
▁déli	-6034
▁meat	-6035
▁recy	-6036
▁incon	-6037
▁famille	-6038
▁monopol	-6039
▁opposed	-6040
▁yugoslav	-6041
▁advantage	-6042
▁substantial	-6043
ift	-6044
acio	-6045
tity	-6046
▁vul	-6047
▁barc	-6048
▁mauvais	-6049
▁entirely	-6050
▁efficaces	-6051
lying	-6052
▁clon	-6053
▁prud	-6054
lables	-6055
▁ahead	-6056
▁servir	-6057
▁worked	-6058
atically	-6059
▁involve	-6060
▁examiner	-6061
▁protocole	-6062
▁extraordin	-6063
▁personally	-6064
▁arrangements	-6065
▁infrastructures	-6066
...	-6067
éle	-6068
▁ult	-6069
agers	-6070
tedly	-6071
▁coût	-6072
▁symb	-6073
▁tirer	-6074
▁évoqué	-6075
▁estimons	-6076
▁flexible	-6077
▁payments	-6078
▁comprends	-6079
enue	-6080
eter	-6081
▁gas	-6082
▁hyp	-6083
▁proc	-6084
▁susp	-6085
afrique	-6086
▁limits	-6087
▁recour	-6088
▁manifes	-6089
▁activité	-6090
▁chiffres	-6091
▁méditerrané	-6092
▁principalement	-6093
vic	-6094
ficit	-6095
tenir	-6096
urent	-6097
rontal	-6098
▁fonde	-6099
encontre	-6100
▁section	-6101
▁evidence	-6102
engagement	-6103
▁militaires	-6104
roi	-6105
enci	-6106
aries	-6107
intes	-6108
▁codé	-6109
▁vaut	-6110
anding	-6111
examen	-6112
inguis	-6113
▁cooper	-6114
▁retour	-6115
▁réelle	-6116
▁binding	-6117
▁getting	-6118
▁racisme	-6119
▁reduced	-6120
▁seeking	-6121
▁autorité	-6122
▁insister	-6123
▁transfrontal	-6124
▁precautionary	-6125
▁enh	-6126
▁hor	-6127
▁isol	-6128
▁ngos	-6129
▁annex	-6130
▁trust	-6131
▁travel	-6132
▁unless	-6133
▁appréci	-6134
▁capitaux	-6135
▁autrement	-6136
romp	-6137
chler	-6138
▁italy	-6139
triment	-6140
▁charges	-6141
▁fischler	-6142
▁operation	-6143
▁pourrions	-6144
▁équilibre	-6145
▁essentiels	-6146
mon	-6147
▁ola	-6148
▁scr	-6149
▁goal	-6150
▁lanc	-6151
▁tackle	-6152
▁tonnes	-6153
▁détaill	-6154
▁transit	-6155
▁vouloir	-6156
▁adopting	-6157
▁rappelle	-6158
▁attendons	-6159
▁fortement	-6160
▁labelling	-6161
▁organisée	-6162
▁calendrier	-6163
▁subventions	-6164
uler	-6165
tices	-6166
▁tool	-6167
▁signed	-6168
▁auxquels	-6169
▁convaincu	-6170
élaboration	-6171
▁immigrants	-6172
amélioration	-6173
▁raisonnable	-6174
▁globalisation	-6175
▁[	-6176
▁ig	-6177
▁phy	-6178
▁cust	-6179
▁olaf	-6180
▁mines	-6181
alistic	-6182
▁appears	-6183
▁palacio	-6184
▁justified	-6185
▁corruption	-6186
▁principaux	-6187
hum	-6188
vere	-6189
▁dét	-6190
▁num	-6191
▁aims	-6192
affirm	-6193
▁faible	-6194
▁defined	-6195
▁effectu	-6196
▁western	-6197
▁represents	-6198
▁essentielle	-6199
▁préoccupation	-6200
▁recommandations	-6201
▁gaz	-6202
oblig	-6203
trent	-6204
▁wall	-6205
espace	-6206
▁chefs	-6207
▁macéd	-6208
ignement	-6209
imentation	-6210
atta	-6211
▁flag	-6212
▁send	-6213
▁idées	-6214
▁rempl	-6215
èlement	-6216
èrement	-6217
▁auront	-6218
▁dictat	-6219
▁letter	-6220
▁suédois	-6221
▁énergie	-6222
▁complexe	-6223
▁contract	-6224
▁freedoms	-6225
▁flexibility	-6226
▁undertaking	-6227
▁marchandises	-6228
▁fle	-6229
▁doll	-6230
▁mutual	-6231
▁growing	-6232
▁related	-6233
▁opération	-6234
ye	-6235
uth	-6236
ding	-6237
▁enj	-6238
▁alco	-6239
▁phén	-6240
▁vari	-6241
▁concré	-6242
▁eastern	-6243
▁demandes	-6244
▁diverses	-6245
▁entendre	-6246
▁generally	-6247
▁stabilisation	-6248
astr	-6249
atte	-6250
iant	-6251
▁hos	-6252
sized	-6253
vative	-6254
▁truly	-6255
▁attrib	-6256
▁proche	-6257
▁retire	-6258
▁stocks	-6259
▁detailed	-6260
▁combating	-6261
▁distinction	-6262
ba	-6263
arch	-6264
▁sinc	-6265
rement	-6266
▁ajout	-6267
▁bound	-6268
▁citer	-6269
▁spent	-6270
▁phénom	-6271
▁linguis	-6272
▁revient	-6273
▁uniform	-6274
▁promoting	-6275
ibl	-6276
oct	-6277
cées	-6278
hors	-6279
olue	-6280
▁igc	-6281
atifs	-6282
raine	-6283
▁plais	-6284
▁ready	-6285
irlande	-6286
▁burden	-6287
▁formes	-6288
▁menace	-6289
▁suppose	-6290
▁dangereux	-6291
▁populaire	-6292
▁codécision	-6293
▁concernées	-6294
là	-6295
rie	-6296
▁inu	-6297
agner	-6298
auche	-6299
▁bomb	-6300
▁cult	-6301
▁dest	-6302
▁loss	-6303
adress	-6304
▁étape	-6305
itement	-6306
▁calcul	-6307
▁erreur	-6308
▁laisse	-6309
▁précise	-6310
honorable	-6311
▁happening	-6312
▁associations	-6313
▁immédiatement	-6314
▁understanding	-6315
-200	-6316
itié	-6317
▁weap	-6318
▁illég	-6319
▁maced	-6320
▁menac	-6321
▁forced	-6322
▁totale	-6323
▁encourager	-6324
dr	-6325
▁conven	-6326
▁propri	-6327
▁compagn	-6328
▁connaît	-6329
▁occident	-6330
▁bö	-6331
aluer	-6332
anced	-6333
habit	-6334
▁abst	-6335
▁eaux	-6336
▁lois	-6337
▁mass	-6338
▁cinqu	-6339
▁fixer	-6340
▁sides	-6341
▁appeal	-6342
▁launch	-6343
exprimer	-6344
▁interpr	-6345
▁portant	-6346
▁silence	-6347
▁includes	-6348
5.	-6349
isté	-6350
isés	-6351
lles	-6352
▁rac	-6353
▁accr	-6354
▁kinn	-6355
▁ethnic	-6356
▁facilit	-6357
▁kinnock	-6358
▁managed	-6359
▁publish	-6360
▁contient	-6361
▁incin	-6362
▁payer	-6363
▁degree	-6364
▁lastly	-6365
▁deliver	-6366
▁campagne	-6367
▁designed	-6368
▁negative	-6369
▁reaction	-6370
▁conflicts	-6371
▁interdiction	-6372
oon	-6373
▁assume	-6374
▁compré	-6375
▁montré	-6376
▁vendre	-6377
amsterdam	-6378
▁proposing	-6379
▁territory	-6380
▁committees	-6381
hib	-6382
uds	-6383
énie	-6384
▁nul	-6385
▁lost	-6386
▁indire	-6387
▁lettre	-6388
▁prosec	-6389
▁envisag	-6390
▁failure	-6391
▁langues	-6392
▁persons	-6393
▁circonst	-6394
▁diversité	-6395
▁subsidies	-6396
ush	-6397
lais	-6398
ober	-6399
mples	-6400
▁ones	-6401
▁apart	-6402
▁comit	-6403
ditions	-6404
▁interm	-6405
▁october	-6406
▁oublier	-6407
▁targets	-6408
exécution	-6409
▁meetings	-6410
▁concernent	-6411
▁exactement	-6412
▁règlements	-6413
▁internationaux	-6414
öm	-6415
/01	-6416
▁bâ	-6417
ball	-6418
tröm	-6419
▁bir	-6420
▁cred	-6421
▁mains	-6422
▁range	-6423
▁voulu	-6424
▁choice	-6425
▁secure	-6426
▁mandate	-6427
▁remplac	-6428
▁sympath	-6429
ologiques	-6430
▁guarantees	-6431
▁modernisation	-6432
obre	-6433
▁ina	-6434
▁moz	-6435
iting	-6436
pérer	-6437
▁debt	-6438
▁advoc	-6439
▁enjoy	-6440
▁maxim	-6441
▁rencon	-6442
▁changer	-6443
▁aliments	-6444
▁assembly	-6445
▁avantages	-6446
▁satisfais	-6447
oda	-6448
alism	-6449
▁late	-6450
▁adapt	-6451
▁heads	-6452
▁vigil	-6453
▁notion	-6454
▁acteurs	-6455
▁minorités	-6456
▁renforcée	-6457
▁meilleures	-6458
▁hy	-6459
▁diox	-6460
▁référ	-6461
▁pronon	-6462
▁ressor	-6463
▁century	-6464
▁changed	-6465
équilibre	-6466
▁réponses	-6467
▁qualifiée	-6468
▁préparation	-6469
gm	-6470
prus	-6471
oboda	-6472
tagne	-6473
verse	-6474
▁mode	-6475
▁modes	-6476
▁revêt	-6477
absence	-6478
▁humain	-6479
▁peoples	-6480
▁swoboda	-6481
ornograph	-6482
▁milliers	-6483
▁regrette	-6484
▁précédent	-6485
▁confidenti	-6486
zo	-6487
ipp	-6488
ots	-6489
ènes	-6490
▁chin	-6491
▁règle	-6492
▁voire	-6493
▁porter	-6494
▁afrique	-6495
▁citizen	-6496
▁irlande	-6497
▁families	-6498
▁approuver	-6499
▁insurance	-6500
▁historique	-6501
interdiction	-6502
effe	-6503
what	-6504
▁ouv	-6505
▁wit	-6506
▁femme	-6507
▁récla	-6508
▁moving	-6509
▁patent	-6510
▁siècle	-6511
▁europol	-6512
▁prospect	-6513
▁liability	-6514
▁guaranteed	-6515
▁26	-6516
▁mc	-6517
ired	-6518
undi	-6519
▁cab	-6520
chent	-6521
accent	-6522
▁appla	-6523
▁pollu	-6524
▁ultim	-6525
▁mozamb	-6526
▁italian	-6527
▁passage	-6528
▁chairman	-6529
▁privatis	-6530
▁september	-6531
▁différences	-6532
établissement	-6533
dém	-6534
rég	-6535
illet	-6536
▁appu	-6537
▁quan	-6538
europé	-6539
▁physi	-6540
▁salue	-6541
▁timet	-6542
▁partout	-6543
▁profiter	-6544
▁trouvent	-6545
▁perfectly	-6546
▁septembre	-6547
▁différence	-6548
adap	-6549
long	-6550
nant	-6551
▁201	-6552
elson	-6553
▁abil	-6554
▁bosn	-6555
▁cess	-6556
▁vill	-6557
▁2001,	-6558
▁custom	-6559
▁cyprus	-6560
▁disapp	-6561
▁obtenu	-6562
▁supply	-6563
▁existent	-6564
▁insuffis	-6565
▁médiateur	-6566
▁regrettable	-6567
3.	-6568
ya	-6569
enus	-6570
▁jeu	-6571
▁pie	-6572
▁rad	-6573
eness	-6574
▁dépl	-6575
actory	-6576
▁persu	-6577
▁valid	-6578
▁series	-6579
activité	-6580
▁evening	-6581
▁seconde	-6582
▁complain	-6583
▁minority	-6584
▁garanties	-6585
▁membership	-6586
▁réglementations	-6587
mé	-6588
▁os	-6589
vant	-6590
stuff	-6591
▁fine	-6592
aliser	-6593
alisme	-6594
excell	-6595
▁interne	-6596
▁resolve	-6597
▁complète	-6598
▁strongly	-6599
▁favoriser	-6600
▁codecision	-6601
▁destruction	-6602
▁résolutions	-6603
▁contradiction	-6604
irme	-6605
aison	-6606
ouvez	-6607
▁pill	-6608
▁secr	-6609
▁works	-6610
▁complè	-6611
▁visite	-6612
▁amongst	-6613
▁complic	-6614
▁illustr	-6615
▁reflect	-6616
▁financer	-6617
▁préparer	-6618
▁starting	-6619
▁confrontés	-6620
▁participate	-6621
nier	-6622
ritz	-6623
cally	-6624
llect	-6625
▁club	-6626
▁témo	-6627
arritz	-6628
ensive	-6629
▁incomp	-6630
▁invite	-6631
▁augmenter	-6632
▁sérieusement	-6633
dis	-6634
anch	-6635
▁cot	-6636
▁sla	-6637
▁iden	-6638
▁migr	-6639
▁warm	-6640
▁belong	-6641
▁clause	-6642
▁bringing	-6643
▁greatest	-6644
▁sentiment	-6645
▁catastroph	-6646
▁répartition	-6647
))	-6648
rne	-6649
isée	-6650
tidi	-6651
▁yes	-6652
istre	-6653
▁acte	-6654
▁byrne	-6655
▁drugs	-6656
▁terri	-6657
▁urban	-6658
▁textes	-6659
▁clarify	-6660
▁morocco	-6661
fr	-6662
ik	-6663
mise	-6664
▁pse	-6665
▁heav	-6666
quetage	-6667
▁refuse	-6668
▁thèmes	-6669
▁imposer	-6670
exclusion	-6671
▁biarritz	-6672
▁revanche	-6673
▁premières	-6674
▁continuing	-6675
▁requirement	-6676
vo	-6677
▁pi	-6678
isms	-6679
tiles	-6680
▁quar	-6681
▁puiss	-6682
▁rendu	-6683
▁ships	-6684
▁annuel	-6685
▁nether	-6686
▁ouvert	-6687
▁opening	-6688
▁cultures	-6689
▁intellect	-6690
▁interested	-6691
▁netherlands	-6692
)]	-6693
▁29	-6694
oned	-6695
▁sid	-6696
osevic	-6697
unanim	-6698
ancement	-6699
▁approve	-6700
▁parents	-6701
▁challenges	-6702
ns	-6703
ilst	-6704
ogne	-6705
▁tôt	-6706
▁mult	-6707
▁saur	-6708
▁préal	-6709
▁petite	-6710
▁postes	-6711
▁stipul	-6712
▁whilst	-6713
▁pouvait	-6714
▁quotidi	-6715
▁examples	-6716
car	-6717
née	-6718
anda	-6719
general	-6720
établir	-6721
▁pouvez	-6722
▁realise	-6723
▁retrait	-6724
appliquer	-6725
▁ambition	-6726
▁football	-6727
▁incident	-6728
▁languages	-6729
▁milosevic	-6730
▁dirigeants	-6731
▁britanniques	-6732
investissement	-6733
▁supplementary	-6734
applaudissements	-6735
med	-6736
▁%.	-6737
usse	-6738
▁mos	-6739
itage	-6740
▁plur	-6741
▁stri	-6742
▁faced	-6743
▁briefly	-6744
▁locales	-6745
▁soutenu	-6746
▁proposée	-6747
▁withdraw	-6748
▁connaître	-6749
▁socialist	-6750
▁applicable	-6751
▁cigarettes	-6752
▁integrated	-6753
▁forthcoming	-6754
ril	-6755
▁lam	-6756
risti	-6757
▁yougos	-6758
unanimité	-6759
▁contacts	-6760
▁finances	-6761
▁moyennes	-6762
▁universal	-6763
▁evaluation	-6764
▁consequently	-6765
ugh	-6766
harm	-6767
▁joue	-6768
issait	-6769
▁liées	-6770
▁multi	-6771
▁réuss	-6772
▁utilisé	-6773
▁entitled	-6774
▁extended	-6775
▁diversity	-6776
▁employees	-6777
▁renewable	-6778
ministration	-6779
▁involvement	-6780
▁alimentaires	-6781
▁ratification	-6782
▁essentiellement	-6783
orse	-6784
urde	-6785
vaise	-6786
▁bann	-6787
▁slow	-6788
▁numer	-6789
▁poids	-6790
▁solve	-6791
▁basque	-6792
▁facile	-6793
▁nielson	-6794
▁reprodu	-6795
▁electron	-6796
▁espagnol	-6797
▁followed	-6798
▁missions	-6799
▁somewhat	-6800
▁extensive	-6801
▁présentée	-6802
▁palestinian	-6803
îne	-6804
▁6,	-6805
▁ut	-6806
llig	-6807
wide	-6808
▁omb	-6809
▁tib	-6810
estim	-6811
fique	-6812
▁fins	-6813
▁sett	-6814
▁sole	-6815
▁thor	-6816
▁juris	-6817
▁sembl	-6818
▁moitié	-6819
▁fifteen	-6820
▁orateurs	-6821
association	-6822
ugg	-6823
serv	-6824
sias	-6825
harmon	-6826
intern	-6827
▁accus	-6828
▁cesse	-6829
▁intends	-6830
▁massive	-6831
▁started	-6832
▁faciliter	-6833
▁respected	-6834
▁mechanisms	-6835
▁operations	-6836
▁protecting	-6837
▁flexibilité	-6838
enf	-6839
hne	-6840
set	-6841
ghan	-6842
iées	-6843
kers	-6844
▁197	-6845
▁lif	-6846
illon	-6847
▁hund	-6848
▁july	-6849
▁lies	-6850
▁mine	-6851
▁semb	-6852
▁êtes	-6853
▁radic	-6854
▁défend	-6855
▁parall	-6856
▁scheme	-6857
▁attirer	-6858
▁hundred	-6859
▁juillet	-6860
▁humaines	-6861
▁vivement	-6862
▁puissions	-6863
▁véhicules	-6864
▁concentrer	-6865
▁correctement	-6866
▁mun	-6867
▁connu	-6868
applause	-6869
▁journal	-6870
▁railway	-6871
▁distance	-6872
▁planning	-6873
▁resolved	-6874
▁operators	-6875
▁supprimer	-6876
▁mécanismes	-6877
inty	-6878
érée	-6879
▁tac	-6880
▁bout	-6881
▁réta	-6882
▁verh	-6883
tainty	-6884
éviter	-6885
▁1998,	-6886
▁amoun	-6887
▁barón	-6888
▁conce	-6889
▁image	-6890
quested	-6891
▁ombuds	-6892
▁propag	-6893
▁recycl	-6894
▁ability	-6895
▁criticis	-6896
▁practices	-6897
▁requested	-6898
▁thousands	-6899
exploitation	-6900
icy	-6901
omc	-6902
▁70	-6903
▁valu	-6904
▁wide	-6905
atever	-6906
▁motiv	-6907
▁prove	-6908
▁examen	-6909
▁facing	-6910
▁identi	-6911
▁néglig	-6912
autorité	-6913
▁weapons	-6914
▁expected	-6915
▁mauvaise	-6916
▁whatever	-6917
▁contrôler	-6918
▁poursuite	-6919
▁consumption	-6920
▁obligatoire	-6921
tise	-6922
▁apr	-6923
▁rej	-6924
/00):	-6925
cepti	-6926
enary	-6927
opoul	-6928
▁bref	-6929
▁poet	-6930
▁refl	-6931
stuffs	-6932
▁class	-6933
▁mises	-6934
▁procla	-6935
▁puisqu	-6936
▁endorse	-6937
▁leading	-6938
▁penalty	-6939
▁witness	-6940
▁director	-6941
▁démarche	-6942
▁mobilité	-6943
▁thorough	-6944
▁continued	-6945
▁envisager	-6946
informations	-6947
▁professional	-6948
▁issu	-6949
▁volu	-6950
existe	-6951
tained	-6952
▁indiqué	-6953
▁profits	-6954
▁russian	-6955
▁égalité	-6956
▁finlande	-6957
▁continues	-6958
▁fu	-6959
uits	-6960
▁lan	-6961
▁gros	-6962
export	-6963
tables	-6964
▁april	-6965
▁durée	-6966
▁futur	-6967
▁afford	-6968
▁failed	-6969
▁manage	-6970
▁plaisir	-6971
▁réserves	-6972
tification	-6973
▁suffering	-6974
▁précédente	-6975
▁disponibles	-6976
▁stratégique	-6977
▁fondamentale	-6978
ilos	-6979
▁intol	-6980
▁résid	-6981
▁comply	-6982
▁elimin	-6983
▁fabric	-6984
▁multin	-6985
▁submit	-6986
▁touche	-6987
▁barnier	-6988
▁détails	-6989
▁factors	-6990
▁plenary	-6991
▁conduite	-6992
▁immediate	-6993
▁réfléchir	-6994
▁multinational	-6995
aud	-6996
lez	-6997
▁5,	-6998
enez	-6999
lies	-7000
▁bol	-7001
▁dél	-7002
▁ende	-7003
▁banan	-7004
▁domin	-7005
centage	-7006
▁margin	-7007
agissant	-7008
▁vehicles	-7009
▁viennent	-7010
▁déterminer	-7011
▁mozambique	-7012
▁présidents	-7013
▁télévision	-7014
▁écologique	-7015
ki	-7016
olaf	-7017
étch	-7018
▁ara	-7019
▁écr	-7020
emark	-7021
▁enth	-7022
entiel	-7023
▁2002.	-7024
▁coord	-7025
▁talks	-7026
▁tried	-7027
▁vérif	-7028
échange	-7029
▁endeav	-7030
▁fourth	-7031
▁greens	-7032
▁disposi	-7033
▁equally	-7034
▁domestic	-7035
▁separate	-7036
▁générales	-7037
▁legitimate	-7038
administration	-7039
▁fondamentales	-7040
ara	-7041
inv	-7042
pay	-7043
▁fla	-7044
▁sév	-7045
ctifs	-7046
trait	-7047
▁prohib	-7048
▁denmark	-7049
▁regular	-7050
▁restent	-7051
▁northern	-7052
▁combattre	-7053
ilt	-7054
hist	-7055
otan	-7056
ercus	-7057
▁amen	-7058
▁hors	-7059
▁stra	-7060
mpleur	-7061
▁colon	-7062
▁knows	-7063
▁moder	-7064
▁worse	-7065
▁copenh	-7066
▁portée	-7067
▁aurions	-7068
▁farming	-7069
▁tchétch	-7070
▁danemark	-7071
▁repeated	-7072
▁revision	-7073
▁innovation	-7074
▁permettent	-7075
▁improvements	-7076
ral	-7077
appe	-7078
éral	-7079
▁nour	-7080
▁defend	-7081
▁lancer	-7082
▁linked	-7083
▁sexual	-7084
▁communi	-7085
▁ressort	-7086
▁volonta	-7087
▁rational	-7088
▁emergency	-7089
▁interpret	-7090
▁consistent	-7091
▁electronic	-7092
▁minorities	-7093
▁observation	-7094
▁suppression	-7095
▁efficacement	-7096
▁clarification	-7097
▁renouvelables	-7098
ini	-7099
▁pati	-7100
▁aimed	-7101
▁bases	-7102
▁break	-7103
▁poste	-7104
▁déposé	-7105
▁placed	-7106
▁symbol	-7107
▁lumière	-7108
▁prolong	-7109
▁numerous	-7110
▁auxquelles	-7111
▁politicians	-7112
▁concrètement	-7113
.)	-7114
▁bri	-7115
▁jap	-7116
▁erika	-7117
▁roman	-7118
▁depart	-7119
▁income	-7120
▁oppose	-7121
▁passed	-7122
obligation	-7123
▁ombudsman	-7124
▁difficiles	-7125
▁nucléaires	-7126
▁poettering	-7127
▁progresser	-7128
▁regulatory	-7129
▁manufacturer	-7130
▁classification	-7131
aucun	-7132
timis	-7133
▁frid	-7134
▁pous	-7135
roître	-7136
cription	-7137
▁octobre	-7138
▁relativement	-7139
ert	-7140
▁idé	-7141
rième	-7142
▁taxe	-7143
ground	-7144
▁démon	-7145
▁greek	-7146
▁injus	-7147
▁exists	-7148
▁alcohol	-7149
▁britain	-7150
▁auraient	-7151
▁produire	-7152
▁existantes	-7153
▁commissaires	-7154
▁î	-7155
lan	-7156
uted	-7157
based	-7158
eugen	-7159
▁hong	-7160
icycle	-7161
▁belie	-7162
▁check	-7163
▁night	-7164
▁spect	-7165
▁vivre	-7166
▁plants	-7167
▁rétabl	-7168
▁spread	-7169
▁études	-7170
▁precise	-7171
▁relates	-7172
▁science	-7173
▁positifs	-7174
▁premiers	-7175
▁profonde	-7176
▁tendance	-7177
▁tribunal	-7178
▁quatrième	-7179
▁expérience	-7180
▁extérieure	-7181
▁considering	-7182
ypre	-7183
▁gal	-7184
teuse	-7185
autant	-7186
▁dérog	-7187
▁enreg	-7188
quently	-7189
▁répète	-7190
▁specif	-7191
▁volunt	-7192
▁drawing	-7193
▁programm	-7194
▁verheugen	-7195
▁pensioners	-7196
▁socialiste	-7197
▁television	-7198
▁yugoslavia	-7199
▁alternatives	-7200
%.	-7201
edy	-7202
odi	-7203
èces	-7204
▁inad	-7205
▁défis	-7206
▁étude	-7207
▁destroy	-7208
▁proposés	-7209
▁semblent	-7210
▁timetable	-7211
▁difference	-7212
▁ax	-7213
tait	-7214
▁300	-7215
▁path	-7216
▁privé	-7217
▁trial	-7218
ristian	-7219
▁chypre	-7220
▁minist	-7221
▁operate	-7222
▁welcomed	-7223
▁inflation	-7224
▁remarquer	-7225
▁brièvement	-7226
▁commerciales	-7227
enty	-7228
respo	-7229
angers	-7230
▁levée	-7231
▁noted	-7232
▁crespo	-7233
▁relever	-7234
▁category	-7235
▁emphasis	-7236
▁familles	-7237
▁contained	-7238
▁reprendre	-7239
▁competence	-7240
▁régionales	-7241
▁circonstances	-7242
tées	-7243
▁500	-7244
manie	-7245
érité	-7246
▁plant	-7247
▁prévue	-7248
▁actuels	-7249
▁assumer	-7250
▁disting	-7251
▁motions	-7252
▁decisive	-7253
▁division	-7254
▁intellig	-7255
▁presence	-7256
▁macedonia	-7257
▁macédoine	-7258
▁diminution	-7259
▁commissions	-7260
▁commissioners	-7261
dro	-7262
umed	-7263
lated	-7264
▁irak	-7265
ulsory	-7266
▁détru	-7267
ocation	-7268
▁tâches	-7269
▁énorme	-7270
▁imposed	-7271
▁meaning	-7272
▁élector	-7273
▁alliance	-7274
augmentation	-7275
sign	-7276
tein	-7277
mbers	-7278
▁rédig	-7279
▁easier	-7280
▁élevés	-7281
▁revenus	-7282
▁débattre	-7283
▁fighting	-7284
▁technologie	-7285
▁problématique	-7286
▁sele	-7287
bruary	-7288
▁abuse	-7289
▁facts	-7290
▁thurs	-7291
▁aftern	-7292
▁élimin	-7293
▁amended	-7294
▁schemes	-7295
▁ukraine	-7296
▁proposées	-7297
▁retraités	-7298
▁ferroviaire	-7299
▁intégration	-7300
oriz	-7301
▁acts	-7302
aliste	-7303
sement	-7304
▁horiz	-7305
▁hours	-7306
▁mexic	-7307
▁âgées	-7308
adopter	-7309
▁define	-7310
▁reserv	-7311
bretagne	-7312
▁imagine	-7313
▁purposes	-7314
▁supposed	-7315
▁équitable	-7316
1,	-7317
4,	-7318
gl	-7319
▁mus	-7320
ender	-7321
laced	-7322
▁kore	-7323
▁autour	-7324
▁details	-7325
▁adéquate	-7326
▁involves	-7327
▁mobility	-7328
▁préciser	-7329
ercussions	-7330
▁afternoon	-7331
▁irlandais	-7332
▁régulière	-7333
▁inadequate	-7334
▁enterprises	-7335
▁formulation	-7336
▁individuals	-7337
ds	-7338
ût	-7339
rim	-7340
èse	-7341
iling	-7342
lavie	-7343
▁nuit	-7344
▁room	-7345
▁parad	-7346
▁vaste	-7347
ctrices	-7348
▁fulfil	-7349
undering	-7350
▁destinés	-7351
▁february	-7352
▁parvenus	-7353
▁politics	-7354
▁southern	-7355
▁allemagne	-7356
▁announced	-7357
▁génétique	-7358
▁considérons	-7359
▁credibility	-7360
▁énergétique	-7361
cés	-7362
andis	-7363
exerc	-7364
insta	-7365
▁judg	-7366
▁virt	-7367
▁bruit	-7368
▁jeudi	-7369
▁scale	-7370
▁bovine	-7371
▁fondée	-7372
▁relève	-7373
▁spoken	-7374
▁remarks	-7375
▁accueill	-7376
▁historic	-7377
▁pêcheurs	-7378
▁retraite	-7379
▁preparing	-7380
▁traditional	-7381
bo	-7382
ör	-7383
avez	-7384
1999)	-7385
anium	-7386
bling	-7387
▁spor	-7388
▁proof	-7389
▁défaut	-7390
▁remark	-7391
▁déclare	-7392
▁planned	-7393
▁fishermen	-7394
▁introduit	-7395
▁intéressant	-7396
▁intérieures	-7397
▁professionnelle	-7398
8,	-7399
urb	-7400
▁xén	-7401
enues	-7402
▁neut	-7403
▁dette	-7404
▁délic	-7405
▁marge	-7406
▁souha	-7407
▁topic	-7408
▁truth	-7409
emplois	-7410
▁tandis	-7411
▁trouvé	-7412
▁digital	-7413
▁waiting	-7414
▁relatifs	-7415
▁xénophob	-7416
impression	-7417
▁ambitieux	-7418
▁culturelle	-7419
▁incorporated	-7420
ives	-7421
mann	-7422
pres	-7423
rice	-7424
▁fév	-7425
▁noon	-7426
▁equip	-7427
▁fruit	-7428
▁gross	-7429
▁moral	-7430
▁blanch	-7431
▁engage	-7432
▁entrer	-7433
▁paquet	-7434
▁partag	-7435
internet	-7436
▁claires	-7437
▁federal	-7438
▁février	-7439
▁written	-7440
▁concrets	-7441
▁derrière	-7442
▁familiar	-7443
▁entraîner	-7444
▁potentiel	-7445
▁primarily	-7446
▁américains	-7447
▁contradict	-7448
▁negotiating	-7449
▁mondialisation	-7450
▁wa	-7451
akis	-7452
icht	-7453
▁sau	-7454
grade	-7455
▁lower	-7456
enophob	-7457
utiliser	-7458
▁treated	-7459
▁possibly	-7460
▁administr	-7461
▁considers	-7462
▁elsewhere	-7463
▁conviction	-7464
▁fonctionne	-7465
▁ressortiss	-7466
▁socialists	-7467
8/	-7468
oub	-7469
berg	-7470
▁dup	-7471
▁ing	-7472
▁tir	-7473
▁lien	-7474
▁1998.	-7475
▁intég	-7476
▁dehors	-7477
▁résolu	-7478
approche	-7479
▁demeure	-7480
▁légitim	-7481
▁passeng	-7482
▁thursday	-7483
▁xenophob	-7484
▁materials	-7485
▁définitive	-7486
▁undertaken	-7487
▁demonstrated	-7488
ley	-7489
anou	-7490
aimer	-7491
▁mosc	-7492
▁sept	-7493
entrée	-7494
▁aspir	-7495
▁cycle	-7496
▁êtres	-7497
▁déplac	-7498
▁fruits	-7499
▁langue	-7500
▁philos	-7501
histoire	-7502
▁cherche	-7503
▁highest	-7504
▁radical	-7505
▁suivant	-7506
▁apparaît	-7507
expérience	-7508
alimentation	-7509
▁inspections	-7510
▁complètement	-7511
▁transactions	-7512
▁considerations	-7513
aï	-7514
iop	-7515
midi	-7516
year	-7517
▁gue	-7518
allem	-7519
▁trou	-7520
▁ving	-7521
sibles	-7522
▁garde	-7523
▁prête	-7524
▁spoke	-7525
▁stake	-7526
▁texts	-7527
▁afghan	-7528
▁croire	-7529
▁likely	-7530
▁motifs	-7531
aimerais	-7532
▁urgence	-7533
ctiveness	-7534
▁comprend	-7535
▁paiement	-7536
▁stressed	-7537
▁utilisés	-7538
▁paiements	-7539
▁compulsory	-7540
▁favorables	-7541
▁extérieures	-7542
▁fonctionner	-7543
▁investments	-7544
▁conservation	-7545
▁strengthening	-7546
cos	-7547
érés	-7548
ennes	-7549
inqui	-7550
itons	-7551
▁eldr	-7552
▁fuel	-7553
époque	-7554
▁somme	-7555
▁volume	-7556
▁dangers	-7557
▁europeans	-7558
▁instances	-7559
▁suggested	-7560
▁pic	-7561
itant	-7562
vised	-7563
▁diam	-7564
acquis	-7565
▁alarm	-7566
▁built	-7567
▁dépit	-7568
▁terre	-7569
échelle	-7570
▁souver	-7571
▁stable	-7572
▁stands	-7573
▁facteur	-7574
▁holding	-7575
▁studies	-7576
▁thereby	-7577
▁applying	-7578
▁terrible	-7579
▁vendredi	-7580
▁approfond	-7581
▁possibles	-7582
▁suggestion	-7583
▁crédibilité	-7584
▁législatives	-7585
▁profondément	-7586
ony	-7587
écu	-7588
ares	-7589
chec	-7590
▁ence	-7591
▁lose	-7592
▁plaf	-7593
apport	-7594
irable	-7595
▁subse	-7596
autrich	-7597
▁interv	-7598
▁latter	-7599
▁maastr	-7600
missible	-7601
▁majeure	-7602
▁remarqu	-7603
▁austrian	-7604
▁interreg	-7605
▁assurance	-7606
▁mechanism	-7607
▁maastricht	-7608
▁véritablement	-7609
.30	-7610
derly	-7611
tream	-7612
▁fixé	-7613
▁unil	-7614
itimes	-7615
▁clean	-7616
▁tibet	-7617
obtenir	-7618
vereign	-7619
▁ferber	-7620
amérique	-7621
examiner	-7622
▁amounts	-7623
▁elderly	-7624
▁urgency	-7625
▁commence	-7626
▁présents	-7627
▁réunions	-7628
▁subjects	-7629
▁applicant	-7630
▁satisfied	-7631
▁sovereign	-7632
▁assistants	-7633
▁entreprene	-7634
▁vaccination	-7635
ived	-7636
advant	-7637
ualité	-7638
▁behav	-7639
▁sites	-7640
▁vitor	-7641
▁abordé	-7642
▁clarté	-7643
▁formal	-7644
▁reiter	-7645
▁régler	-7646
▁devient	-7647
▁engager	-7648
▁happens	-7649
▁options	-7650
▁election	-7651
▁opposite	-7652
▁systématique	-7653
lim	-7654
rés	-7655
▁da	-7656
▁abus	-7657
▁vess	-7658
diovis	-7659
cidence	-7660
▁garder	-7661
▁réform	-7662
▁soyons	-7663
exercice	-7664
▁african	-7665
▁répéter	-7666
▁compared	-7667
▁exemples	-7668
▁intégrer	-7669
▁souhaité	-7670
▁justifier	-7671
▁mécanisme	-7672
▁temporary	-7673
▁encouraging	-7674
▁considérables	-7675
▁determination	-7676
ham	-7677
uré	-7678
cipé	-7679
pers	-7680
ueil	-7681
▁cub	-7682
▁éth	-7683
going	-7684
mises	-7685
▁prie	-7686
▁prêt	-7687
ibilité	-7688
▁attack	-7689
▁espoir	-7690
▁partly	-7691
ériences	-7692
▁organes	-7693
▁prisons	-7694
▁turning	-7695
▁2000-200	-7696
▁réalisés	-7697
entreprise	-7698
▁disadvant	-7699
▁voluntary	-7700
▁proceedings	-7701
▁satisfactory	-7702
bler	-7703
▁cam	-7704
▁tro	-7705
▁chef	-7706
▁haug	-7707
▁reli	-7708
agenda	-7709
crimin	-7710
impact	-7711
▁ayons	-7712
▁hands	-7713
▁rates	-7714
▁sugar	-7715
eraient	-7716
▁chapit	-7717
▁couver	-7718
▁déroul	-7719
▁réagir	-7720
▁slight	-7721
▁dignity	-7722
▁largely	-7723
▁régional	-7724
ographique	-7725
▁blanchiment	-7726
▁commentaires	-7727
▁présentation	-7728
▁lob	-7729
▁aids	-7730
▁crop	-7731
▁kept	-7732
▁paro	-7733
▁attra	-7734
▁avril	-7735
endrons	-7736
itables	-7737
session	-7738
▁adjust	-7739
▁irresp	-7740
▁sports	-7741
▁tenter	-7742
paravant	-7743
▁condamn	-7744
éralement	-7745
▁approxim	-7746
▁vitorino	-7747
▁actuelles	-7748
▁operational	-7749
▁independence	-7750
▁effectiveness	-7751
▁simplification	-7752
dez	-7753
lam	-7754
ints	-7755
raft	-7756
▁bor	-7757
▁bow	-7758
▁bra	-7759
▁bush	-7760
▁glad	-7761
▁gone	-7762
▁miss	-7763
▁posé	-7764
▁suit	-7765
▁visa	-7766
▁worry	-7767
▁écrit	-7768
▁credit	-7769
▁suffer	-7770
▁feeding	-7771
▁voisins	-7772
▁attentive	-7773
▁dynamique	-7774
▁compagnies	-7775
▁concentrate	-7776
▁explanation	-7777
▁politically	-7778
▁principales	-7779
▁méditerranée	-7780
let	-7781
▁pme	-7782
uting	-7783
▁bloc	-7784
▁cars	-7785
▁corr	-7786
▁kurd	-7787
▁pact	-7788
▁réel	-7789
▁surr	-7790
érance	-7791
▁fifth	-7792
▁ignor	-7793
▁prosp	-7794
▁seven	-7795
hension	-7796
▁démont	-7797
▁latest	-7798
▁legisl	-7799
▁length	-7800
▁shared	-7801
autriche	-7802
érateurs	-7803
▁legally	-7804
▁prosper	-7805
▁deserves	-7806
▁intensif	-7807
▁prennent	-7808
▁sanction	-7809
▁suscepti	-7810
▁allocated	-7811
▁catégorie	-7812
▁concluded	-7813
▁existants	-7814
▁phénomène	-7815
▁associated	-7816
▁compatible	-7817
▁constitute	-7818
▁inquiétude	-7819
▁highlighted	-7820
▁inquiétudes	-7821
▁expectations	-7822
urt	-7823
▁core	-7824
▁insu	-7825
alates	-7826
▁teach	-7827
▁conser	-7828
▁stimul	-7829
standing	-7830
▁expliquer	-7831
▁background	-7832
▁introduire	-7833
▁mm	-7834
▁iran	-7835
▁liée	-7836
▁coast	-7837
▁usage	-7838
▁appare	-7839
▁friend	-7840
▁handic	-7841
▁adoptées	-7842
▁requests	-7843
▁valuable	-7844
▁ambitions	-7845
▁coherence	-7846
▁destinées	-7847
▁travaille	-7848
▁complement	-7849
▁socialistes	-7850
20	-7851
bu	-7852
den	-7853
uts	-7854
alco	-7855
▁ordin	-7856
▁donnée	-7857
▁vivent	-7858
▁anticip	-7859
▁frontal	-7860
▁identity	-7861
▁obstacle	-7862
▁trouvons	-7863
▁contribué	-7864
▁prononcer	-7865
▁consolidation	-7866
iné	-7867
itis	-7868
uvre	-7869
▁rid	-7870
tiens	-7871
▁frapp	-7872
▁incap	-7873
▁slova	-7874
▁toler	-7875
areness	-7876
termine	-7877
▁détail	-7878
▁played	-7879
▁purely	-7880
▁repris	-7881
▁average	-7882
▁essayer	-7883
▁prepare	-7884
▁smaller	-7885
▁accounts	-7886
▁coherent	-7887
▁bilateral	-7888
▁capacités	-7889
▁concrétis	-7890
▁protected	-7891
▁organismes	-7892
▁commerciale	-7893
▁sincèrement	-7894
yes	-7895
versi	-7896
▁airc	-7897
▁écla	-7898
iennes	-7899
observ	-7900
▁effor	-7901
▁expos	-7902
▁monti	-7903
▁reten	-7904
étation	-7905
▁delays	-7906
▁saluer	-7907
intérieur	-7908
▁changing	-7909
▁légitime	-7910
▁spending	-7911
▁mentionné	-7912
▁philosoph	-7913
▁économies	-7914
▁ultimately	-7915
▁sufficiently	-7916
sv	-7917
inc	-7918
lers	-7919
▁jac	-7920
▁mén	-7921
chnya	-7922
ishing	-7923
necess	-7924
vaient	-7925
▁evalu	-7926
▁goals	-7927
▁découl	-7928
▁gauche	-7929
▁hypocr	-7930
▁privil	-7931
▁israéli	-7932
▁plafond	-7933
▁wording	-7934
▁chechnya	-7935
▁disposent	-7936
▁mouvement	-7937
▁laundering	-7938
▁opérations	-7939
▁connaissons	-7940
▁demonstrate	-7941
exe	-7942
vité	-7943
▁got	-7944
▁élo	-7945
unity	-7946
▁educ	-7947
▁scot	-7948
ointed	-7949
▁menée	-7950
▁apporte	-7951
▁aircraft	-7952
▁constaté	-7953
▁peaceful	-7954
▁remettre	-7955
▁basically	-7956
▁nationals	-7957
▁transfert	-7958
▁appreciate	-7959
▁inspection	-7960
▁souhaitent	-7961
▁represented	-7962
2.	-7963
ior	-7964
▁2.	-7965
card	-7966
▁cad	-7967
iphér	-7968
▁milk	-7969
▁sold	-7970
instru	-7971
▁react	-7972
▁israël	-7973
▁places	-7974
▁pursue	-7975
▁summer	-7976
▁careful	-7977
▁deliber	-7978
▁exports	-7979
▁actively	-7980
▁audiovis	-7981
▁debating	-7982
▁disposal	-7983
▁unnecess	-7984
▁awareness	-7985
▁described	-7986
▁understood	-7987
▁directrices	-7988
▁transitional	-7989
▁technological	-7990
sy	-7991
cupé	-7992
▁dav	-7993
iable	-7994
produ	-7995
étude	-7996
▁brut	-7997
alcool	-7998
▁dites	-7999
▁pleas	-8000
▁uncer	-8001
▁vingt	-8002
exemple	-8003
▁décenn	-8004
▁multil	-8005
▁offers	-8006
accepter	-8007
▁rapidly	-8008
assurance	-8009
▁quantité	-8010
▁introducing	-8011
7,	-8012
9,	-8013
▁mè	-8014
▁sat	-8015
comes	-8016
▁préc	-8017
▁banks	-8018
▁hopes	-8019
kestein	-8020
▁franch	-8021
▁milieu	-8022
▁optimis	-8023
▁learning	-8024
▁inclusion	-8025
▁bolkestein	-8026
▁traditions	-8027
▁orientation	-8028
▁7,	-8029
appar	-8030
▁1996	-8031
aurais	-8032
octroi	-8033
▁clairs	-8034
▁easily	-8035
▁époque	-8036
▁heading	-8037
▁inclure	-8038
▁paroles	-8039
▁prenons	-8040
▁prévoir	-8041
▁schools	-8042
▁indicated	-8043
▁determined	-8044
▁facilitate	-8045
uz	-8046
ash	-8047
/01)	-8048
ills	-8049
ordi	-8050
wing	-8051
▁ord	-8052
foris	-8053
▁inno	-8054
▁kati	-8055
▁merg	-8056
▁sets	-8057
atrice	-8058
espoir	-8059
ientôt	-8060
▁param	-8061
▁prest	-8062
cession	-8063
▁ambigu	-8064
▁marine	-8065
▁subsid	-8066
▁visent	-8067
▁banques	-8068
▁bientôt	-8069
▁finding	-8070
▁origine	-8071
allemagne	-8072
▁absolute	-8073
▁openness	-8074
▁cohérente	-8075
▁considéré	-8076
▁katiforis	-8077
▁numérique	-8078
▁orientale	-8079
▁pacifique	-8080
▁referring	-8081
▁soumettre	-8082
harmonisation	-8083
▁privatisation	-8084
▁transformation	-8085
ott	-8086
▁aph	-8087
▁eau	-8088
inely	-8089
lanti	-8090
▁cite	-8091
▁felt	-8092
▁inev	-8093
▁mala	-8094
▁supr	-8095
▁welf	-8096
ignent	-8097
▁label	-8098
▁sauve	-8099
titudes	-8100
▁danish	-8101
▁directe	-8102
▁adresser	-8103
▁avancées	-8104
▁effectué	-8105
▁formuler	-8106
iphériques	-8107
▁acknowled	-8108
▁cinquième	-8109
▁rencontre	-8110
exportation	-8111
unification	-8112
▁auparavant	-8113
▁compliance	-8114
▁presidents	-8115
▁respective	-8116
institutional	-8117
▁statistiques	-8118
▁améliorations	-8119
▁manifestement	-8120
ato	-8121
▁ed	-8122
ondu	-8123
çant	-8124
èvre	-8125
▁éché	-8126
▁arbit	-8127
▁atmos	-8128
▁chann	-8129
▁dignité	-8130
▁étroite	-8131
▁autriche	-8132
▁aviation	-8133
▁commencé	-8134
▁concitoy	-8135
▁concrète	-8136
▁overcome	-8137
▁énergies	-8138
ifications	-8139
▁reconnaît	-8140
▁expériences	-8141
fort	-8142
élas	-8143
▁hat	-8144
▁tol	-8145
ieuse	-8146
point	-8147
▁canc	-8148
▁demi	-8149
▁fast	-8150
▁frag	-8151
▁lire	-8152
▁mach	-8153
▁size	-8154
tivity	-8155
▁faute	-8156
▁judic	-8157
▁quota	-8158
instant	-8159
▁chaîne	-8160
▁diverg	-8161
▁désire	-8162
▁fièvre	-8163
▁refers	-8164
▁routes	-8165
▁serons	-8166
▁appoint	-8167
▁payment	-8168
▁voulais	-8169
▁welfare	-8170
▁railways	-8171
▁equipment	-8172
▁meilleurs	-8173
▁activement	-8174
▁différente	-8175
▁innovative	-8176
▁accordingly	-8177
▁tchétchénie	-8178
▁considerably	-8179
▁détermination	-8180
▁iv	-8181
▁mi	-8182
▁éti	-8183
eront	-8184
osent	-8185
▁créé	-8186
▁warn	-8187
ancing	-8188
lantic	-8189
▁execu	-8190
▁lancé	-8191
▁duquel	-8192
▁perdre	-8193
▁chemins	-8194
▁release	-8195
▁maladies	-8196
▁réussite	-8197
▁détriment	-8198
▁présentés	-8199
amendements	-8200
▁ressortissants	-8201
dep	-8202
▁ot	-8203
bile	-8204
▁sûre	-8205
▁1997,	-8206
▁cheap	-8207
▁derog	-8208
▁repro	-8209
▁seeing	-8210
▁déposés	-8211
▁harmful	-8212
▁incombe	-8213
▁libéral	-8214
ciliation	-8215
▁internes	-8216
▁positives	-8217
▁prisoners	-8218
▁published	-8219
▁realistic	-8220
▁suspended	-8221
▁composition	-8222
sch	-8223
try	-8224
yth	-8225
iour	-8226
uzzo	-8227
▁bit	-8228
aller	-8229
itely	-8230
ström	-8231
▁diss	-8232
▁arrêt	-8233
▁socio	-8234
▁soins	-8235
▁évolu	-8236
▁helping	-8237
▁persist	-8238
▁rejette	-8239
▁running	-8240
▁foremost	-8241
▁recevoir	-8242
▁behaviour	-8243
▁identified	-8244
▁relatively	-8245
▁concitoyens	-8246
▁maintaining	-8247
▁travaillent	-8248
▁catastrophes	-8249
pa	-8250
eur	-8251
rées	-8252
alisé	-8253
avais	-8254
▁roth	-8255
▁seat	-8256
(1999)	-8257
timent	-8258
érable	-8259
▁corps	-8260
▁guère	-8261
▁hélas	-8262
▁pénal	-8263
▁distor	-8264
▁menées	-8265
▁écoles	-8266
▁communs	-8267
▁compter	-8268
▁instant	-8269
▁reconnu	-8270
▁reflète	-8271
▁retards	-8272
▁aphteuse	-8273
▁heritage	-8274
▁échanges	-8275
▁genuinely	-8276
▁unanimously	-8277
000)	-8278
argo	-8279
▁hol	-8280
avait	-8281
chant	-8282
mouth	-8283
▁aéro	-8284
▁bois	-8285
alists	-8286
estions	-8287
▁friday	-8288
▁undoub	-8289
▁waters	-8290
▁quelcon	-8291
▁confirmed	-8292
▁conserver	-8293
▁disciplin	-8294
▁processes	-8295
▁régulièrement	-8296
▁administratives	-8297
▁ku	-8298
▁pla	-8299
▁maat	-8300
▁disag	-8301
▁sucre	-8302
▁compon	-8303
▁couple	-8304
▁qualit	-8305
▁unilat	-8306
▁espagne	-8307
▁fiscale	-8308
▁keeping	-8309
▁prisonn	-8310
▁prétend	-8311
▁accompan	-8312
▁electric	-8313
▁religion	-8314
▁voterons	-8315
▁souverain	-8316
▁suivantes	-8317
▁conception	-8318
▁conscients	-8319
▁référendum	-8320
▁undoubtedly	-8321
▁généralement	-8322
sts	-8323
erce	-8324
haus	-8325
raid	-8326
▁dil	-8327
▁none	-8328
▁perp	-8329
▁péti	-8330
▁camps	-8331
▁cofin	-8332
▁gérer	-8333
▁macro	-8334
▁courts	-8335
▁ignore	-8336
▁proved	-8337
▁séjour	-8338
▁answers	-8339
▁disappe	-8340
▁retirer	-8341
essentiel	-8342
▁demandent	-8343
▁governing	-8344
▁provenance	-8345
▁souhaitable	-8346
▁suggestions	-8347
uves	-8348
▁imb	-8349
▁pet	-8350
▁cash	-8351
▁turc	-8352
▁unit	-8353
▁went	-8354
▁îles	-8355
encour	-8356
présid	-8357
▁sinon	-8358
▁combus	-8359
▁entier	-8360
▁preced	-8361
▁préjud	-8362
▁pénale	-8363
▁becomes	-8364
▁conduit	-8365
▁dynamic	-8366
▁futures	-8367
▁mettent	-8368
▁players	-8369
▁répondu	-8370
▁smoking	-8371
▁trading	-8372
▁visible	-8373
▁allowing	-8374
▁register	-8375
▁respecte	-8376
▁tellement	-8377
▁complicated	-8378
▁exportations	-8379
angl	-8380
icip	-8381
ison	-8382
redi	-8383
▁eco	-8384
▁nic	-8385
reyer	-8386
▁pier	-8387
▁town	-8388
▁chale	-8389
▁eight	-8390
▁expli	-8391
▁sorry	-8392
▁vertu	-8393
▁danois	-8394
▁firmly	-8395
▁honest	-8396
▁salari	-8397
▁wealth	-8398
icaments	-8399
▁extreme	-8400
▁municip	-8401
▁resumed	-8402
▁soulevé	-8403
▁declared	-8404
▁montrent	-8405
▁schreyer	-8406
assistance	-8407
▁contribue	-8408
▁préserver	-8409
▁permettrait	-8410
euse	-8411
zone	-8412
▁dop	-8413
▁usa	-8414
elled	-8415
isted	-8416
▁coal	-8417
▁rang	-8418
(2000)	-8419
élérer	-8420
▁leads	-8421
▁revers	-8422
▁twenty	-8423
▁vérité	-8424
▁farines	-8425
▁harbour	-8426
▁mistake	-8427
▁pétrole	-8428
▁statute	-8429
▁culturel	-8430
▁appliquée	-8431
▁terrorism	-8432
▁approbation	-8433
án	-8434
dec	-8435
oni	-8436
anen	-8437
▁beg	-8438
▁ecb	-8439
▁lié	-8440
▁rub	-8441
occup	-8442
états	-8443
▁dism	-8444
▁count	-8445
▁optim	-8446
▁outil	-8447
▁pacte	-8448
▁quasi	-8449
▁tobin	-8450
érieurs	-8451
▁brings	-8452
▁réserv	-8453
isations	-8454
tiennent	-8455
▁concret	-8456
▁lacunes	-8457
▁testing	-8458
▁topical	-8459
▁évoquer	-8460
▁extérieur	-8461
▁habitants	-8462
▁difficulty	-8463
▁difficulté	-8464
▁terrorisme	-8465
ngl	-8466
onu	-8467
aily	-8468
▁dre	-8469
rence	-8470
▁recr	-8471
ulsion	-8472
▁daily	-8473
▁piece	-8474
▁youth	-8475
affaire	-8476
▁afraid	-8477
▁climat	-8478
▁députée	-8479
▁fatuzzo	-8480
▁observe	-8481
▁régimes	-8482
▁experien	-8483
▁facteurs	-8484
expression	-8485
▁chocolate	-8486
▁discutons	-8487
▁intensive	-8488
▁catégories	-8489
▁principale	-8490
▁médicaments	-8491
▁biotechnology	-8492
▁manufacturers	-8493
omé	-8494
▁fri	-8495
▁sha	-8496
irait	-8497
▁vict	-8498
▁black	-8499
▁flood	-8500
▁innoc	-8501
ivalent	-8502
▁advice	-8503
▁réside	-8504
▁vulner	-8505
ctricité	-8506
▁portent	-8507
▁carrying	-8508
▁collabor	-8509
▁prévenir	-8510
▁cooperate	-8511
▁electricity	-8512
▁yougoslavie	-8513
40	-8514
fl	-8515
tu	-8516
ws	-8517
otti	-8518
ured	-8519
utor	-8520
lever	-8521
léter	-8522
tront	-8523
▁regr	-8524
▁tang	-8525
▁aggra	-8526
▁bilan	-8527
▁scrut	-8528
▁space	-8529
▁voice	-8530
▁locaux	-8531
fficient	-8532
lacement	-8533
▁friends	-8534
▁numbers	-8535
▁restore	-8536
▁approuve	-8537
▁granting	-8538
▁libéraux	-8539
▁religious	-8540
▁dispositif	-8541
▁pornograph	-8542
▁xenophobia	-8543
▁afghanistan	-8544
▁necessarily	-8545
▁supervision	-8546
▁essentielles	-8547
▁heureusement	-8548
▁kil	-8549
▁win	-8550
analy	-8551
human	-8552
èvent	-8553
▁grec	-8554
▁parv	-8555
nalité	-8556
▁carte	-8557
▁perdu	-8558
▁trace	-8559
aissent	-8560
ajouter	-8561
▁rectif	-8562
▁annoncé	-8563
▁apporté	-8564
▁refuser	-8565
▁évaluer	-8566
▁democrat	-8567
▁eurojust	-8568
▁mutuelle	-8569
▁intervene	-8570
▁operating	-8571
▁provenant	-8572
▁discipline	-8573
▁satisfaire	-8574
▁équilibrée	-8575
▁reservations	-8576
▁institutionnel	-8577
dac	-8578
mat	-8579
▁ru	-8580
▁fit	-8581
▁ton	-8582
lable	-8583
▁cuba	-8584
▁forg	-8585
▁gmos	-8586
econom	-8587
visory	-8588
▁débou	-8589
▁navig	-8590
▁paris	-8591
▁préci	-8592
adresse	-8593
▁issued	-8594
▁enquête	-8595
▁moderne	-8596
▁dossiers	-8597
▁enceinte	-8598
▁interpre	-8599
▁disasters	-8600
▁penalties	-8601
▁préalable	-8602
▁quelconque	-8603
▁acknowledge	-8604
▁connaissent	-8605
▁développements	-8606
71	-8607
bes	-8608
kin	-8609
▁rh	-8610
indi	-8611
inée	-8612
taux	-8613
▁lou	-8614
/1999	-8615
quons	-8616
▁merc	-8617
▁scep	-8618
▁soup	-8619
▁accrue	-8620
▁crains	-8621
▁disant	-8622
▁exceed	-8623
▁marque	-8624
▁mobile	-8625
▁patrim	-8626
▁belgium	-8627
▁signalé	-8628
▁animales	-8629
▁consacré	-8630
▁modified	-8631
▁extending	-8632
▁migration	-8633
▁constantly	-8634
▁palestiniens	-8635
aca	-8636
▁ga	-8637
itée	-8638
incin	-8639
érant	-8640
▁exag	-8641
▁flor	-8642
▁flot	-8643
▁vague	-8644
▁fortun	-8645
▁revend	-8646
▁tragic	-8647
▁discuté	-8648
atteindre	-8649
▁excluded	-8650
▁geograph	-8651
▁purement	-8652
▁scandale	-8653
▁straight	-8654
▁marketing	-8655
▁excellente	-8656
▁facilities	-8657
▁législations	-8658
▁pratiquement	-8659
agen	-8660
appu	-8661
atisf	-8662
eties	-8663
taine	-8664
▁engl	-8665
▁huit	-8666
▁joué	-8667
▁mené	-8668
▁phen	-8669
▁surf	-8670
soever	-8671
▁admit	-8672
▁burma	-8673
▁deter	-8674
▁morts	-8675
▁veget	-8676
▁dirais	-8677
▁quelqu	-8678
▁réduit	-8679
▁taille	-8680
affaires	-8681
agissait	-8682
▁prévues	-8683
▁believes	-8684
▁informer	-8685
▁primordi	-8686
▁competent	-8687
▁correctly	-8688
▁fermement	-8689
▁incidents	-8690
▁producing	-8691
▁societies	-8692
▁mentionner	-8693
5%	-8694
sim	-8695
▁%,	-8696
ette	-8697
itch	-8698
lied	-8699
▁bce	-8700
▁maî	-8701
▁rur	-8702
cting	-8703
naire	-8704
onnée	-8705
▁race	-8706
andest	-8707
▁heavy	-8708
▁imper	-8709
▁match	-8710
▁offrir	-8711
▁remédi	-8712
▁savent	-8713
▁weight	-8714
▁accorde	-8715
▁clarity	-8716
▁hauteur	-8717
▁justify	-8718
▁scrutin	-8719
▁someone	-8720
▁attentes	-8721
▁chaleure	-8722
▁clandest	-8723
▁identify	-8724
▁surround	-8725
▁remplacer	-8726
▁travaillé	-8727
▁appropriée	-8728
▁ecological	-8729
▁maintained	-8730
▁referendum	-8731
▁indépendant	-8732
▁4.	-8733
pire	-8734
▁saw	-8735
▁buit	-8736
kistan	-8737
onneur	-8738
▁deals	-8739
▁faibl	-8740
▁deeply	-8741
▁fields	-8742
▁italie	-8743
▁revoir	-8744
▁posselt	-8745
▁refugee	-8746
▁phenomen	-8747
▁urgently	-8748
▁confirmer	-8749
▁determine	-8750
▁volontaire	-8751
▁whatsoever	-8752
▁dangereuses	-8753
▁prisonniers	-8754
▁restructuring	-8755
▁considérations	-8756
▁ri	-8757
burg	-8758
once	-8759
▁hal	-8760
▁tan	-8761
amanou	-8762
ipping	-8763
▁block	-8764
▁dirai	-8765
▁entry	-8766
▁promp	-8767
▁signé	-8768
▁buiten	-8769
▁gagner	-8770
▁benefic	-8771
▁indones	-8772
▁israeli	-8773
▁atteinte	-8774
▁belgique	-8775
▁drafting	-8776
▁vérifier	-8777
▁formulées	-8778
▁karamanou	-8779
▁preventing	-8780
▁commerciaux	-8781
▁unnecessary	-8782
▁indépendants	-8783
▁qualifications	-8784
hm	-8785
cns	-8786
oné	-8787
weg	-8788
émie	-8789
▁fid	-8790
igner	-8791
ovici	-8792
▁berg	-8793
▁bons	-8794
▁kong	-8795
▁unan	-8796
▁clubs	-8797
alising	-8798
▁voyons	-8799
▁aboutir	-8800
▁affects	-8801
▁animale	-8802
▁avancée	-8803
▁deserve	-8804
▁english	-8805
▁follows	-8806
▁imports	-8807
▁insiste	-8808
▁recourir	-8809
étiquetage	-8810
▁américain	-8811
▁clarifier	-8812
▁moscovici	-8813
▁continuent	-8814
▁preparation	-8815
▁extraordinaire	-8816
▁représentation	-8817
▁administrations	-8818
▁discriminations	-8819
où	-8820
iro	-8821
▁3.	-8822
▁42	-8823
▁oli	-8824
étais	-8825
▁liik	-8826
▁ryth	-8827
illing	-8828
▁désas	-8829
▁nomin	-8830
▁étend	-8831
quality	-8832
▁cultiv	-8833
▁engagé	-8834
▁entrée	-8835
▁gender	-8836
▁protég	-8837
▁greatly	-8838
▁apparent	-8839
▁chocolat	-8840
▁liikanen	-8841
▁surprised	-8842
▁publication	-8843
▁incineration	-8844
▁particuliers	-8845
▁undertakings	-8846
▁­	-8847
▁8,	-8848
▁gö	-8849
ries	-8850
▁fol	-8851
▁ogm	-8852
▁péd	-8853
field	-8854
▁crée	-8855
ential	-8856
▁chain	-8857
▁impar	-8858
▁recev	-8859
▁droite	-8860
▁elector	-8861
▁tragedy	-8862
▁capitale	-8863
▁organise	-8864
▁organisé	-8865
▁property	-8866
▁limitation	-8867
▁settlement	-8868
▁subvention	-8869
▁comportement	-8870
▁connaissances	-8871
▁feedingstuffs	-8872
▁investigation	-8873
▁pav	-8874
▁por	-8875
oquer	-8876
▁magn	-8877
▁quit	-8878
▁smes	-8879
▁tête	-8880
aucune	-8881
▁frank	-8882
▁prati	-8883
▁wider	-8884
comings	-8885
▁baisse	-8886
▁frustr	-8887
▁hardly	-8888
lantique	-8889
▁choisir	-8890
▁comport	-8891
▁déficit	-8892
▁engagés	-8893
▁playing	-8894
▁replace	-8895
▁avantage	-8896
▁immunity	-8897
▁pakistan	-8898
▁promised	-8899
▁élaborer	-8900
▁démocrates	-8901
▁objections	-8902
▁patrimoine	-8903
▁shortcomings	-8904
▁compréhension	-8905
▁contrairement	-8906
put	-8907
▁48	-8908
arde	-8909
ford	-8910
hear	-8911
mine	-8912
build	-8913
ciale	-8914
fered	-8915
itive	-8916
▁mart	-8917
▁rand	-8918
▁falls	-8919
aborder	-8920
▁impati	-8921
▁impéra	-8922
▁remove	-8923
hensible	-8924
▁entered	-8925
▁moyenne	-8926
▁remplir	-8927
▁rigoure	-8928
▁tiendra	-8929
▁transat	-8930
▁belgrade	-8931
▁existant	-8932
▁indirect	-8933
▁interromp	-8934
▁wallström	-8935
▁facilement	-8936
▁présentées	-8937
▁applications	-8938
▁complémentaires	-8939
wa	-8940
ola	-8941
dess	-8942
▁...	-8943
▁upd	-8944
atric	-8945
tered	-8946
▁carb	-8947
▁cast	-8948
▁meal	-8949
▁rome	-8950
▁allou	-8951
▁divid	-8952
▁error	-8953
▁exter	-8954
▁roads	-8955
▁vente	-8956
engager	-8957
▁checks	-8958
▁duties	-8959
▁pleine	-8960
▁taxpay	-8961
▁unfair	-8962
▁villes	-8963
▁voyage	-8964
commerce	-8965
entendre	-8966
▁belgian	-8967
▁feeling	-8968
▁medical	-8969
▁rappelé	-8970
▁recover	-8971
▁chercher	-8972
▁licences	-8973
▁unanimity	-8974
▁opérateurs	-8975
▁présentent	-8976
▁statistics	-8977
▁performance	-8978
▁jurisdiction	-8979
▁complémentaire	-8980
ize	-8981
orf	-8982
riez	-8983
▁clé	-8984
▁vel	-8985
ocide	-8986
▁venu	-8987
▁élus	-8988
ouvrir	-8989
▁alger	-8990
▁await	-8991
▁outbre	-8992
▁prenne	-8993
▁repose	-8994
▁saisir	-8995
▁voient	-8996
istiques	-8997
▁conforme	-8998
▁pursuant	-8999
▁suitable	-9000
▁economies	-9001
▁exprimées	-9002
▁secretary	-9003
orientation	-9004
▁emphasised	-9005
▁légitimité	-9006
▁strategies	-9007
▁temporaire	-9008
▁vulnerable	-9009
▁remarquable	-9010
▁significance	-9011
▁justification	-9012
ji	-9013
irk	-9014
▁lud	-9015
effect	-9016
▁franc	-9017
▁exiger	-9018
▁fermet	-9019
▁solely	-9020
▁advance	-9021
▁commend	-9022
▁drafted	-9023
▁engagée	-9024
▁exercer	-9025
▁soumise	-9026
▁échelle	-9027
▁admitted	-9028
▁histoire	-9029
démocrates	-9030
▁completed	-9031
▁suffisant	-9032
▁tentative	-9033
▁indication	-9034
▁prosperity	-9035
▁volontiers	-9036
▁distributed	-9037
▁neighbouring	-9038
yr	-9039
▁35	-9040
exig	-9041
▁pig	-9042
▁thé	-9043
ariff	-9044
ified	-9045
lined	-9046
xique	-9047
▁enje	-9048
▁honn	-9049
▁lond	-9050
▁terr	-9051
atures	-9052
▁costa	-9053
▁fixés	-9054
▁posée	-9055
▁préte	-9056
▁syndic	-9057
attitude	-9058
▁courant	-9059
▁croatia	-9060
▁healthy	-9061
▁infring	-9062
▁postaux	-9063
▁examined	-9064
▁weakness	-9065
▁organiser	-9066
▁participé	-9067
▁appliquées	-9068
▁suffisante	-9069
▁restrictive	-9070
▁insufficient	-9071
▁concentration	-9072
fon	-9073
ops	-9074
rak	-9075
yle	-9076
dent	-9077
▁coc	-9078
ading	-9079
▁perç	-9080
▁unli	-9081
▁pétro	-9082
related	-9083
▁occupe	-9084
▁punish	-9085
▁relate	-9086
▁rythme	-9087
▁slaugh	-9088
▁venons	-9089
▁poorest	-9090
▁primary	-9091
▁reserve	-9092
▁supprim	-9093
▁torture	-9094
▁valable	-9095
▁respects	-9096
▁voitures	-9097
▁ouverture	-9098
approbation	-9099
▁diplomatic	-9100
▁disappoint	-9101
▁importantly	-9102
▁rapprochement	-9103
▁environnemental	-9104
.,	-9105
spe	-9106
qual	-9107
elona	-9108
▁ache	-9109
▁évid	-9110
▁armed	-9111
▁aside	-9112
▁preva	-9113
▁exhaus	-9114
▁privés	-9115
▁revenu	-9116
▁riches	-9117
▁simult	-9118
apporter	-9119
▁adoptés	-9120
▁paradox	-9121
▁pouvant	-9122
▁procure	-9123
▁capables	-9124
▁diminuer	-9125
▁observer	-9126
▁powerful	-9127
▁barcelona	-9128
▁passagers	-9129
▁voudrions	-9130
▁xénophobie	-9131
25	-9132
âts	-9133
▁ep	-9134
▁11,	-9135
▁épr	-9136
▁sida	-9137
▁voici	-9138
▁worst	-9139
▁décide	-9140
▁geneva	-9141
▁genève	-9142
▁équipe	-9143
▁espérer	-9144
▁inutile	-9145
▁offered	-9146
▁prendra	-9147
▁financed	-9148
▁speeches	-9149
▁thanking	-9150
▁contenter	-9151
▁employers	-9152
▁garantiss	-9153
▁categories	-9154
▁constitutes	-9155
▁explications	-9156
do	-9157
lée	-9158
anie	-9159
oted	-9160
sych	-9161
mages	-9162
▁amis	-9163
▁dell	-9164
▁faux	-9165
▁crops	-9166
▁dutch	-9167
▁swift	-9168
▁venez	-9169
▁évalu	-9170
ventive	-9171
▁listen	-9172
▁stance	-9173
▁debated	-9174
▁haarder	-9175
▁inspect	-9176
▁élaboré	-9177
▁accordée	-9178
▁amending	-9179
▁chapitre	-9180
▁dommages	-9181
▁encourag	-9182
▁minorité	-9183
▁multilat	-9184
opposition	-9185
▁bénéfices	-9186
▁criminels	-9187
▁prospects	-9188
▁residence	-9189
▁universel	-9190
▁éducation	-9191
▁compétente	-9192
▁importations	-9193
▁exclusivement	-9194
▁interpretation	-9195
wan	-9196
eler	-9197
pped	-9198
▁mag	-9199
elone	-9200
ouvel	-9201
▁gale	-9202
▁team	-9203
alisée	-9204
crific	-9205
▁bangl	-9206
▁quote	-9207
▁sched	-9208
▁absurd	-9209
▁cattle	-9210
▁dégâts	-9211
▁exposé	-9212
▁pilier	-9213
▁privée	-9214
▁prévoy	-9215
▁rédigé	-9216
▁sortir	-9217
▁widely	-9218
economic	-9219
iquement	-9220
▁chiffre	-9221
▁himself	-9222
▁échange	-9223
▁attempts	-9224
▁exigence	-9225
▁remédier	-9226
▁sacrific	-9227
▁suffered	-9228
▁tensions	-9229
▁utilisée	-9230
▁accomplis	-9231
▁affecting	-9232
▁barcelone	-9233
▁christian	-9234
▁endeavour	-9235
▁accessible	-9236
▁previously	-9237
▁strengthened	-9238
▁contradictions	-9239
alle	-9240
uner	-9241
▁spl	-9242
ulten	-9243
▁1994	-9244
▁juge	-9245
▁remo	-9246
▁rent	-9247
aurait	-9248
formes	-9249
▁coton	-9250
▁dates	-9251
▁psych	-9252
▁secre	-9253
raction	-9254
▁acting	-9255
▁hulten	-9256
▁nearly	-9257
▁sphere	-9258
discrimin	-9259
▁affirmer	-9260
▁jugement	-9261
▁shipping	-9262
▁buitenweg	-9263
▁enregistr	-9264
▁frontière	-9265
▁reflected	-9266
enseignement	-9267
▁concessions	-9268
▁coordinated	-9269
▁prostitution	-9270
ano	-9271
èles	-9272
èque	-9273
▁ant	-9274
ètent	-9275
▁dess	-9276
▁fréqu	-9277
▁latin	-9278
▁pharm	-9279
▁trend	-9280
▁users	-9281
▁opened	-9282
▁obliged	-9283
▁picture	-9284
▁shortly	-9285
▁vessels	-9286
abilities	-9287
actualité	-9288
president	-9289
▁albanais	-9290
▁combined	-9291
▁obtained	-9292
sification	-9293
▁fondement	-9294
▁prosecutor	-9295
▁recherches	-9296
▁secrétaire	-9297
▁comitologie	-9298
▁indépendante	-9299
pap	-9300
blin	-9301
endt	-9302
isen	-9303
érées	-9304
▁arch	-9305
▁army	-9306
▁rede	-9307
▁thir	-9308
▁chira	-9309
▁défav	-9310
▁medic	-9311
▁spite	-9312
2/2000)	-9313
▁dublin	-9314
▁nobody	-9315
▁précon	-9316
émission	-9317
▁absolue	-9318
▁cloning	-9319
▁complet	-9320
▁fallait	-9321
▁allemand	-9322
▁birmanie	-9323
▁sérieuse	-9324
▁worrying	-9325
▁accroître	-9326
▁concludes	-9327
▁fonctions	-9328
▁portugais	-9329
▁construire	-9330
▁functioning	-9331
▁remerciements	-9332
▁indispensables	-9333
abe	-9334
aks	-9335
âge	-9336
▁38	-9337
arme	-9338
ella	-9339
onie	-9340
éder	-9341
▁hém	-9342
▁mic	-9343
▁vét	-9344
▁yor	-9345
orial	-9346
▁1995	-9347
▁banc	-9348
▁depl	-9349
▁peur	-9350
▁corée	-9351
▁motor	-9352
▁cancer	-9353
▁dollar	-9354
▁prends	-9355
▁strike	-9356
▁rejeter	-9357
▁warning	-9358
▁sexuelle	-9359
▁condemned	-9360
▁contracts	-9361
▁effectuer	-9362
▁explained	-9363
▁hopefully	-9364
▁petitions	-9365
▁pétitions	-9366
▁addressing	-9367
▁advantages	-9368
▁partageons	-9369
▁transmission	-9370
▁parallèlement	-9371
än	-9372
ala	-9373
iel	-9374
aceu	-9375
ield	-9376
▁vac	-9377
exper	-9378
scale	-9379
▁corp	-9380
▁nine	-9381
▁artif	-9382
▁fewer	-9383
▁certif	-9384
▁choose	-9385
▁forêts	-9386
▁interd	-9387
▁ration	-9388
▁transn	-9389
▁utmost	-9390
▁faibles	-9391
▁forests	-9392
▁interop	-9393
▁islands	-9394
▁suspect	-9395
▁unanime	-9396
▁launched	-9397
▁précises	-9398
▁surprise	-9399
▁additives	-9400
▁centaines	-9401
▁propriété	-9402
▁leadership	-9403
▁revolution	-9404
▁educational	-9405
▁transeuropé	-9406
▁technologique	-9407
▁chaleureusement	-9408
ía	-9409
oye	-9410
▁bac	-9411
▁jar	-9412
▁loy	-9413
▁pou	-9414
▁tri	-9415
adesh	-9416
aving	-9417
exten	-9418
▁bour	-9419
▁inég	-9420
▁lait	-9421
▁veto	-9422
▁éman	-9423
assent	-9424
▁arise	-9425
▁délib	-9426
▁evans	-9427
▁tenue	-9428
utement	-9429
▁island	-9430
▁mexico	-9431
▁prévus	-9432
▁supran	-9433
▁clonage	-9434
▁croatie	-9435
▁retrouv	-9436
augmenter	-9437
▁colombia	-9438
▁centrales	-9439
▁dependent	-9440
▁hémicycle	-9441
▁reinforced	-9442
▁consultations	-9443
▁structurelles	-9444
lif	-9445
teb	-9446
coun	-9447
orum	-9448
▁13,	-9449
▁hit	-9450
▁lay	-9451
▁mix	-9452
▁tun	-9453
asser	-9454
istic	-9455
orous	-9456
▁côte	-9457
▁pain	-9458
▁rejo	-9459
accomp	-9460
aching	-9461
enburg	-9462
▁degré	-9463
▁dress	-9464
▁seeks	-9465
▁agrees	-9466
▁appris	-9467
▁assass	-9468
▁disent	-9469
▁doubts	-9470
▁drogue	-9471
▁monday	-9472
▁parven	-9473
▁intoler	-9474
▁periods	-9475
▁writing	-9476
▁contamin	-9477
▁intermod	-9478
▁morillon	-9479
▁pleasure	-9480
▁ratified	-9481
▁pharmaceu	-9482
▁proposons	-9483
▁unanimous	-9484
▁utilisées	-9485
▁équilibré	-9486
▁apparently	-9487
▁indicators	-9488
▁prospérité	-9489
▁révolution	-9490
▁sovereignty	-9491
▁répercussions	-9492
iry	-9493
rol	-9494
▁xx	-9495
cons	-9496
indé	-9497
ueux	-9498
▁urb	-9499
mping	-9500
▁dras	-9501
▁irré	-9502
▁lamy	-9503
▁noir	-9504
▁nuis	-9505
▁asile	-9506
▁bösch	-9507
▁endro	-9508
▁honte	-9509
▁inscr	-9510
▁monit	-9511
▁sixth	-9512
▁watch	-9513
▁allows	-9514
▁brevet	-9515
▁chargé	-9516
▁haider	-9517
▁posent	-9518
▁erreurs	-9519
▁galeote	-9520
▁ethnique	-9521
▁explicit	-9522
▁fragment	-9523
▁matériel	-9524
▁prudence	-9525
▁approuvée	-9526
▁débattons	-9527
▁gradually	-9528
▁transfers	-9529
▁bangladesh	-9530
▁constatons	-9531
▁definitely	-9532
▁souveraineté	-9533
▁félicitations	-9534
nl	-9535
ario	-9536
bels	-9537
corm	-9538
extr	-9539
plus	-9540
▁10,	-9541
▁nut	-9542
▁chim	-9543
▁kost	-9544
▁mène	-9545
teborg	-9546
▁accur	-9547
▁embry	-9548
▁lundi	-9549
cormick	-9550
▁chirac	-9551
▁discre	-9552
▁modest	-9553
▁paying	-9554
▁pierre	-9555
▁prévis	-9556
▁raises	-9557
▁recall	-9558
▁shares	-9559
▁strugg	-9560
▁victim	-9561
▁cologne	-9562
▁formule	-9563
▁modifié	-9564
▁recital	-9565
▁récente	-9566
infrastru	-9567
▁göteborg	-9568
▁handicap	-9569
▁reflects	-9570
▁soulever	-9571
▁strictes	-9572
▁aéroports	-9573
▁demanding	-9574
▁maccormick	-9575
▁examination	-9576
▁incorporate	-9577
▁unfortunate	-9578
▁civilisation	-9579
▁biotechnologie	-9580
▁congratulations	-9581
60	-9582
enqu	-9583
liers	-9584
offre	-9585
▁asia	-9586
▁bird	-9587
▁indu	-9588
▁keen	-9589
▁minu	-9590
▁neuf	-9591
ensions	-9592
▁marche	-9593
▁serais	-9594
▁tenant	-9595
▁convenu	-9596
▁deficit	-9597
▁expense	-9598
▁saurait	-9599
▁appliqué	-9600
▁conduire	-9601
▁deadline	-9602
▁disputes	-9603
▁distingu	-9604
▁déclarer	-9605
▁heureuse	-9606
▁regarded	-9607
▁exemption	-9608
▁regulated	-9609
▁signature	-9610
▁appartient	-9611
▁legitimacy	-9612
▁recommande	-9613
▁véritables	-9614
▁territoires	-9615
▁éventuellement	-9616
ky	-9617
zen	-9618
▁45	-9619
▁dg	-9620
▁pé	-9621
▁cau	-9622
▁spr	-9623
erved	-9624
oubli	-9625
▁néer	-9626
▁sert	-9627
▁ster	-9628
▁desqu	-9629
▁links	-9630
▁meant	-9631
▁remov	-9632
▁synth	-9633
▁covers	-9634
▁inspir	-9635
▁organe	-9636
▁quorum	-9637
▁restre	-9638
▁retain	-9639
appropri	-9640
▁lasting	-9641
▁passion	-9642
▁pencher	-9643
▁species	-9644
▁students	-9645
▁nettement	-9646
▁sensibles	-9647
▁similarly	-9648
▁considérée	-9649
▁disponible	-9650
▁bureaucratic	-9651
▁transparente	-9652
/21	-9653
ded	-9654
behr	-9655
érin	-9656
▁12,	-9657
▁400	-9658
▁adm	-9659
▁vat	-9660
▁web	-9661
▁erad	-9662
▁lann	-9663
▁reve	-9664
effort	-9665
ingent	-9666
▁irrég	-9667
▁rasse	-9668
▁reass	-9669
▁visas	-9670
▁écout	-9671
espagne	-9672
▁téléph	-9673
▁utiles	-9674
behrendt	-9675
▁dépasse	-9676
▁lannoye	-9677
▁artifici	-9678
▁colombie	-9679
▁yourself	-9680
▁approprié	-9681
▁attendent	-9682
▁federation	-9683
▁radioactive	-9684
▁environmentally	-9685
oa	-9686
pre	-9687
▁32	-9688
▁zu	-9689
nées	-9690
▁lie	-9691
▁nap	-9692
▁sum	-9693
entra	-9694
itées	-9695
▁bate	-9696
▁coin	-9697
▁cong	-9698
▁lomé	-9699
▁wise	-9700
invite	-9701
orship	-9702
▁médec	-9703
8/2000)	-9704
atrices	-9705
pective	-9706
▁courte	-9707
▁outset	-9708
▁stabil	-9709
▁tariff	-9710
▁viable	-9711
▁brevets	-9712
▁customs	-9713
▁limitée	-9714
▁ludford	-9715
▁partner	-9716
▁possède	-9717
othenburg	-9718
▁agencies	-9719
▁emission	-9720
▁facility	-9721
▁prétexte	-9722
▁regulate	-9723
▁standing	-9724
▁transmis	-9725
▁processing	-9726
▁stratégies	-9727
▁professions	-9728
▁transmettre	-9729
ça	-9730
efe	-9731
ifs	-9732
dorf	-9733
irak	-9734
resh	-9735
▁sah	-9736
house	-9737
sives	-9738
while	-9739
▁décr	-9740
▁inqu	-9741
▁ment	-9742
▁seas	-9743
▁sovi	-9744
ansion	-9745
dessus	-9746
▁korea	-9747
▁ville	-9748
ingdorf	-9749
▁abouti	-9750
▁bulgar	-9751
▁excuse	-9752
▁fairly	-9753
▁graefe	-9754
▁kostun	-9755
▁matern	-9756
▁parent	-9757
▁pillar	-9758
▁accordé	-9759
▁chinese	-9760
▁dollars	-9761
▁destinée	-9762
▁justifie	-9763
▁reconsid	-9764
▁rétablir	-9765
▁différent	-9766
▁pressions	-9767
▁baringdorf	-9768
▁continuera	-9769
▁gothenburg	-9770
▁entrepreneurs	-9771
▁génétiquement	-9772
▁transposition	-9773
aie	-9774
uay	-9775
▁ém	-9776
auff	-9777
umes	-9778
urtz	-9779
▁buy	-9780
▁eye	-9781
ining	-9782
èdent	-9783
▁blok	-9784
▁séle	-9785
unesse	-9786
▁décis	-9787
▁fallu	-9788
▁labor	-9789
▁marin	-9790
▁notif	-9791
▁perte	-9792
▁ridic	-9793
▁résol	-9794
▁signe	-9795
▁veill	-9796
▁wurtz	-9797
▁dupuis	-9798
▁incont	-9799
▁looked	-9800
▁seules	-9801
▁theato	-9802
building	-9803
▁accepte	-9804
▁declare	-9805
▁freight	-9806
▁indique	-9807
▁insisté	-9808
▁candidat	-9809
▁renouvel	-9810
▁expensive	-9811
▁précision	-9812
▁régionaux	-9813
▁assurances	-9814
▁phenomenon	-9815
▁réflexions	-9816
▁bénéficient	-9817
▁genetically	-9818
▁negotiation	-9819
▁coopérations	-9820
▁inadmissible	-9821
▁participants	-9822
▁spécialement	-9823
▁politiquement	-9824
▁congratulating	-9825
▁representation	-9826
enz	-9827
etr	-9828
tar	-9829
ués	-9830
▁haz	-9831
▁phr	-9832
▁unw	-9833
agnes	-9834
opard	-9835
▁décl	-9836
▁exéc	-9837
▁flux	-9838
▁liti	-9839
▁irreg	-9840
▁proud	-9841
▁timor	-9842
ictions	-9843
▁classe	-9844
▁fourni	-9845
▁futurs	-9846
▁majeur	-9847
▁talked	-9848
▁éclair	-9849
pendance	-9850
▁bearing	-9851
▁embargo	-9852
▁jeopard	-9853
▁removed	-9854
▁scandal	-9855
▁vétérin	-9856
excellent	-9857
exception	-9858
extension	-9859
▁barriers	-9860
▁entraîne	-9861
▁tangible	-9862
tissements	-9863
▁campagnes	-9864
▁prochains	-9865
▁quotidien	-9866
▁reiterate	-9867
▁satisfaisante	-9868
no	-9869
hier	-9870
otes	-9871
▁lal	-9872
oulez	-9873
ument	-9874
▁infe	-9875
▁intr	-9876
▁push	-9877
▁traç	-9878
▁kinds	-9879
▁liens	-9880
▁stopp	-9881
▁tenus	-9882
▁tight	-9883
▁veter	-9884
utation	-9885
▁défini	-9886
▁turned	-9887
▁voulez	-9888
▁cashman	-9889
▁dispute	-9890
▁espèces	-9891
▁eurodac	-9892
▁exploit	-9893
▁opposés	-9894
▁promise	-9895
▁sixième	-9896
▁blokland	-9897
▁chemical	-9898
▁conseils	-9899
▁contrats	-9900
▁quantita	-9901
▁fournisse	-9902
▁préoccupe	-9903
▁succeeded	-9904
▁collaborer	-9905
▁convaincre	-9906
▁mouvements	-9907
▁presenting	-9908
▁transporte	-9909
▁applicables	-9910
▁contributed	-9911
▁essentially	-9912
▁experienced	-9913
▁restriction	-9914
▁nécessairement	-9915
onné	-9916
ouer	-9917
zemb	-9918
▁enl	-9919
uding	-9920
▁adhé	-9921
▁gard	-9922
▁inév	-9923
▁unre	-9924
▁york	-9925
▁manip	-9926
animaux	-9927
idation	-9928
orateur	-9929
zembows	-9930
▁banned	-9931
▁bosnia	-9932
▁maaten	-9933
▁collège	-9934
▁hearing	-9935
▁mexique	-9936
▁permets	-9937
▁diseases	-9938
▁messages	-9939
▁prelimin	-9940
▁sentence	-9941
instrument	-9942
▁directeur	-9943
▁ministère	-9944
▁étroitement	-9945
▁ferroviaires	-9946
▁presentation	-9947
▁possibilities	-9948
▁significative	-9949
%,	-9950
vez	-9951
▁od	-9952
cker	-9953
ller	-9954
pées	-9955
zech	-9956
▁sak	-9957
▁âge	-9958
ensen	-9959
inary	-9960
leted	-9961
▁chré	-9962
▁conç	-9963
▁irre	-9964
▁vent	-9965
▁écou	-9966
alisés	-9967
oivent	-9968
▁coûte	-9969
▁incer	-9970
▁prouv	-9971
▁réels	-9972
▁tenté	-9973
personn	-9974
▁arrivé	-9975
▁détour	-9976
▁killed	-9977
▁phrase	-9978
▁auteurs	-9979
▁inscrit	-9980
▁planète	-9981
▁profite	-9982
▁uranium	-9983
▁consenti	-9984
▁découver	-9985
▁démontré	-9986
▁suivants	-9987
introduire	-9988
▁expertise	-9989
entreprises	-9990
électricité	-9991
▁jarzembows	-9992
▁naturelles	-9993
▁compétentes	-9994
▁considérant	-9995
▁efficiently	-9996
▁participent	-9997
▁écologiques	-9998
▁concertation	-9999
▁preparations	-10000
▁approximately	-10001
▁planification	-10002
ppe	-10003
yez	-10004
ôts	-10005
▁mug	-10006
▁ral	-10007
icate	-10008
oured	-10009
▁cens	-10010
▁cuts	-10011
▁site	-10012
itably	-10013
▁ferai	-10014
▁mille	-10015
▁moved	-10016
ovation	-10017
▁choisi	-10018
▁octroy	-10019
entement	-10020
▁décentr	-10021
▁jointly	-10022
▁offices	-10023
personnel	-10024
▁spéciale	-10025
▁stronger	-10026
▁lalumière	-10027
▁resulting	-10028
▁retrouver	-10029
▁américaine	-10030
▁judiciaires	-10031
▁preliminary	-10032
▁declarations	-10033
▁jarzembowski	-10034
ada	-10035
rid	-10036
voi	-10037
▁6.	-10038
▁élu	-10039
oolig	-10040
▁mira	-10041
▁pert	-10042
▁stor	-10043
agence	-10044
▁douze	-10045
▁parvi	-10046
▁shame	-10047
1/2000)	-10048
unction	-10049
▁accent	-10050
▁arrest	-10051
▁larger	-10052
▁notice	-10053
▁souffr	-10054
▁clients	-10055
▁creates	-10056
▁decentr	-10057
▁fassent	-10058
▁preuves	-10059
▁radioac	-10060
▁airports	-10061
▁albanian	-10062
▁concepts	-10063
▁indiquer	-10064
▁sympathy	-10065
▁welcomes	-10066
▁consacrer	-10067
▁interdire	-10068
▁vigilance	-10069
▁étrangers	-10070
▁demandeurs	-10071
▁renforcées	-10072
▁restricted	-10073
▁delegations	-10074
▁enforcement	-10075
▁expressément	-10076
▁successfully	-10077
44	-10078
7.	-10079
dp	-10080
▁5.	-10081
avec	-10082
▁cou	-10083
▁von	-10084
astes	-10085
▁door	-10086
▁reti	-10087
▁sale	-10088
▁stay	-10089
impose	-10090
▁irres	-10091
▁maîtr	-10092
▁nordi	-10093
▁notes	-10094
▁sella	-10095
▁tente	-10096
érables	-10097
▁agents	-10098
▁bosnie	-10099
▁publié	-10100
▁saddam	-10101
▁skills	-10102
▁veille	-10103
▁informé	-10104
▁logical	-10105
▁partant	-10106
▁persuad	-10107
▁victime	-10108
▁whereby	-10109
▁énormes	-10110
▁devienne	-10111
▁directed	-10112
▁désastre	-10113
▁privilég	-10114
▁conducted	-10115
▁counterfe	-10116
▁harmonise	-10117
▁suspendue	-10118
▁wholehear	-10119
▁sellafield	-10120
▁explication	-10121
▁insuffisant	-10122
▁outstanding	-10123
▁surrounding	-10124
▁traçabilité	-10125
ll	-10126
/20	-10127
30.	-10128
auf	-10129
hand	-10130
osen	-10131
joute	-10132
veurs	-10133
▁pire	-10134
▁vast	-10135
▁biens	-10136
▁czech	-10137
▁parta	-10138
▁posts	-10139
opoulos	-10140
▁breach	-10141
▁chosen	-10142
▁enrich	-10143
▁locale	-10144
▁ouvrir	-10145
▁convers	-10146
▁journée	-10147
▁newspap	-10148
▁augmente	-10149
▁correcte	-10150
▁voudrait	-10151
▁indonesia	-10152
▁territori	-10153
▁étudiants	-10154
▁permanente	-10155
indépendance	-10156
▁limitations	-10157
▁pornography	-10158
institutionnel	-10159
auv	-10160
zio	-10161
▁uv	-10162
user	-10163
ètes	-10164
érir	-10165
▁hun	-10166
▁qua	-10167
abled	-10168
garde	-10169
▁arti	-10170
▁lend	-10171
▁mann	-10172
▁stre	-10173
alling	-10174
licate	-10175
▁2004.	-10176
▁distr	-10177
▁faith	-10178
▁perce	-10179
▁civils	-10180
▁ferons	-10181
▁feront	-10182
▁finale	-10183
iendrait	-10184
reaching	-10185
▁clauses	-10186
▁contest	-10187
▁depends	-10188
▁destiné	-10189
▁revenue	-10190
▁revised	-10191
▁surface	-10192
▁hundreds	-10193
▁négocier	-10194
▁slightly	-10195
▁strictly	-10196
regulation	-10197
▁certainty	-10198
▁kostunica	-10199
▁remaining	-10200
▁électeurs	-10201
▁allocation	-10202
▁repeatedly	-10203
▁competences	-10204
▁industriels	-10205
▁pourcentage	-10206
▁explanations	-10207
▁subsequently	-10208
mn	-10209
ena	-10210
peu	-10211
rov	-10212
erra	-10213
rapér	-10214
▁sauf	-10215
▁enthu	-10216
▁lifel	-10217
▁médic	-10218
▁perpé	-10219
analyse	-10220
demment	-10221
▁expert	-10222
▁helped	-10223
▁mugabe	-10224
▁rocard	-10225
▁solved	-10226
▁warmly	-10227
▁ajoutée	-10228
▁couvrir	-10229
▁réjouir	-10230
▁stauner	-10231
▁disabled	-10232
▁destroyed	-10233
▁détaillée	-10234
▁sincerely	-10235
▁undermine	-10236
▁inevitably	-10237
▁passengers	-10238
▁répression	-10239
▁accompanied	-10240
▁prochainement	-10241
aken	-10242
ancy	-10243
▁gap	-10244
aider	-10245
effet	-10246
erais	-10247
▁mere	-10248
▁sake	-10249
auteur	-10250
▁cards	-10251
▁shape	-10252
3/2000)	-10253
espread	-10254
étendre	-10255
▁battle	-10256
▁trente	-10257
opportun	-10258
▁diamant	-10259
▁paralle	-10260
▁covering	-10261
▁méritent	-10262
▁bienvenue	-10263
▁fiscalité	-10264
▁comitology	-10265
▁dérogation	-10266
▁harmonised	-10267
▁widespread	-10268
▁méditerranéenne	-10269
1.	-10270
ems	-10271
▁9,	-10272
aves	-10273
armes	-10274
matic	-10275
place	-10276
commod	-10277
▁abatt	-10278
▁dénon	-10279
▁fresh	-10280
▁inond	-10281
▁norme	-10282
▁thres	-10283
étaient	-10284
▁agence	-10285
▁leçons	-10286
▁permit	-10287
▁posées	-10288
▁surmon	-10289
▁broader	-10290
▁donnent	-10291
▁evident	-10292
▁inhabit	-10293
▁intégré	-10294
▁leaving	-10295
▁tunisia	-10296
érabilité	-10297
▁additifs	-10298
▁jeunesse	-10299
▁monopoly	-10300
▁observed	-10301
▁risquent	-10302
▁salariés	-10303
▁enthusias	-10304
▁impliqués	-10305
▁tribunaux	-10306
▁adaptation	-10307
▁controlled	-10308
▁convaincus	-10309
▁deviennent	-10310
▁délégations	-10311
▁prioritaire	-10312
▁willingness	-10313
aibl	-10314
▁150	-10315
asses	-10316
avère	-10317
plath	-10318
▁empê	-10319
▁eyes	-10320
▁ferm	-10321
▁vuln	-10322
instar	-10323
onésie	-10324
ousias	-10325
▁1996,	-10326
▁accél	-10327
▁appui	-10328
▁basée	-10329
▁blame	-10330
▁feder	-10331
▁kilom	-10332
▁révis	-10333
▁tough	-10334
accueil	-10335
istique	-10336
▁deploy	-10337
▁devenu	-10338
▁owners	-10339
▁sierra	-10340
accorder	-10341
immunité	-10342
▁clearer	-10343
▁entamer	-10344
▁exister	-10345
▁interim	-10346
▁préserv	-10347
▁seattle	-10348
▁whereas	-10349
▁concerné	-10350
▁intégrée	-10351
▁montants	-10352
▁restrict	-10353
▁rubrique	-10354
▁thousand	-10355
▁accomplir	-10356
▁donateurs	-10357
▁effectués	-10358
▁monitored	-10359
▁nécessite	-10360
▁promesses	-10361
▁receiving	-10362
▁threshold	-10363
élimination	-10364
▁dimensions	-10365
▁governance	-10366
▁underlying	-10367
▁veterinary	-10368
incinération	-10369
▁uncertainty	-10370
▁supranational	-10371
étr	-10372
atom	-10373
urée	-10374
▁rul	-10375
▁enti	-10376
entiss	-10377
ronter	-10378
ulaire	-10379
▁belge	-10380
▁guine	-10381
▁juger	-10382
▁latine	-10383
▁légale	-10384
intégrer	-10385
▁ethical	-10386
▁fournit	-10387
▁licenci	-10388
▁ongoing	-10389
▁pensent	-10390
▁privées	-10391
▁randzio	-10392
▁spectac	-10393
▁augmenté	-10394
▁occurred	-10395
▁partager	-10396
▁regroupe	-10397
▁réaliste	-10398
▁undermin	-10399
▁minimales	-10400
▁publicité	-10401
▁autrichien	-10402
▁candidates	-10403
▁monopolies	-10404
▁apparemment	-10405
▁concrétiser	-10406
▁consequence	-10407
▁personnelle	-10408
▁intellectual	-10409
▁irrespective	-10410
discrimination	-10411
▁attentivement	-10412
15	-10413
idé	-10414
ijs	-10415
gues	-10416
quin	-10417
uber	-10418
▁cyn	-10419
▁pom	-10420
ouest	-10421
▁1990	-10422
aspect	-10423
▁2003.	-10424
▁défic	-10425
▁fores	-10426
▁leone	-10427
▁lever	-10428
▁looks	-10429
▁peijs	-10430
▁règne	-10431
▁score	-10432
7/2000)	-10433
ampleur	-10434
enfants	-10435
ologies	-10436
▁doutes	-10437
▁pertes	-10438
▁sought	-10439
▁vaccin	-10440
▁arrière	-10441
▁bananas	-10442
▁divided	-10443
▁ineffic	-10444
▁largest	-10445
▁immigrés	-10446
▁initiale	-10447
▁modifiée	-10448
▁alongside	-10449
▁incompati	-10450
▁surmonter	-10451
▁copenhagen	-10452
▁definitive	-10453
▁développés	-10454
▁intérieure	-10455
▁neighbours	-10456
▁aspirations	-10457
▁automatique	-10458
▁climatiques	-10459
▁contribuera	-10460
mas	-10461
ses	-10462
▁33	-10463
abat	-10464
ador	-10465
este	-10466
sted	-10467
▁déç	-10468
▁gib	-10469
influ	-10470
osing	-10471
tités	-10472
▁puts	-10473
iables	-10474
▁assum	-10475
▁borne	-10476
▁doter	-10477
▁exécu	-10478
▁hague	-10479
▁récon	-10480
▁serre	-10481
▁volet	-10482
opoulou	-10483
▁jouent	-10484
▁soumet	-10485
▁ampleur	-10486
▁anglais	-10487
▁conjoin	-10488
▁contemp	-10489
▁disturb	-10490
▁dommage	-10491
▁driving	-10492
▁focused	-10493
▁handica	-10494
▁maintes	-10495
▁minimal	-10496
▁nourrit	-10497
▁étendre	-10498
▁définies	-10499
▁engendre	-10500
▁garantit	-10501
▁promises	-10502
économique	-10503
▁accélérer	-10504
▁irregular	-10505
▁movements	-10506
▁copenhague	-10507
▁threatened	-10508
▁achievement	-10509
▁permettront	-10510
uns	-10511
zid	-10512
▁flu	-10513
▁vég	-10514
board	-10515
diers	-10516
isons	-10517
▁2003	-10518
▁cibl	-10519
▁wind	-10520
érales	-10521
▁2002,	-10522
▁japan	-10523
▁japon	-10524
▁toxic	-10525
▁usual	-10526
extrême	-10527
▁ambass	-10528
▁fortes	-10529
▁invent	-10530
▁promet	-10531
▁provin	-10532
▁succes	-10533
▁adapter	-10534
▁critère	-10535
▁négatif	-10536
▁bénéfici	-10537
▁exprimée	-10538
▁abstained	-10539
▁apprendre	-10540
▁coalition	-10541
▁modalités	-10542
▁unanimité	-10543
▁croissante	-10544
▁procedural	-10545
▁rechercher	-10546
▁fortunately	-10547
▁humanitaires	-10548
▁contribuables	-10549
ïn	-10550
ext	-10551
ics	-10552
ney	-10553
pin	-10554
uck	-10555
ulé	-10556
▁ic	-10557
iven	-10558
tick	-10559
▁15,	-10560
▁alg	-10561
▁tva	-10562
quera	-10563
▁foss	-10564
▁vain	-10565
▁vues	-10566
itical	-10567
requis	-10568
umeurs	-10569
▁alleg	-10570
▁displ	-10571
▁sexes	-10572
étiques	-10573
▁aggrav	-10574
▁changé	-10575
▁disons	-10576
▁laissé	-10577
▁remote	-10578
▁unions	-10579
▁adéquat	-10580
▁arrêter	-10581
▁chapter	-10582
▁défavor	-10583
entissage	-10584
▁hypocris	-10585
▁listened	-10586
▁outbreak	-10587
▁recovery	-10588
▁released	-10589
▁ultrapér	-10590
▁desirable	-10591
▁negotiate	-10592
▁prevented	-10593
▁worldwide	-10594
▁convaincue	-10595
▁différenci	-10596
▁dramatique	-10597
▁inévitable	-10598
▁provisoire	-10599
▁explanatory	-10600
▁diamantopoulou	-10601
/9	-10602
cía	-10603
ijk	-10604
vén	-10605
yst	-10606
aled	-10607
free	-10608
imag	-10609
arked	-10610
urant	-10611
▁camb	-10612
▁hous	-10613
▁molu	-10614
▁murd	-10615
/2000,	-10616
antime	-10617
istrib	-10618
motion	-10619
▁bless	-10620
▁firms	-10621
▁virus	-10622
attends	-10623
enquête	-10624
identif	-10625
érences	-10626
▁disait	-10627
▁garcía	-10628
▁marked	-10629
▁prouve	-10630
▁ratify	-10631
applique	-10632
▁choices	-10633
▁connais	-10634
▁exercis	-10635
▁lacking	-10636
▁pursued	-10637
▁rurales	-10638
▁tunisie	-10639
▁violent	-10640
▁vitesse	-10641
criptions	-10642
▁meantime	-10643
▁parallel	-10644
▁promoted	-10645
▁renoncer	-10646
▁soutenue	-10647
▁campaigns	-10648
▁instaurer	-10649
▁objection	-10650
▁encouraged	-10651
▁historical	-10652
▁percentage	-10653
▁transferts	-10654
▁destination	-10655
▁générations	-10656
▁guaranteeing	-10657
▁partiellement	-10658
▁investissement	-10659
mun	-10660
méd	-10661
umn	-10662
alem	-10663
auté	-10664
coni	-10665
iert	-10666
obil	-10667
▁11.	-10668
▁140	-10669
▁aud	-10670
▁côt	-10671
▁hés	-10672
▁typ	-10673
estre	-10674
▁mich	-10675
▁page	-10676
estock	-10677
usalem	-10678
▁1995,	-10679
▁1997.	-10680
▁boost	-10681
▁defic	-10682
▁dégag	-10683
▁islam	-10684
▁voies	-10685
insiste	-10686
▁déploy	-10687
▁gibral	-10688
▁interf	-10689
▁réunir	-10690
▁solide	-10691
▁weaken	-10692
▁busquin	-10693
▁comités	-10694
▁decades	-10695
▁devenue	-10696
▁tension	-10697
▁établis	-10698
▁complais	-10699
▁coopérer	-10700
▁enhanced	-10701
▁horizont	-10702
▁monopole	-10703
▁respecté	-10704
▁salaires	-10705
▁spécific	-10706
▁éleveurs	-10707
intervenir	-10708
▁ethniques	-10709
▁examinons	-10710
▁livestock	-10711
▁undertake	-10712
▁dépendance	-10713
▁recognises	-10714
▁respectent	-10715
▁contribuent	-10716
▁directorate	-10717
▁réjouissons	-10718
▁susceptibles	-10719
tée	-10720
zer	-10721
▁36	-10722
▁95	-10723
▁rü	-10724
oman	-10725
édie	-10726
▁diz	-10727
▁sac	-10728
chons	-10729
▁born	-10730
▁nauf	-10731
▁vide	-10732
liance	-10733
▁actif	-10734
▁dream	-10735
▁déten	-10736
▁shift	-10737
country	-10738
imposer	-10739
zidakis	-10740
▁allant	-10741
▁fusion	-10742
▁proxim	-10743
▁tenons	-10744
▁affirme	-10745
▁affirmé	-10746
▁bananes	-10747
▁ceiling	-10748
▁déplore	-10749
▁incenti	-10750
▁scienti	-10751
▁trouble	-10752
approuver	-10753
▁devaient	-10754
▁paraguay	-10755
▁reported	-10756
▁cigarette	-10757
▁condamner	-10758
▁everybody	-10759
▁expansion	-10760
▁fundament	-10761
▁postponed	-10762
▁withdrawn	-10763
▁hatzidakis	-10764
▁inappropri	-10765
▁navigation	-10766
▁fabrication	-10767
mediterranean	-10768
▁disappointed	-10769
▁prioritaires	-10770
▁participating	-10771
vie	-10772
éth	-10773
▁om	-10774
▁rê	-10775
acao	-10776
hood	-10777
uent	-10778
angle	-10779
pital	-10780
▁arrê	-10781
▁coïn	-10782
▁liqu	-10783
abling	-10784
ulated	-10785
▁begun	-10786
▁lieux	-10787
▁micro	-10788
▁montr	-10789
▁outer	-10790
▁pouss	-10791
▁tools	-10792
▁écoul	-10793
▁englob	-10794
▁vieill	-10795
identité	-10796
élaborer	-10797
▁college	-10798
▁engaged	-10799
▁examiné	-10800
▁gradual	-10801
▁incredi	-10802
▁réussir	-10803
▁showing	-10804
erability	-10805
extérieur	-10806
▁analyses	-10807
▁applique	-10808
▁lifelong	-10809
▁modifiés	-10810
▁tiennent	-10811
▁detriment	-10812
▁entrepris	-10813
▁gibraltar	-10814
▁palestine	-10815
▁puissance	-10816
▁favourable	-10817
▁greenhouse	-10818
▁primordial	-10819
▁précédents	-10820
▁similaires	-10821
▁bureaucracy	-10822
▁globalement	-10823
▁qualitative	-10824
▁suffisantes	-10825
▁élaboration	-10826
▁géographique	-10827
▁stratégiques	-10828
▁automatically	-10829
▁juridiquement	-10830
▁programmation	-10831
omin	-10832
osse	-10833
▁lad	-10834
▁lag	-10835
wered	-10836
▁fate	-10837
▁fier	-10838
▁pace	-10839
▁sacr	-10840
▁tomb	-10841
istics	-10842
italie	-10843
orique	-10844
▁accum	-10845
▁argue	-10846
▁earth	-10847
▁hoped	-10848
▁précé	-10849
▁unité	-10850
anément	-10851
évaluer	-10852
▁appelé	-10853
▁drafts	-10854
▁except	-10855
▁guinea	-10856
▁hoolig	-10857
▁lourde	-10858
▁passée	-10859
▁relief	-10860
tability	-10861
▁missing	-10862
▁surplus	-10863
▁élargie	-10864
▁élevées	-10865
arisation	-10866
▁expliqué	-10867
▁réformer	-10868
▁sections	-10869
▁totalité	-10870
▁manifeste	-10871
▁rédaction	-10872
▁complaints	-10873
▁controvers	-10874
▁incentives	-10875
▁partenaire	-10876
▁traduction	-10877
▁citizenship	-10878
▁représenter	-10879
▁précédemment	-10880
▁reunification	-10881
▁significantly	-10882
▁wholeheartedly	-10883
▁progressivement	-10884
▁7.	-10885
alba	-10886
orre	-10887
▁boy	-10888
▁dév	-10889
▁naï	-10890
▁vin	-10891
arrêt	-10892
encer	-10893
inspe	-10894
usses	-10895
▁depr	-10896
▁fixe	-10897
▁hour	-10898
▁scol	-10899
▁bench	-10900
▁david	-10901
▁jeune	-10902
▁judge	-10903
▁lists	-10904
▁lobby	-10905
▁échec	-10906
▁énorm	-10907
importe	-10908
▁consta	-10909
▁deaths	-10910
▁poland	-10911
▁terres	-10912
▁trains	-10913
▁albania	-10914
▁chinois	-10915
▁combler	-10916
▁croyons	-10917
▁imparti	-10918
▁inciter	-10919
▁longues	-10920
▁mergers	-10921
▁orateur	-10922
▁procédé	-10923
▁raising	-10924
▁simples	-10925
▁stipule	-10926
▁informal	-10927
▁postpone	-10928
▁poursuit	-10929
▁replaced	-10930
méditerran	-10931
▁conscient	-10932
▁deadlines	-10933
▁diffusion	-10934
▁disappear	-10935
▁judgement	-10936
▁recyclage	-10937
▁instamment	-10938
▁linguistic	-10939
▁produisent	-10940
▁satisfaits	-10941
▁énormément	-10942
▁divergences	-10943
▁geographical	-10944
infrastructure	-10945
▁interprétation	-10946
▁investigations	-10947
iz	-10948
ull	-10949
cape	-10950
elli	-10951
eurs	-10952
grad	-10953
sifs	-10954
▁chy	-10955
▁foy	-10956
iront	-10957
journ	-10958
known	-10959
occur	-10960
▁invo	-10961
▁tene	-10962
▁vend	-10963
anging	-10964
entive	-10965
▁devez	-10966
▁pluri	-10967
6/2000)	-10968
▁avance	-10969
▁délits	-10970
ressions	-10971
ularités	-10972
▁essence	-10973
▁pologne	-10974
▁postpon	-10975
▁refused	-10976
▁accommod	-10977
▁advocate	-10978
▁citoyenn	-10979
▁defining	-10980
▁fourthly	-10981
▁irrespon	-10982
▁soldiers	-10983
innovation	-10984
▁compléter	-10985
▁judicieux	-10986
▁librement	-10987
▁reinforce	-10988
▁événement	-10989
▁equivalent	-10990
▁invitation	-10991
▁officielle	-10992
visionnement	-10993
▁differently	-10994
▁generations	-10995
▁indicateurs	-10996
▁demonstrates	-10997
▁representing	-10998
▁traceability	-10999
45	-11000
sc	-11001
arc	-11002
pse	-11003
▁hes	-11004
▁iii	-11005
▁oly	-11006
▁rob	-11007
roger	-11008
royer	-11009
▁ante	-11010
▁cath	-11011
▁deny	-11012
▁fire	-11013
▁réal	-11014
▁soin	-11015
istait	-11016
▁cacao	-11017
▁douan	-11018
▁fossé	-11019
▁liked	-11020
▁légal	-11021
▁équiv	-11022
▁ethiop	-11023
▁fought	-11024
▁freely	-11025
▁losses	-11026
▁predic	-11027
▁élevée	-11028
aissance	-11029
insister	-11030
▁arrived	-11031
▁attacks	-11032
▁causing	-11033
▁dumping	-11034
▁genetic	-11035
▁immense	-11036
▁proclam	-11037
effectuer	-11038
▁employés	-11039
▁enabling	-11040
▁indicate	-11041
▁bénéficie	-11042
▁expressly	-11043
▁permitted	-11044
▁signifier	-11045
▁regardless	-11046
▁approfondie	-11047
▁citoyenneté	-11048
▁transformer	-11049
▁complaisance	-11050
▁indépendance	-11051
▁palestinians	-11052
▁exploitations	-11053
▁transporteurs	-11054
▁indépendamment	-11055
▁multinationales	-11056
35	-11057
cade	-11058
nish	-11059
ogue	-11060
élev	-11061
▁err	-11062
▁unh	-11063
enses	-11064
▁dary	-11065
▁flow	-11066
▁maes	-11067
▁mold	-11068
▁déplo	-11069
▁farms	-11070
▁fears	-11071
▁feels	-11072
▁georg	-11073
▁lente	-11074
▁sight	-11075
▁title	-11076
querait	-11077
▁appauv	-11078
▁canada	-11079
▁satell	-11080
▁unlike	-11081
culation	-11082
▁assisté	-11083
▁bureaux	-11084
▁rencont	-11085
▁savings	-11086
▁tribute	-11087
organiser	-11088
▁démontre	-11089
▁fontaine	-11090
▁négative	-11091
▁regarder	-11092
commission	-11093
▁accompagn	-11094
▁africains	-11095
▁constitué	-11096
▁eliminate	-11097
▁individus	-11098
▁justifiée	-11099
▁prerequis	-11100
méditerrané	-11101
▁génération	-11102
▁imperative	-11103
▁paragraphs	-11104
▁juridiction	-11105
▁soutiennent	-11106
▁economically	-11107
▁observatoire	-11108
▁regroupement	-11109
▁électroniques	-11110
▁définitivement	-11111
10	-11112
bio	-11113
▁eh	-11114
mans	-11115
▁14,	-11116
▁mur	-11117
▁édu	-11118
vable	-11119
▁barb	-11120
▁chur	-11121
▁scen	-11122
ardous	-11123
overed	-11124
▁below	-11125
▁côtés	-11126
▁expér	-11127
▁malta	-11128
▁mette	-11129
▁noter	-11130
▁sadly	-11131
▁seuil	-11132
9/2000)	-11133
endront	-11134
interpr	-11135
▁appell	-11136
▁cesser	-11137
▁divide	-11138
▁prejud	-11139
▁renvoy	-11140
▁sahara	-11141
▁exprime	-11142
▁hautala	-11143
▁prouver	-11144
▁restera	-11145
▁tableau	-11146
▁allusion	-11147
▁familial	-11148
▁modernes	-11149
▁poissons	-11150
▁recettes	-11151
▁exécution	-11152
▁eventually	-11153
▁generation	-11154
▁systematic	-11155
▁constamment	-11156
▁unification	-11157
▁particulières	-11158
75	-11159
da	-11160
oli	-11161
reb	-11162
run	-11163
▁0.	-11164
▁39	-11165
atri	-11166
ouch	-11167
roît	-11168
▁agi	-11169
▁ami	-11170
▁aug	-11171
▁buf	-11172
▁sab	-11173
clure	-11174
pping	-11175
▁city	-11176
▁dete	-11177
▁haye	-11178
▁hect	-11179
▁wood	-11180
/2001,	-11181
▁adver	-11182
▁fruct	-11183
▁intim	-11184
▁items	-11185
▁older	-11186
▁russe	-11187
▁sales	-11188
versial	-11189
▁assent	-11190
▁carbur	-11191
▁chypri	-11192
▁claims	-11193
▁couvre	-11194
▁forese	-11195
▁hasard	-11196
▁invers	-11197
▁récent	-11198
▁valoir	-11199
▁écrite	-11200
approuve	-11201
helsinki	-11202
▁adjourn	-11203
▁algeria	-11204
▁lessons	-11205
▁admettre	-11206
▁amérique	-11207
▁attached	-11208
▁bénéfice	-11209
▁confirmé	-11210
▁contenus	-11211
▁entering	-11212
▁fiscales	-11213
▁interfer	-11214
▁scotland	-11215
▁éliminer	-11216
occurrence	-11217
▁consulter	-11218
▁distances	-11219
▁executive	-11220
▁redistrib	-11221
▁supérieur	-11222
▁excellence	-11223
▁nourriture	-11224
▁constructif	-11225
▁exceptional	-11226
▁exclusively	-11227
▁travaillons	-11228
▁linguistique	-11229
▁contraignante	-11230
▁professionnels	-11231
▁sustainability	-11232
▁démocratisation	-11233
8.	-11234
▁(2	-11235
▁34	-11236
▁44	-11237
hère	-11238
sson	-11239
▁37,	-11240
envis	-11241
image	-11242
kenna	-11243
étail	-11244
▁pesc	-11245
▁réag	-11246
▁sûrs	-11247
▁écar	-11248
ancies	-11249
rition	-11250
▁fleet	-11251
▁maybe	-11252
▁olymp	-11253
▁pages	-11254
▁vieux	-11255
appréci	-11256
tivités	-11257
▁avancé	-11258
▁became	-11259
▁belief	-11260
▁bétail	-11261
▁disreg	-11262
▁endors	-11263
▁engend	-11264
▁indemn	-11265
▁peters	-11266
▁quator	-11267
▁rejeté	-11268
▁stages	-11269
▁suspic	-11270
▁abandon	-11271
▁arrivés	-11272
▁enhance	-11273
▁mckenna	-11274
▁minutie	-11275
▁modèles	-11276
▁résulte	-11277
▁étudier	-11278
▁atteints	-11279
▁combusti	-11280
▁consulta	-11281
▁forestry	-11282
▁généraux	-11283
▁périodes	-11284
▁reaching	-11285
▁richesse	-11286
▁aériennes	-11287
▁décennies	-11288
▁incentive	-11289
▁slaughter	-11290
▁taxpayers	-11291
▁vegetable	-11292
▁acceptance	-11293
▁considérés	-11294
▁coordinate	-11295
▁criticisms	-11296
▁condamnation	-11297
sp	-11298
elve	-11299
yrom	-11300
▁nit	-11301
oring	-11302
▁decl	-11303
▁phth	-11304
▁sand	-11305
idémie	-11306
ieuses	-11307
ommage	-11308
▁assor	-11309
▁bowis	-11310
▁olive	-11311
▁purch	-11312
▁resid	-11313
▁vache	-11314
honneur	-11315
tements	-11316
underst	-11317
▁affich	-11318
▁amener	-11319
▁remise	-11320
▁étapes	-11321
ractions	-11322
▁absurde	-11323
▁adhérer	-11324
▁caution	-11325
▁display	-11326
▁débattu	-11327
▁kurdish	-11328
▁parvenu	-11329
▁perpetr	-11330
▁privile	-11331
▁soulève	-11332
▁tackled	-11333
▁turques	-11334
▁utilise	-11335
nellement	-11336
▁fédérale	-11337
▁touchées	-11338
encourager	-11339
▁commenter	-11340
▁outermost	-11341
▁retraites	-11342
▁comparison	-11343
▁highlights	-11344
▁misunderst	-11345
▁rencontrer	-11346
▁respecting	-11347
▁régulation	-11348
▁scientists	-11349
▁contraintes	-11350
▁frontaliers	-11351
▁territorial	-11352
▁bureaucratie	-11353
▁entreprendre	-11354
sa	-11355
fal	-11356
hém	-11357
ggen	-11358
gner	-11359
nice	-11360
ogau	-11361
▁fib	-11362
▁hab	-11363
habil	-11364
viens	-11365
▁beau	-11366
▁rare	-11367
▁salu	-11368
ounded	-11369
weggen	-11370
ériens	-11371
▁acted	-11372
▁biodi	-11373
▁chute	-11374
▁désir	-11375
▁fixed	-11376
▁illus	-11377
▁lehne	-11378
▁signs	-11379
▁wogau	-11380
▁équip	-11381
adapter	-11382
▁bovins	-11383
affirmer	-11384
▁appuyer	-11385
▁lancker	-11386
▁approfon	-11387
▁craintes	-11388
▁cruciale	-11389
▁figurent	-11390
▁plaintes	-11391
▁quatorze	-11392
▁scrutiny	-11393
▁stations	-11394
▁tackling	-11395
▁tragédie	-11396
▁établies	-11397
▁biodivers	-11398
▁consulted	-11399
▁necessity	-11400
▁observers	-11401
▁participe	-11402
▁partisans	-11403
▁quantités	-11404
▁sanitaire	-11405
▁assurément	-11406
▁comparable	-11407
▁foundation	-11408
▁phthalates	-11409
▁appropriées	-11410
▁néerlandais	-11411
▁réglementaire	-11412
nam	-11413
ria	-11414
▁nô	-11415
iels	-11416
▁cod	-11417
▁die	-11418
▁feu	-11419
▁gon	-11420
▁inj	-11421
▁reb	-11422
▁sri	-11423
▁bull	-11424
▁laan	-11425
▁maij	-11426
tising	-11427
▁2006.	-11428
▁blood	-11429
▁cocoa	-11430
▁remit	-11431
▁essayé	-11432
▁leaves	-11433
▁refusé	-11434
▁serbes	-11435
▁spring	-11436
attaquer	-11437
ignation	-11438
▁antibio	-11439
▁arising	-11440
▁conclus	-11441
▁desired	-11442
▁disprop	-11443
▁passing	-11444
▁rendent	-11445
▁rigueur	-11446
▁suscite	-11447
▁carriers	-11448
▁credible	-11449
▁delicate	-11450
▁explique	-11451
▁habitats	-11452
▁interdit	-11453
▁recueill	-11454
▁rencontr	-11455
▁struggle	-11456
▁chimiques	-11457
▁electoral	-11458
▁légitimes	-11459
▁maritimes	-11460
▁recycling	-11461
▁authorised	-11462
▁criticised	-11463
▁félicitons	-11464
▁mainstream	-11465
▁occupation	-11466
▁references	-11467
▁resistance	-11468
▁franchement	-11469
▁handicapées	-11470
▁précédentes	-11471
▁diplomatique	-11472
▁notification	-11473
▁additionality	-11474
▁conservateurs	-11475
▁favorablement	-11476
▁quatrièmement	-11477
▁characteristics	-11478
alg	-11479
abou	-11480
look	-11481
osex	-11482
▁mem	-11483
▁pht	-11484
arela	-11485
effor	-11486
usage	-11487
ètres	-11488
▁emas	-11489
▁plat	-11490
▁unif	-11491
endous	-11492
endrai	-11493
▁honor	-11494
▁inher	-11495
▁marse	-11496
▁track	-11497
édiaire	-11498
▁bonino	-11499
▁marqué	-11500
▁prémat	-11501
▁savary	-11502
▁twelve	-11503
▁varela	-11504
▁velzen	-11505
▁définis	-11506
▁dégager	-11507
▁euratom	-11508
▁faisait	-11509
▁guerres	-11510
▁helpful	-11511
▁secrecy	-11512
▁soldats	-11513
accession	-11514
inclusion	-11515
président	-11516
▁améliore	-11517
▁civilian	-11518
▁illégale	-11519
▁médecins	-11520
▁physique	-11521
▁renforcé	-11522
▁soumises	-11523
▁whenever	-11524
dification	-11525
▁contenues	-11526
▁existante	-11527
▁impératif	-11528
▁specified	-11529
▁stringent	-11530
▁expressing	-11531
▁résolument	-11532
▁suspension	-11533
▁contamination	-11534
▁irregularities	-11535
80	-11536
log	-11537
olé	-11538
ulf	-11539
chet	-11540
énor	-11541
öder	-11542
▁fro	-11543
▁joh	-11544
▁mir	-11545
▁plo	-11546
iring	-11547
▁avoc	-11548
▁bott	-11549
▁clés	-11550
annual	-11551
arians	-11552
▁cabin	-11553
▁doors	-11554
▁neutr	-11555
▁orale	-11556
▁prévo	-11557
▁atmosp	-11558
▁cathol	-11559
▁ecofin	-11560
▁enjeux	-11561
▁flotte	-11562
▁incons	-11563
▁reding	-11564
▁slovak	-11565
▁sudden	-11566
▁étions	-11567
oulement	-11568
▁drogues	-11569
▁enforce	-11570
▁joining	-11571
▁routier	-11572
▁variety	-11573
▁imposing	-11574
▁rapidité	-11575
▁renforce	-11576
▁component	-11577
▁désaccord	-11578
▁préjudice	-11579
▁supporter	-11580
opornograph	-11581
▁approaches	-11582
▁everywhere	-11583
▁résistance	-11584
▁inondations	-11585
▁conservative	-11586
▁dictatorship	-11587
ero	-11588
ett	-11589
urg	-11590
▁0,	-11591
▁ça	-11592
gest	-11593
vage	-11594
ware	-11595
aches	-11596
otine	-11597
tagon	-11598
▁cere	-11599
▁maca	-11600
▁sell	-11601
rables	-11602
▁badly	-11603
▁began	-11604
▁blind	-11605
▁copyr	-11606
▁loans	-11607
▁lucas	-11608
control	-11609
▁chanti	-11610
▁fallen	-11611
▁morale	-11612
▁oblige	-11613
▁pensez	-11614
▁redund	-11615
▁souscr	-11616
▁uphold	-11617
▁écouté	-11618
▁biggest	-11619
▁classes	-11620
▁compete	-11621
▁décisif	-11622
▁empêche	-11623
▁finnish	-11624
▁fédéral	-11625
▁hommage	-11626
▁occuper	-11627
▁rapides	-11628
▁sévères	-11629
▁atlantic	-11630
▁attaquer	-11631
▁disagree	-11632
▁enquêtes	-11633
▁preserve	-11634
▁professe	-11635
▁quantity	-11636
adaptation	-11637
roissement	-11638
▁croissant	-11639
▁integrate	-11640
▁phtalates	-11641
▁retirement	-11642
instauration	-11643
▁communiquer	-11644
▁democracies	-11645
▁indications	-11646
▁strictement	-11647
▁intéressante	-11648
▁utilisateurs	-11649
▁disproportion	-11650
▁investisseurs	-11651
▁transnational	-11652
▁pédopornograph	-11653
▁restructuration	-11654
oij	-11655
▁cu	-11656
ayer	-11657
chée	-11658
roed	-11659
▁fos	-11660
▁mep	-11661
appel	-11662
appui	-11663
astat	-11664
ijing	-11665
obile	-11666
ueuse	-11667
échec	-11668
▁blak	-11669
▁mour	-11670
ancien	-11671
entend	-11672
▁enshr	-11673
▁folle	-11674
▁fondé	-11675
▁iraqi	-11676
▁légif	-11677
▁siège	-11678
▁tacis	-11679
▁éduca	-11680
arition	-11681
ulaires	-11682
▁decade	-11683
▁donors	-11684
▁envoyé	-11685
▁hausse	-11686
▁impôts	-11687
▁plooij	-11688
▁purvis	-11689
▁wished	-11690
▁échapp	-11691
▁backing	-11692
▁découle	-11693
▁gouvern	-11694
▁moments	-11695
▁prépare	-11696
▁reconci	-11697
▁schroed	-11698
▁tchèque	-11699
▁tonight	-11700
▁answered	-11701
▁damaging	-11702
▁dramatic	-11703
▁fixation	-11704
▁offering	-11705
▁physical	-11706
▁pourrais	-11707
▁resulted	-11708
▁traduire	-11709
▁villages	-11710
▁adéquates	-11711
▁complexes	-11712
▁copyright	-11713
▁delivered	-11714
▁négatives	-11715
▁reçoivent	-11716
▁negotiated	-11717
▁preventive	-11718
▁rapprocher	-11719
▁étiquetage	-11720
▁experiences	-11721
▁bénéficiaires	-11722
▁officiellement	-11723
90	-11724
erge	-11725
erre	-11726
ging	-11727
guro	-11728
olit	-11729
rets	-11730
uled	-11731
▁cow	-11732
▁lin	-11733
▁omc	-11734
aides	-11735
▁clôt	-11736
▁céré	-11737
▁déte	-11738
▁flax	-11739
▁gest	-11740
▁radi	-11741
▁2010.	-11742
▁dépar	-11743
▁finir	-11744
▁guise	-11745
▁malte	-11746
▁serai	-11747
▁staes	-11748
▁talib	-11749
avancer	-11750
experts	-11751
▁actifs	-11752
▁concil	-11753
▁exécut	-11754
▁forgot	-11755
▁misère	-11756
▁schmid	-11757
▁struck	-11758
▁suisse	-11759
▁éloign	-11760
ambition	-11761
ancienne	-11762
▁avoided	-11763
▁bateaux	-11764
▁contrôl	-11765
▁donnera	-11766
▁fusions	-11767
▁horizon	-11768
▁apparten	-11769
▁exprimés	-11770
▁frontier	-11771
▁informés	-11772
▁outlined	-11773
▁pourriez	-11774
▁abolition	-11775
▁communist	-11776
▁disregard	-11777
▁exploiter	-11778
▁monopoles	-11779
▁présentes	-11780
▁rejection	-11781
▁sérieuses	-11782
▁enthousias	-11783
▁exhaustive	-11784
▁séparation	-11785
▁supervisory	-11786
▁controversial	-11787
▁democratically	-11788
▁reconciliation	-11789
24	-11790
-00	-11791
aga	-11792
ama	-11793
▁49	-11794
▁tv	-11795
hard	-11796
nest	-11797
yers	-11798
▁17,	-11799
▁18,	-11800
▁anx	-11801
▁nar	-11802
▁néf	-11803
erika	-11804
hamel	-11805
oupes	-11806
ticed	-11807
▁débl	-11808
▁elig	-11809
▁faim	-11810
▁zéro	-11811
agisse	-11812
▁2003,	-11813
▁erron	-11814
▁martí	-11815
▁phare	-11816
▁porté	-11817
▁révél	-11818
appelle	-11819
▁absent	-11820
▁entamé	-11821
▁expand	-11822
▁ferait	-11823
▁guinée	-11824
▁moteur	-11825
▁opposé	-11826
▁sollic	-11827
▁teleph	-11828
▁évoque	-11829
▁banking	-11830
▁beijing	-11831
▁duhamel	-11832
▁fragile	-11833
▁incorre	-11834
▁ingredi	-11835
▁inquiry	-11836
▁invited	-11837
▁manuvre	-11838
▁menaces	-11839
dequately	-11840
▁confirme	-11841
▁subscrib	-11842
▁accepting	-11843
▁incontest	-11844
▁climatique	-11845
▁derogation	-11846
▁profondeur	-11847
▁respectant	-11848
▁simplifier	-11849
▁audiovisual	-11850
▁comparaison	-11851
▁considèrent	-11852
▁dérogations	-11853
▁recommended	-11854
▁obligatoires	-11855
▁sensiblement	-11856
▁corresponding	-11857
▁difficilement	-11858
▁explicitement	-11859
fra	-11860
hle	-11861
▁56	-11862
5-05	-11863
beit	-11864
road	-11865
▁50%	-11866
▁700	-11867
▁kor	-11868
▁wed	-11869
orate	-11870
▁sums	-11871
▁trem	-11872
▁vigo	-11873
▁véri	-11874
minent	-11875
équipe	-11876
▁drive	-11877
▁ideal	-11878
▁karas	-11879
arriver	-11880
élément	-11881
▁assets	-11882
▁invité	-11883
▁libres	-11884
▁livres	-11885
▁medina	-11886
▁prompt	-11887
▁solbes	-11888
▁turque	-11889
▁voisin	-11890
▁command	-11891
▁devions	-11892
▁délicat	-11893
▁founded	-11894
▁italien	-11895
▁obtenus	-11896
▁requête	-11897
▁établit	-11898
▁complied	-11899
▁courrier	-11900
▁enlarged	-11901
▁estiment	-11902
▁imposées	-11903
▁offences	-11904
▁producer	-11905
▁versions	-11906
▁demandant	-11907
▁displaced	-11908
▁incidence	-11909
▁increases	-11910
▁initiated	-11911
▁irrespons	-11912
▁scheduled	-11913
▁frequently	-11914
▁harmoniser	-11915
▁présentera	-11916
▁sentiments	-11917
▁éventuelle	-11918
▁intolerable	-11919
▁preparatory	-11920
▁industrielle	-11921
▁bureaucratique	-11922
▁intellectuelle	-11923
▁democratisation	-11924
jö	-11925
rou	-11926
eiro	-11927
ppän	-11928
▁kal	-11929
▁sjö	-11930
ients	-11931
stedt	-11932
▁lobb	-11933
▁nich	-11934
▁sang	-11935
▁zero	-11936
ertion	-11937
outine	-11938
ppänen	-11939
venues	-11940
▁adult	-11941
▁armée	-11942
▁dériv	-11943
▁eures	-11944
▁fyrom	-11945
▁towns	-11946
▁yield	-11947
argeted	-11948
▁albeit	-11949
▁angola	-11950
▁occupé	-11951
▁anciens	-11952
▁broadly	-11953
▁envoyer	-11954
▁laissez	-11955
▁popular	-11956
▁pénales	-11957
▁récents	-11958
▁suggère	-11959
▁troupes	-11960
effective	-11961
▁accurate	-11962
▁corriger	-11963
▁depleted	-11964
▁externes	-11965
▁resource	-11966
▁récentes	-11967
▁seppänen	-11968
▁sjöstedt	-11969
▁suggests	-11970
▁gravement	-11971
▁initially	-11972
▁préoccupé	-11973
▁reporting	-11974
▁chercheurs	-11975
▁fédération	-11976
▁impatience	-11977
▁permission	-11978
▁sauvegarde	-11979
▁schroedter	-11980
▁transitoire	-11981
▁significatif	-11982
▁manifestation	-11983
▁identification	-11984
5­	-11985
(2)	-11986
ech	-11987
mel	-11988
oué	-11989
▁46	-11990
▁9.	-11991
▁hi	-11992
▁tu	-11993
5-06	-11994
chés	-11995
diff	-11996
etus	-11997
kson	-11998
èges	-11999
▁bag	-12000
▁ced	-12001
▁uen	-12002
itrak	-12003
▁1992	-12004
▁card	-12005
▁cond	-12006
▁dure	-12007
istent	-12008
ueille	-12009
ussein	-12010
▁macao	-12011
▁merit	-12012
▁ozone	-12013
▁pékin	-12014
▁rares	-12015
▁subje	-12016
▁étonn	-12017
▁aborde	-12018
▁ancien	-12019
▁arbitr	-12020
▁butter	-12021
▁estimé	-12022
▁maison	-12023
▁paraly	-12024
humanité	-12025
▁doctors	-12026
▁failing	-12027
▁hussein	-12028
▁jackson	-12029
▁passant	-12030
▁signale	-12031
▁échéant	-12032
expliquer	-12033
inflation	-12034
▁assessed	-12035
▁dizaines	-12036
▁formulée	-12037
▁investir	-12038
▁négatifs	-12039
▁pluriann	-12040
▁précieux	-12041
▁realised	-12042
▁allemande	-12043
▁clarified	-12044
▁hazardous	-12045
▁rencontré	-12046
▁respectés	-12047
▁sustained	-12048
▁sélection	-12049
▁productive	-12050
▁renational	-12051
itrakopoulos	-12052
▁journalists	-12053
▁contraignant	-12054
▁insuffisante	-12055
▁extraordinary	-12056
vé	-12057
)].	-12058
cod	-12059
eds	-12060
how	-12061
amer	-12062
lete	-12063
onte	-12064
▁kyi	-12065
ented	-12066
issue	-12067
▁scre	-12068
▁tolé	-12069
attend	-12070
disant	-12071
engage	-12072
▁admet	-12073
▁angle	-12074
▁catch	-12075
▁masse	-12076
▁tromp	-12077
▁unity	-12078
▁abuses	-12079
▁cities	-12080
▁deprez	-12081
▁papier	-12082
▁pièces	-12083
▁resort	-12084
▁résult	-12085
adresser	-12086
alliance	-12087
▁adverse	-12088
▁appeler	-12089
▁aériens	-12090
▁chargée	-12091
▁devoted	-12092
▁learned	-12093
▁liaison	-12094
▁passons	-12095
▁reprend	-12096
▁sharing	-12097
▁usually	-12098
▁village	-12099
▁worried	-12100
▁apportée	-12101
▁ethiopia	-12102
▁identité	-12103
▁profound	-12104
▁ratifier	-12105
▁reliable	-12106
▁warnings	-12107
▁adressées	-12108
▁définitif	-12109
▁faiblesse	-12110
▁functions	-12111
▁municipal	-12112
▁admittedly	-12113
▁coordonner	-12114
▁électorale	-12115
▁compétitive	-12116
▁disparaître	-12117
▁historiques	-12118
▁investigate	-12119
▁disciplinary	-12120
▁journalistes	-12121
▁reconnaissant	-12122
ga	-12123
nis	-12124
tel	-12125
▁55	-12126
▁az	-12127
▁kn	-12128
agog	-12129
cend	-12130
ilit	-12131
inde	-12132
rist	-12133
rupt	-12134
èves	-12135
▁600	-12136
▁eat	-12137
▁pne	-12138
/01):	-12139
atson	-12140
depth	-12141
rompe	-12142
▁1991	-12143
▁cité	-12144
▁root	-12145
▁émet	-12146
▁dissé	-12147
▁déliv	-12148
▁ouvre	-12149
▁recul	-12150
▁résum	-12151
▁salle	-12152
▁twice	-12153
inscrit	-12154
iration	-12155
▁gained	-12156
▁inclus	-12157
▁troops	-12158
▁vivant	-12159
▁watson	-12160
▁compare	-12161
▁feature	-12162
▁filière	-12163
▁lawyers	-12164
▁replied	-12165
▁sending	-12166
▁émanant	-12167
titutions	-12168
▁appauvri	-12169
▁councils	-12170
▁dépasser	-12171
▁essayons	-12172
▁judgment	-12173
▁maximale	-12174
▁naufrage	-12175
▁requiert	-12176
▁consister	-12177
▁exchanges	-12178
▁fulfilled	-12179
▁listening	-12180
▁multiples	-12181
▁passenger	-12182
▁regularly	-12183
▁accounting	-12184
▁containing	-12185
▁intermodal	-12186
▁profitable	-12187
▁remarkable	-12188
▁consistency	-12189
▁paragraphes	-12190
▁consistently	-12191
▁authorisation	-12192
▁simultanément	-12193
▁counterfeiting	-12194
ho	-12195
bel	-12196
fat	-12197
gne	-12198
ked	-12199
obyl	-12200
▁13.	-12201
▁foi	-12202
▁mél	-12203
▁suu	-12204
appli	-12205
tious	-12206
élarg	-12207
évent	-12208
▁1993	-12209
▁died	-12210
▁entr	-12211
▁film	-12212
▁remb	-12213
▁trip	-12214
▁user	-12215
aisser	-12216
▁buses	-12217
▁intra	-12218
▁liene	-12219
▁rigid	-12220
ernobyl	-12221
▁assign	-12222
▁auteur	-12223
▁autumn	-12224
▁balkan	-12225
▁démant	-12226
▁endocr	-12227
▁jouets	-12228
▁méndez	-12229
▁placer	-12230
▁smooth	-12231
▁synerg	-12232
▁thinks	-12233
▁thirty	-12234
▁transl	-12235
▁trompe	-12236
▁worthy	-12237
onnement	-12238
▁dismant	-12239
▁exigent	-12240
▁gravité	-12241
▁parlent	-12242
▁premium	-12243
▁réservé	-12244
▁surpris	-12245
▁visited	-12246
▁élargir	-12247
▁annivers	-12248
▁annuelle	-12249
▁favorise	-12250
▁generous	-12251
▁innocent	-12252
▁interrog	-12253
▁needless	-12254
▁pursuing	-12255
▁targeted	-12256
▁témoigne	-12257
▁vigilant	-12258
inspection	-12259
▁dépendent	-12260
▁lienemann	-12261
▁naissance	-12262
▁nutrition	-12263
▁syndicats	-12264
▁differenti	-12265
▁horizontal	-12266
▁surprising	-12267
▁university	-12268
▁évolutions	-12269
▁programming	-12270
▁prosecution	-12271
▁transferred	-12272
▁acknowledged	-12273
▁prerequisite	-12274
▁industrielles	-12275
▁professionnel	-12276
▁substantially	-12277
▁compréhensible	-12278
▁méditerranéens	-12279
▁dimitrakopoulos	-12280
eb	-12281
fa	-12282
ja	-12283
cedo	-12284
inen	-12285
lave	-12286
nera	-12287
urre	-12288
▁emu	-12289
▁sép	-12290
level	-12291
tabil	-12292
▁earm	-12293
▁fant	-12294
▁horm	-12295
▁mépr	-12296
▁parc	-12297
▁sexe	-12298
arrass	-12299
mström	-12300
quants	-12301
▁chief	-12302
▁facto	-12303
▁fléch	-12304
▁miser	-12305
▁prete	-12306
▁rouge	-12307
▁rémun	-12308
▁scrup	-12309
▁unequ	-12310
▁woman	-12311
holders	-12312
ibility	-12313
uranium	-12314
élevage	-12315
▁carbon	-12316
▁nichol	-12317
▁openly	-12318
▁racist	-12319
▁russes	-12320
▁vivons	-12321
▁éprouv	-12322
dication	-12323
exigence	-12324
▁abstain	-12325
▁applaud	-12326
▁atmosph	-12327
▁avancés	-12328
▁falling	-12329
▁noticed	-12330
▁quecedo	-12331
▁reverse	-12332
▁threats	-12333
énagement	-12334
▁assister	-12335
▁extremis	-12336
▁managing	-12337
▁patience	-12338
▁plafonds	-12339
▁probable	-12340
▁affronter	-12341
▁americans	-12342
▁autoriser	-12343
▁connected	-12344
▁hautement	-12345
▁malmström	-12346
▁moratoire	-12347
▁proactive	-12348
▁responses	-12349
▁souffrent	-12350
▁underline	-12351
opportunité	-12352
▁surveiller	-12353
▁convictions	-12354
▁innovations	-12355
▁interpreted	-12356
▁quotidienne	-12357
▁researchers	-12358
▁translation	-12359
▁constitutions	-12360
27	-12361
asm	-12362
asp	-12363
radi	-12364
▁cfs	-12365
▁flé	-12366
▁gdp	-12367
▁gré	-12368
▁lor	-12369
otage	-12370
▁batt	-12371
▁brid	-12372
▁noci	-12373
▁porc	-12374
▁toys	-12375
▁vols	-12376
▁wake	-12377
▁wars	-12378
▁émis	-12379
6/2000	-12380
▁inclu	-12381
▁kuhne	-12382
▁rétic	-12383
▁saint	-12384
install	-12385
▁banana	-12386
▁castro	-12387
▁christ	-12388
▁collec	-12389
▁dissim	-12390
▁encoun	-12391
▁excess	-12392
▁finish	-12393
▁floods	-12394
▁indiff	-12395
▁lourds	-12396
▁navire	-12397
attendre	-12398
oublions	-12399
▁affaibl	-12400
▁homosex	-12401
▁impetus	-12402
▁morator	-12403
▁serbian	-12404
▁traduit	-12405
▁émettre	-12406
influence	-12407
▁channels	-12408
▁italiens	-12409
▁prononcé	-12410
▁relèvent	-12411
▁retrouve	-12412
▁uniforme	-12413
▁cinquante	-12414
▁concilier	-12415
▁defending	-12416
▁développé	-12417
▁investors	-12418
▁poursuivi	-12419
▁proximité	-12420
▁réactions	-12421
▁apparaître	-12422
▁deliberate	-12423
▁constituera	-12424
▁enseignement	-12425
▁structurelle	-12426
▁réconciliation	-12427
▁circonscription	-12428
12	-12429
eni	-12430
non	-12431
oeu	-12432
oks	-12433
affe	-12434
dian	-12435
ivoc	-12436
▁12.	-12437
▁abu	-12438
▁dat	-12439
▁rib	-12440
cking	-12441
tages	-12442
terre	-12443
▁asem	-12444
▁fisc	-12445
▁ingr	-12446
aucuns	-12447
quette	-12448
raints	-12449
tienne	-12450
▁avéré	-12451
▁blair	-12452
▁fault	-12453
▁flags	-12454
▁fuels	-12455
▁remis	-12456
▁serbe	-12457
▁situe	-12458
▁belles	-12459
▁cabill	-12460
▁confir	-12461
▁london	-12462
▁lowest	-12463
▁teneur	-12464
abattage	-12465
empêcher	-12466
▁abordés	-12467
▁contrat	-12468
▁cotonou	-12469
▁crainte	-12470
▁mettant	-12471
▁miranda	-12472
▁optique	-12473
▁précisé	-12474
▁restaur	-12475
▁témoign	-12476
accroître	-12477
▁acceptée	-12478
▁acceptés	-12479
▁associés	-12480
▁believed	-12481
▁convince	-12482
▁décisive	-12483
▁enforced	-12484
▁inutiles	-12485
▁limitées	-12486
▁nicotine	-12487
▁patients	-12488
▁platform	-12489
▁socially	-12490
▁stricter	-12491
▁touchent	-12492
▁wherever	-12493
inquiétude	-12494
▁apportées	-12495
▁attendant	-12496
▁démontrer	-12497
▁fermeture	-12498
▁reviendra	-12499
▁collection	-12500
▁exemptions	-12501
▁explicitly	-12502
▁weaknesses	-12503
autorisation	-12504
▁décisionnel	-12505
▁ingredients	-12506
▁occidentale	-12507
▁continuation	-12508
▁fournisseurs	-12509
13	-12510
)).	-12511
chi	-12512
ker	-12513
nez	-12514
van	-12515
chez	-12516
iene	-12517
lant	-12518
▁16,	-12519
▁aér	-12520
▁naf	-12521
▁roo	-12522
▁veu	-12523
▁wis	-12524
5-006	-12525
5-016	-12526
armée	-12527
orter	-12528
▁atti	-12529
▁aung	-12530
▁bowe	-12531
▁bâti	-12532
▁cfsp	-12533
▁mens	-12534
▁pond	-12535
▁ravi	-12536
enfant	-12537
rières	-12538
▁cease	-12539
▁decre	-12540
▁issus	-12541
▁morte	-12542
▁théra	-12543
▁turcs	-12544
▁valle	-12545
▁allait	-12546
▁confed	-12547
▁errors	-12548
▁funded	-12549
▁refund	-12550
▁assured	-12551
▁banotti	-12552
▁disposé	-12553
▁parcour	-12554
▁plainte	-12555
▁pretext	-12556
▁romania	-12557
▁saluons	-12558
▁suscité	-12559
▁urgente	-12560
▁washing	-12561
condition	-12562
establish	-12563
▁contrast	-12564
▁décennie	-12565
▁employed	-12566
▁handling	-12567
▁ouvertes	-12568
▁reminded	-12569
▁améliorée	-12570
▁buildings	-12571
▁distribué	-12572
▁découlent	-12573
▁forgotten	-12574
▁matériels	-12575
▁pouvaient	-12576
▁reception	-12577
▁resolving	-12578
▁automobile	-12579
▁consciente	-12580
▁consolider	-12581
▁détaillées	-12582
▁libération	-12583
▁moratorium	-12584
▁quantities	-12585
▁comprennent	-12586
▁conjunction	-12587
▁individuels	-12588
▁ministerial	-12589
▁occidentaux	-12590
▁prestations	-12591
▁territories	-12592
▁vulnérables	-12593
▁appreciation	-12594
▁mobilisation	-12595
▁satisfaisant	-12596
▁characterised	-12597
▁constituerait	-12598
▁irrégularités	-12599
ray	-12600
sen	-12601
ulz	-12602
yde	-12603
cast	-12604
kins	-12605
ussy	-12606
▁amp	-12607
▁gil	-12608
▁jun	-12609
▁sun	-12610
▁vux	-12611
5-010	-12612
laire	-12613
▁basé	-12614
▁ends	-12615
▁gonz	-12616
▁inco	-12617
▁plas	-12618
▁uses	-12619
▁épar	-12620
rested	-12621
▁chaos	-12622
▁conve	-12623
▁doive	-12624
▁kurde	-12625
▁lanka	-12626
exprime	-12627
ortions	-12628
évoquer	-12629
▁connue	-12630
▁denied	-12631
▁massac	-12632
▁object	-12633
▁schulz	-12634
▁wednes	-12635
▁civiles	-12636
▁devoirs	-12637
▁formulé	-12638
▁fraudes	-12639
▁ignored	-12640
▁refusal	-12641
▁ribeiro	-12642
▁analyser	-12643
▁autonomy	-12644
▁benefici	-12645
▁bullmann	-12646
▁computer	-12647
▁disposés	-12648
▁détruire	-12649
▁evaluate	-12650
▁inconvén	-12651
▁provoqué	-12652
▁reporter	-12653
▁reviewed	-12654
▁transmet	-12655
▁addresses	-12656
▁coupables	-12657
▁criminals	-12658
▁culturels	-12659
▁demeurent	-12660
▁envisaged	-12661
▁familiale	-12662
▁incapable	-12663
▁interview	-12664
▁nullement	-12665
▁premature	-12666
▁printemps	-12667
▁similaire	-12668
▁sportives	-12669
▁sympathie	-12670
▁employeurs	-12671
▁inégalités	-12672
▁préférence	-12673
▁réductions	-12674
habilitation	-12675
▁departments	-12676
▁derogations	-12677
▁palestinien	-12678
▁practically	-12679
▁observateurs	-12680
▁documentation	-12681
▁irresponsible	-12682
▁spécifiquement	-12683
▁transportation	-12684
14	-12685
arb	-12686
cee	-12687
new	-12688
ome	-12689
▁ko	-12690
abol	-12691
eneg	-12692
olly	-12693
ower	-12694
▁gig	-12695
arges	-12696
aring	-12697
hered	-12698
iopie	-12699
ouvre	-12700
quill	-12701
▁1989	-12702
▁ceil	-12703
▁gasp	-12704
▁unde	-12705
▁vary	-12706
▁wine	-12707
ocrate	-12708
▁1993,	-12709
▁2004,	-12710
▁birth	-12711
▁digne	-12712
▁ended	-12713
▁input	-12714
mention	-12715
respect	-12716
▁birdal	-12717
▁crédit	-12718
▁enfant	-12719
▁exacer	-12720
▁génére	-12721
▁images	-12722
▁manoeu	-12723
▁persec	-12724
▁secrét	-12725
▁sexuel	-12726
▁spectr	-12727
▁timely	-12728
▁tomber	-12729
imposent	-12730
▁arrivée	-12731
▁chacune	-12732
▁exclure	-12733
▁jacques	-12734
▁piliers	-12735
▁proches	-12736
▁réduite	-12737
▁réelles	-12738
▁seekers	-12739
▁spectre	-12740
▁assassin	-12741
▁ceilings	-12742
▁cohérent	-12743
▁distinct	-12744
▁illustre	-12745
▁incompré	-12746
▁milliard	-12747
▁routière	-12748
▁traitées	-12749
▁évidente	-12750
▁concentre	-12751
▁déplacées	-12752
▁prévoient	-12753
▁réalisées	-12754
▁unequivoc	-12755
▁violences	-12756
▁wednesday	-12757
▁communiste	-12758
▁discovered	-12759
▁impliquant	-12760
▁inspectors	-12761
▁prévisions	-12762
▁respectées	-12763
▁subsequent	-12764
▁tentatives	-12765
▁vétérinaire	-12766
interprétation	-12767
▁démantèlement	-12768
84	-12769
fri	-12770
pal	-12771
rui	-12772
▁43	-12773
▁75	-12774
ails	-12775
ania	-12776
curs	-12777
erai	-12778
lets	-12779
oute	-12780
▁80%	-12781
asant	-12782
autom	-12783
eable	-12784
trons	-12785
▁agré	-12786
▁book	-12787
▁cell	-12788
▁corn	-12789
▁defe	-12790
▁fame	-12791
▁gagn	-12792
▁grat	-12793
▁otan	-12794
▁smet	-12795
▁xxie	-12796
ulling	-12797
▁1996.	-12798
▁armen	-12799
▁côtes	-12800
▁indig	-12801
▁mccar	-12802
▁split	-12803
▁stick	-12804
arrêter	-12805
▁assuré	-12806
▁listes	-12807
▁tienne	-12808
landaise	-12809
▁banning	-12810
▁consent	-12811
▁disagre	-12812
▁flights	-12813
▁machine	-12814
▁opposer	-12815
▁signing	-12816
▁swiftly	-12817
▁étrange	-12818
▁arrested	-12819
▁bancaire	-12820
▁desquels	-12821
▁imaginer	-12822
▁mistakes	-12823
▁occupied	-12824
▁registre	-12825
▁simplify	-12826
▁sporting	-12827
▁stimuler	-12828
▁attitudes	-12829
▁autorisés	-12830
▁consacrée	-12831
▁examining	-12832
▁indicates	-12833
▁procureur	-12834
▁tolérance	-12835
▁witnessed	-12836
▁adequately	-12837
▁couverture	-12838
▁expériment	-12839
▁phénomènes	-12840
▁potentiels	-12841
▁préférable	-12842
▁unemployed	-12843
▁coexistence	-12844
▁combination	-12845
▁compromises	-12846
▁description	-12847
▁harmonising	-12848
▁législatifs	-12849
▁nationalité	-12850
▁propagation	-12851
▁susceptible	-12852
▁garantissant	-12853
▁systematically	-12854
▁á	-12855
eec	-12856
loc	-12857
rea	-12858
▁pc	-12859
oric	-12860
▁20,	-12861
▁era	-12862
▁hoc	-12863
▁rat	-12864
▁raw	-12865
▁usd	-12866
5-001	-12867
icher	-12868
inner	-12869
▁2006	-12870
▁goeb	-12871
▁phot	-12872
▁unus	-12873
ignant	-12874
lander	-12875
▁affér	-12876
▁depth	-12877
▁fails	-12878
▁fossi	-12879
▁gonzá	-12880
▁grass	-12881
▁lance	-12882
▁oomen	-12883
▁plays	-12884
▁sympt	-12885
▁verte	-12886
itarian	-12887
▁doping	-12888
▁dégrad	-12889
▁incend	-12890
▁merits	-12891
▁murder	-12892
▁requis	-12893
▁seguro	-12894
▁served	-12895
▁showed	-12896
▁stream	-12897
inscrire	-12898
▁fumeurs	-12899
▁inviter	-12900
▁napolit	-12901
▁perturb	-12902
▁recruit	-12903
▁telling	-12904
▁voulait	-12905
▁deciding	-12906
▁goebbels	-12907
▁imported	-12908
▁mercredi	-12909
▁substitu	-12910
▁allemands	-12911
▁cherchent	-12912
▁espagnols	-12913
▁estimated	-12914
▁organisme	-12915
▁reconnais	-12916
▁complexité	-12917
▁components	-12918
▁correction	-12919
▁enregistre	-12920
▁underestim	-12921
▁culturelles	-12922
▁démocraties	-12923
▁gouvernance	-12924
▁constituency	-12925
▁infringement	-12926
▁disadvantaged	-12927
▁transeuropéens	-12928
▁automatiquement	-12929
5-07	-12930
exer	-12931
isra	-12932
oirs	-12933
with	-12934
▁196	-12935
▁800	-12936
▁tdi	-12937
endly	-12938
eping	-12939
itzer	-12940
quier	-12941
raire	-12942
▁böge	-12943
▁heat	-12944
▁host	-12945
▁mers	-12946
▁pair	-12947
▁rely	-12948
▁subi	-12949
oppose	-12950
▁1408/	-12951
▁admis	-12952
▁allez	-12953
▁artis	-12954
▁chanc	-12955
▁cosme	-12956
▁disse	-12957
▁epide	-12958
▁faill	-12959
▁fixée	-12960
▁grown	-12961
▁imbal	-12962
▁marks	-12963
▁motif	-12964
▁noire	-12965
▁redev	-12966
▁saine	-12967
falussy	-12968
ocratic	-12969
écurité	-12970
▁arises	-12971
▁beurre	-12972
▁chauff	-12973
▁détéri	-12974
▁grants	-12975
▁inclut	-12976
▁mother	-12977
▁nordic	-12978
▁pensée	-12979
▁submar	-12980
▁suivie	-12981
▁égards	-12982
▁agences	-12983
▁attribu	-12984
▁cutting	-12985
▁espoirs	-12986
▁fiscaux	-12987
▁formula	-12988
▁intense	-12989
▁prenant	-12990
▁retenue	-12991
▁servent	-12992
▁établie	-12993
itzerland	-12994
▁autonome	-12995
▁condamné	-12996
▁dénoncer	-12997
▁déployés	-12998
▁fléchard	-12999
▁gonzález	-13000
▁humanity	-13001
▁laissent	-13002
▁proclaim	-13003
▁rigorous	-13004
▁spectrum	-13005
▁abolished	-13006
▁constante	-13007
▁contenant	-13008
▁gratitude	-13009
acceptables	-13010
▁beneficial	-13011
▁enterprise	-13012
▁impliquées	-13013
▁lamfalussy	-13014
▁convenience	-13015
▁réglementer	-13016
▁sensibilité	-13017
▁alimentation	-13018
▁interference	-13019
▁quantitative	-13020
▁safeguarding	-13021
▁confidentialité	-13022
isc	-13023
ilty	-13024
orin	-13025
▁10.	-13026
▁19,	-13027
▁opt	-13028
▁pon	-13029
▁rum	-13030
adays	-13031
▁arme	-13032
▁fiji	-13033
▁vies	-13034
▁égal	-13035
7/2000	-13036
endijk	-13037
tified	-13038
▁excéd	-13039
▁grève	-13040
▁inhum	-13041
▁pragm	-13042
▁river	-13043
▁scène	-13044
▁seize	-13045
▁servi	-13046
▁smugg	-13047
▁valor	-13048
▁voyez	-13049
ataires	-13050
develop	-13051
itherto	-13052
énormes	-13053
▁annexe	-13054
▁desper	-13055
▁guilty	-13056
▁inside	-13057
▁intent	-13058
▁livrer	-13059
▁magnif	-13060
▁michel	-13061
▁myller	-13062
▁narrow	-13063
▁praise	-13064
▁préval	-13065
▁search	-13066
▁signer	-13067
lèvement	-13068
▁accused	-13069
▁decline	-13070
▁définit	-13071
▁honnête	-13072
▁joindre	-13073
▁marquer	-13074
▁milieux	-13075
▁rappell	-13076
▁écouter	-13077
▁étendue	-13078
christian	-13079
▁devastat	-13080
▁features	-13081
▁formally	-13082
▁genocide	-13083
▁hitherto	-13084
▁intégrés	-13085
▁justifié	-13086
▁nowadays	-13087
▁superfic	-13088
▁touchant	-13089
▁bâtiments	-13090
▁criticise	-13091
▁légiférer	-13092
▁medicines	-13093
▁possèdent	-13094
▁suspicion	-13095
▁compliment	-13096
▁thoroughly	-13097
▁acceptables	-13098
▁advertising	-13099
▁arrangement	-13100
▁assessments	-13101
▁centralised	-13102
▁disparition	-13103
▁implication	-13104
▁interrompue	-13105
▁multiannual	-13106
▁normalement	-13107
▁secrétariat	-13108
▁autorisation	-13109
▁repercussions	-13110
▁transatlantic	-13111
▁constitutionnel	-13112
38	-13113
rot	-13114
ube	-13115
you	-13116
asie	-13117
down	-13118
hope	-13119
ming	-13120
▁40%	-13121
▁bei	-13122
▁cox	-13123
▁syl	-13124
▁tor	-13125
5-000	-13126
antly	-13127
enait	-13128
olved	-13129
ontre	-13130
tains	-13131
▁ajus	-13132
▁bata	-13133
▁clin	-13134
▁corb	-13135
▁fing	-13136
▁onze	-13137
▁rhet	-13138
▁délit	-13139
▁escal	-13140
▁fumer	-13141
▁géorg	-13142
▁misle	-13143
▁ramen	-13144
▁resta	-13145
▁revis	-13146
▁shock	-13147
▁tardi	-13148
▁thors	-13149
istered	-13150
▁anders	-13151
▁danube	-13152
▁dopage	-13153
▁imbeni	-13154
▁impris	-13155
▁madrid	-13156
▁models	-13157
▁plaide	-13158
▁sooner	-13159
▁tested	-13160
argument	-13161
friendly	-13162
▁accepts	-13163
▁adresse	-13164
▁adressé	-13165
▁congrès	-13166
▁enabled	-13167
▁exclude	-13168
▁préféré	-13169
▁résolus	-13170
▁appeared	-13171
▁benchmar	-13172
▁bâtiment	-13173
▁conserva	-13174
▁céréales	-13175
▁encontre	-13176
▁entreten	-13177
▁hospital	-13178
▁presents	-13179
▁recorded	-13180
▁teachers	-13181
▁accordées	-13182
▁atteintes	-13183
▁delegates	-13184
▁démarches	-13185
▁mentionne	-13186
▁nicholson	-13187
▁paritaire	-13188
▁compétents	-13189
▁consistant	-13190
▁françaises	-13191
▁supporters	-13192
▁ultérieure	-13193
▁américaines	-13194
▁commentaire	-13195
▁infractions	-13196
▁inhabitants	-13197
▁prohibition	-13198
▁switzerland	-13199
▁formellement	-13200
▁antipersonnel	-13201
▁cofinancement	-13202
▁encouragement	-13203
▁fundamentally	-13204
▁substantielle	-13205
▁internationally	-13206
.'	-13207
85	-13208
gov	-13209
oui	-13210
tur	-13211
▁96	-13212
avan	-13213
life	-13214
stes	-13215
voie	-13216
énég	-13217
▁195	-13218
▁23,	-13219
▁30%	-13220
▁pib	-13221
▁sag	-13222
▁won	-13223
afran	-13224
exemp	-13225
force	-13226
overs	-13227
tures	-13228
ulous	-13229
▁dieu	-13230
▁meur	-13231
▁pity	-13232
▁scén	-13233
agisme	-13234
▁drame	-13235
▁infin	-13236
▁laiti	-13237
▁steel	-13238
▁tarif	-13239
▁throw	-13240
▁végét	-13241
accepte	-13242
afranca	-13243
▁cotton	-13244
▁engine	-13245
▁exclus	-13246
▁hypoth	-13247
▁rendus	-13248
éléments	-13249
▁confine	-13250
▁fournis	-13251
▁ingrédi	-13252
▁inspire	-13253
▁ouverts	-13254
▁tabling	-13255
versities	-13256
▁alarming	-13257
▁compound	-13258
▁describe	-13259
▁examinée	-13260
▁findings	-13261
▁persuade	-13262
▁appalling	-13263
▁criterion	-13264
▁dictature	-13265
▁lagendijk	-13266
▁lancement	-13267
▁organisms	-13268
▁proposent	-13269
▁prétendre	-13270
▁restaurer	-13271
▁ambitieuse	-13272
▁grandement	-13273
▁handicapés	-13274
▁industriel	-13275
▁napolitano	-13276
▁salafranca	-13277
▁washington	-13278
▁accessibles	-13279
▁candidature	-13280
▁ideological	-13281
▁pertinentes	-13282
▁terroristes	-13283
▁experiencing	-13284
▁administratif	-13285
▁inacceptables	-13286
▁inappropriate	-13287
▁multinationals	-13288
43	-13289
flu	-13290
jan	-13291
lus	-13292
mic	-13293
rac	-13294
tén	-13295
élo	-13296
adow	-13297
aria	-13298
iwan	-13299
mont	-13300
obus	-13301
tawa	-13302
tend	-13303
▁dog	-13304
▁dus	-13305
▁eta	-13306
▁god	-13307
▁sör	-13308
cides	-13309
isson	-13310
moire	-13311
onnés	-13312
▁doig	-13313
▁pare	-13314
▁thro	-13315
clared	-13316
illons	-13317
émique	-13318
▁brefs	-13319
▁dedic	-13320
▁dissu	-13321
▁frahm	-13322
▁liter	-13323
▁sages	-13324
▁vraie	-13325
aboutir	-13326
casting	-13327
▁broken	-13328
▁domain	-13329
▁driven	-13330
▁instit	-13331
▁reluct	-13332
▁ruling	-13333
▁répand	-13334
▁slowly	-13335
intérêts	-13336
sibility	-13337
▁abordée	-13338
▁besides	-13339
▁england	-13340
▁implies	-13341
▁mémoire	-13342
▁removal	-13343
▁sagesse	-13344
▁sembler	-13345
▁theorin	-13346
▁venture	-13347
▁verrons	-13348
hémicycle	-13349
▁acquired	-13350
▁ancienne	-13351
▁appelons	-13352
▁applause	-13353
▁discover	-13354
▁employer	-13355
▁ordinary	-13356
▁recourse	-13357
▁roumanie	-13358
▁thoughts	-13359
▁découlant	-13360
▁meanwhile	-13361
▁ministéri	-13362
▁provoquer	-13363
▁tolerance	-13364
▁éclaircis	-13365
importation	-13366
▁motivation	-13367
▁officially	-13368
▁permanence	-13369
▁persistent	-13370
▁présentant	-13371
▁pétroliers	-13372
▁restructur	-13373
▁tremendous	-13374
▁countryside	-13375
▁definitions	-13376
▁liberalised	-13377
▁opportunité	-13378
▁incompatible	-13379
▁conjointement	-13380
▁propriétaires	-13381
▁périphériques	-13382
2/	-13383
gi	-13384
pi	-13385
aug	-13386
itt	-13387
sta	-13388
zes	-13389
ionn	-13390
lamt	-13391
ondo	-13392
opol	-13393
▁10%	-13394
▁ali	-13395
▁alt	-13396
▁ath	-13397
▁dos	-13398
▁esb	-13399
▁exh	-13400
▁hid	-13401
gging	-13402
meurs	-13403
orsel	-13404
étend	-13405
▁dens	-13406
▁iron	-13407
▁kirk	-13408
▁lord	-13409
▁midi	-13410
▁pick	-13411
▁salv	-13412
▁sees	-13413
▁wage	-13414
ivoire	-13415
▁advis	-13416
▁bears	-13417
▁brill	-13418
▁congo	-13419
▁dérég	-13420
▁incur	-13421
▁pilot	-13422
▁écart	-13423
inclure	-13424
orously	-13425
▁adding	-13426
▁belder	-13427
▁client	-13428
▁diffus	-13429
▁disgra	-13430
▁female	-13431
▁fixées	-13432
▁listed	-13433
▁peines	-13434
▁quoted	-13435
▁résumé	-13436
▁serves	-13437
▁summar	-13438
▁vienne	-13439
habitude	-13440
isenberg	-13441
▁abolish	-13442
▁anybody	-13443
▁collect	-13444
▁combine	-13445
▁diminué	-13446
▁discour	-13447
▁défendu	-13448
▁déposer	-13449
▁mainten	-13450
▁mettons	-13451
▁offrent	-13452
▁plantes	-13453
▁préparé	-13454
▁strange	-13455
▁stricte	-13456
▁summits	-13457
ématiques	-13458
▁endroits	-13459
▁energies	-13460
▁génocide	-13461
▁injustif	-13462
▁kirkhope	-13463
▁moroccan	-13464
▁parvenue	-13465
▁produite	-13466
▁retarder	-13467
▁sörensen	-13468
▁cabillaud	-13469
▁carburant	-13470
▁concernée	-13471
▁frontiers	-13472
▁impliquer	-13473
▁integrity	-13474
▁mutations	-13475
▁rappelons	-13476
▁soulevées	-13477
▁continuons	-13478
▁fabricants	-13479
▁introduite	-13480
▁originally	-13481
▁respectifs	-13482
▁terminerai	-13483
observatoire	-13484
▁clandestine	-13485
▁intelligent	-13486
▁proviennent	-13487
▁travaillant	-13488
▁établissant	-13489
apprentissage	-13490
▁multilateral	-13491
▁universities	-13492
19	-13493
lux	-13494
▁8.	-13495
▁hu	-13496
phal	-13497
vity	-13498
éros	-13499
▁agg	-13500
▁eib	-13501
▁naz	-13502
audit	-13503
ernán	-13504
hardt	-13505
icing	-13506
▁drop	-13507
▁forc	-13508
▁game	-13509
▁hind	-13510
▁oost	-13511
▁roll	-13512
▁slim	-13513
illets	-13514
projet	-13515
rammes	-13516
▁diagn	-13517
▁démis	-13518
▁meets	-13519
▁naval	-13520
▁pregn	-13521
▁recip	-13522
europol	-13523
lusconi	-13524
▁apolog	-13525
▁august	-13526
▁banane	-13527
▁gorsel	-13528
▁prouvé	-13529
▁renvoi	-13530
▁sentir	-13531
▁taiwan	-13532
▁triste	-13533
▁wholly	-13534
▁étendu	-13535
entielle	-13536
ernández	-13537
▁dioxine	-13538
▁disastr	-13539
▁déroule	-13540
▁footing	-13541
▁heavily	-13542
▁millenn	-13543
▁organic	-13544
▁pillars	-13545
▁profile	-13546
▁quitter	-13547
▁ratifié	-13548
▁sommets	-13549
▁traitée	-13550
▁vigoure	-13551
ignements	-13552
indonésie	-13553
▁bombarde	-13554
▁chômeurs	-13555
▁integral	-13556
▁pavillon	-13557
▁returned	-13558
▁réalisée	-13559
▁subsiste	-13560
▁superflu	-13561
▁victoire	-13562
▁espagnole	-13563
▁generated	-13564
▁incorrect	-13565
▁partagent	-13566
▁pertinent	-13567
▁accueillir	-13568
▁attempting	-13569
▁berlusconi	-13570
▁combustion	-13571
▁inequality	-13572
▁oostlander	-13573
▁organising	-13574
▁yougoslave	-13575
▁criminelles	-13576
▁sensitivity	-13577
▁availability	-13578
▁incidentally	-13579
▁intervenants	-13580
▁travailliste	-13581
▁manifestations	-13582
▁+	-13583
òli	-13584
bres	-13585
emed	-13586
gant	-13587
lent	-13588
▁bio	-13589
▁maf	-13590
▁pel	-13591
▁voc	-13592
ayann	-13593
euses	-13594
ovine	-13595
zegov	-13596
òliba	-13597
▁cauc	-13598
▁cold	-13599
▁coul	-13600
▁illu	-13601
▁kfor	-13602
▁nafo	-13603
▁peru	-13604
▁sine	-13605
▁soft	-13606
▁viet	-13607
exposé	-13608
▁coque	-13609
▁embra	-13610
▁illic	-13611
▁klamt	-13612
▁pensé	-13613
▁surch	-13614
ielsson	-13615
interop	-13616
▁ageing	-13617
▁combin	-13618
▁convey	-13619
▁corrig	-13620
▁denoun	-13621
▁hunger	-13622
▁judges	-13623
▁korean	-13624
▁larges	-13625
▁morgan	-13626
▁navale	-13627
▁papers	-13628
▁phases	-13629
▁sortes	-13630
▁titley	-13631
▁tunnel	-13632
estation	-13633
▁billets	-13634
▁licence	-13635
▁litiges	-13636
▁pousser	-13637
▁subsidy	-13638
▁survive	-13639
▁touchés	-13640
▁éthique	-13641
ayannakis	-13642
▁advisory	-13643
▁aimerais	-13644
▁congress	-13645
▁contents	-13646
▁couverts	-13647
▁délicate	-13648
▁gasòliba	-13649
▁partisan	-13650
▁pressing	-13651
▁spéciaux	-13652
▁chypriote	-13653
▁depending	-13654
▁déterminé	-13655
▁earmarked	-13656
▁envisagée	-13657
▁explicite	-13658
▁forcément	-13659
▁mauvaises	-13660
▁naturelle	-13661
▁newspaper	-13662
▁nuisances	-13663
▁secondary	-13664
lementation	-13665
▁danielsson	-13666
▁disastrous	-13667
▁duisenberg	-13668
▁faiblesses	-13669
▁intéressés	-13670
▁manifester	-13671
▁producteur	-13672
▁safeguards	-13673
▁transférer	-13674
▁undeclared	-13675
▁withdrawal	-13676
▁affirmation	-13677
▁déroulement	-13678
▁confirmation	-13679
▁deregulation	-13680
▁entrepreneur	-13681
▁financements	-13682
▁papayannakis	-13683
▁mainstreaming	-13684
▁palestinienne	-13685
▁contraignantes	-13686
▁standardisation	-13687
55	-13688
gol	-13689
oue	-13690
xes	-13691
zég	-13692
▁65	-13693
▁99	-13694
ched	-13695
ômes	-13696
▁250	-13697
▁squ	-13698
avier	-13699
nesty	-13700
rates	-13701
▁cout	-13702
▁dear	-13703
▁fash	-13704
▁gulf	-13705
▁kill	-13706
▁lays	-13707
▁moun	-13708
▁tens	-13709
▁âgés	-13710
assoni	-13711
▁alert	-13712
▁allég	-13713
▁codes	-13714
▁donor	-13715
▁false	-13716
▁gases	-13717
▁guide	-13718
▁monox	-13719
▁renon	-13720
▁rühle	-13721
▁write	-13722
acteurs	-13723
exercer	-13724
▁anyway	-13725
▁arisen	-13726
▁déplor	-13727
▁désign	-13728
▁faster	-13729
▁fermer	-13730
▁portes	-13731
▁préven	-13732
▁racial	-13733
▁romano	-13734
▁signes	-13735
associer	-13736
ographic	-13737
zegovina	-13738
zégovine	-13739
▁channel	-13740
▁citerai	-13741
▁définie	-13742
▁fondées	-13743
▁ignorer	-13744
▁illness	-13745
▁normale	-13746
▁souffre	-13747
▁station	-13748
▁utilité	-13749
▁évoluer	-13750
▁évoquée	-13751
▁évoqués	-13752
▁collecte	-13753
▁composés	-13754
▁consists	-13755
▁cornerst	-13756
▁disgrace	-13757
▁durables	-13758
▁frassoni	-13759
▁kosovars	-13760
▁likewise	-13761
▁normally	-13762
▁pollueur	-13763
▁promesse	-13764
▁remained	-13765
▁soulevée	-13766
▁susciter	-13767
▁appointed	-13768
▁embarrass	-13769
▁parallèle	-13770
▁preferred	-13771
▁ressource	-13772
▁selection	-13773
▁solidaire	-13774
▁subjected	-13775
▁coordonnée	-13776
▁durabilité	-13777
▁israéliens	-13778
▁prestation	-13779
▁puissances	-13780
▁repression	-13781
▁securities	-13782
▁déterminant	-13783
▁ingrédients	-13784
▁persecution	-13785
▁volontaires	-13786
▁continuerons	-13787
▁préservation	-13788
▁raisonnables	-13789
▁shipbuilding	-13790
▁contradictory	-13791
▁méditerranéen	-13792
▁inévitablement	-13793
36	-13794
hy	-13795
za	-13796
hun	-13797
ïté	-13798
▁41	-13799
aler	-13800
aura	-13801
tera	-13802
▁194	-13803
▁21,	-13804
▁jui	-13805
▁écl	-13806
huber	-13807
huile	-13808
ipped	-13809
ourge	-13810
ulsen	-13811
▁asie	-13812
▁boyc	-13813
▁cope	-13814
▁ench	-13815
▁fats	-13816
▁fifa	-13817
▁gall	-13818
▁grip	-13819
▁inse	-13820
▁lind	-13821
▁osce	-13822
▁tape	-13823
enegro	-13824
▁alter	-13825
▁amené	-13826
▁avais	-13827
▁boule	-13828
▁coins	-13829
▁dilig	-13830
▁holds	-13831
▁leçon	-13832
▁soyez	-13833
élargir	-13834
▁advers	-13835
▁fibres	-13836
▁joined	-13837
▁liable	-13838
▁retomb	-13839
▁réclam	-13840
▁senior	-13841
▁soigne	-13842
▁soviet	-13843
étranger	-13844
▁cabinet	-13845
▁fashion	-13846
▁figurer	-13847
▁passent	-13848
▁paulsen	-13849
▁procède	-13850
▁préfère	-13851
▁redress	-13852
▁signals	-13853
▁specify	-13854
▁stating	-13855
▁stopped	-13856
▁anywhere	-13857
▁certific	-13858
▁disposée	-13859
▁efforcer	-13860
▁exceeded	-13861
▁formelle	-13862
▁friendly	-13863
▁generate	-13864
▁location	-13865
▁migrants	-13866
▁protégés	-13867
▁tendency	-13868
▁vocation	-13869
rehensible	-13870
▁acceptons	-13871
▁compagnie	-13872
▁confronté	-13873
▁italienne	-13874
▁mandatory	-13875
▁matériaux	-13876
▁proposant	-13877
▁tabagisme	-13878
▁uncertain	-13879
▁workplace	-13880
ographiques	-13881
▁approfondi	-13882
▁approuvons	-13883
▁dangereuse	-13884
▁directions	-13885
▁foodstuffs	-13886
▁formulated	-13887
▁identiques	-13888
▁millennium	-13889
▁montenegro	-13890
▁pertinente	-13891
▁petersberg	-13892
▁positively	-13893
▁preference	-13894
▁punishment	-13895
▁sanitaires	-13896
▁distorsions	-13897
▁maintenance	-13898
▁problematic	-13899
▁productions	-13900
▁recognising	-13901
▁threatening	-13902
▁contributing	-13903
▁personnelles	-13904
▁transitoires	-13905
▁vérification	-13906
▁disponibilité	-13907
▁accountability	-13908
▁avertissements	-13909
▁disappointment	-13910
interopérabilité	-13911
8(	-13912
agu	-13913
far	-13914
jug	-13915
rig	-13916
sem	-13917
▁hô	-13918
abus	-13919
allo	-13920
enth	-13921
uiss	-13922
▁bab	-13923
▁cir	-13924
▁kid	-13925
▁nov	-13926
alban	-13927
ariou	-13928
ussie	-13929
▁5.30	-13930
▁abdu	-13931
▁croî	-13932
▁gets	-13933
▁hars	-13934
▁heur	-13935
▁hung	-13936
▁monn	-13937
▁obti	-13938
▁prag	-13939
▁tues	-13940
aisons	-13941
asible	-13942
▁belle	-13943
▁colla	-13944
▁cruel	-13945
▁empty	-13946
▁fabri	-13947
▁faces	-13948
▁fléau	-13949
▁imput	-13950
▁mixed	-13951
▁negle	-13952
▁subir	-13953
▁épuis	-13954
occuper	-13955
royable	-13956
▁arrêté	-13957
▁entour	-13958
▁essaie	-13959
▁rendue	-13960
▁repair	-13961
▁sakell	-13962
▁trends	-13963
▁update	-13964
aviation	-13965
pportune	-13966
▁airport	-13967
▁carbone	-13968
▁closing	-13969
▁concert	-13970
▁deplore	-13971
▁dresser	-13972
▁détenus	-13973
▁légales	-13974
▁majeurs	-13975
▁protein	-13976
▁résolue	-13977
▁salaire	-13978
▁serions	-13979
▁tolérer	-13980
▁unclear	-13981
▁usagers	-13982
interdire	-13983
▁adoptant	-13984
▁advanced	-13985
▁annually	-13986
▁confined	-13987
▁consacre	-13988
▁eligible	-13989
▁entraîné	-13990
▁isolated	-13991
▁pointing	-13992
▁provient	-13993
▁sittings	-13994
▁threaten	-13995
▁albanians	-13996
▁andersson	-13997
▁attentifs	-13998
▁enshrined	-13999
▁hypocrisy	-14000
▁impulsion	-14001
▁isolation	-14002
▁manoeuvre	-14003
▁offensive	-14004
▁parvenons	-14005
▁passeport	-14006
▁rejoindre	-14007
▁terrorist	-14008
▁virtually	-14009
importantes	-14010
▁atmosphere	-14011
▁conformité	-14012
▁effectuées	-14013
▁intégrante	-14014
▁justifiées	-14015
▁légalement	-14016
▁oppression	-14017
▁reflection	-14018
▁consolidate	-14019
▁ouvertement	-14020
▁sakellariou	-14021
▁statistical	-14022
▁équipements	-14023
▁opportunités	-14024
▁incorporating	-14025
▁linguistiques	-14026
▁rétablissement	-14027
▁understandable	-14028
70	-14029
ym	-14030
-08	-14031
oms	-14032
▁58	-14033
▁?"	-14034
chré	-14035
mits	-14036
onge	-14037
ouff	-14038
▁202	-14039
▁22,	-14040
▁bid	-14041
▁jos	-14042
agent	-14043
assif	-14044
domin	-14045
uters	-14046
vages	-14047
▁adul	-14048
▁arab	-14049
▁bass	-14050
▁cana	-14051
▁carp	-14052
▁chan	-14053
▁roma	-14054
▁énum	-14055
crates	-14056
ention	-14057
▁appuy	-14058
▁award	-14059
▁fatal	-14060
▁impré	-14061
▁india	-14062
▁minds	-14063
▁riche	-14064
▁roots	-14065
▁écoss	-14066
annonce	-14067
fection	-14068
visible	-14069
▁argued	-14070
▁commet	-14071
▁implic	-14072
▁imposé	-14073
▁javier	-14074
▁labels	-14075
▁langen	-14076
▁légère	-14077
▁oublié	-14078
▁outils	-14079
▁pêcher	-14080
▁resolu	-14081
▁rising	-14082
▁seemed	-14083
▁1408/71	-14084
▁acceler	-14085
▁adapted	-14086
▁adaptée	-14087
▁baisser	-14088
▁belongs	-14089
▁corbett	-14090
▁delayed	-14091
▁donnant	-14092
▁enables	-14093
▁frankly	-14094
▁intégra	-14095
▁irakien	-14096
▁percent	-14097
▁relance	-14098
▁rédiger	-14099
▁séances	-14100
▁veuille	-14101
▁demanded	-14102
▁diversif	-14103
▁journaux	-14104
▁measured	-14105
▁overlook	-14106
▁publicly	-14107
▁racistes	-14108
▁reserves	-14109
▁réalités	-14110
▁sûrement	-14111
▁armateurs	-14112
▁assessing	-14113
▁divergent	-14114
▁démission	-14115
▁precedent	-14116
▁providers	-14117
▁préconise	-14118
▁subscribe	-14119
▁viewpoint	-14120
▁végétales	-14121
▁adjustment	-14122
▁autorisées	-14123
▁congestion	-14124
▁conseiller	-14125
▁emphasises	-14126
▁fondements	-14127
▁infraction	-14128
▁mentionnés	-14129
▁philosophy	-14130
▁retrouvent	-14131
▁satisfaite	-14132
▁commencerai	-14133
▁cultivation	-14134
▁estimations	-14135
▁fournissent	-14136
▁nationality	-14137
▁secretariat	-14138
▁benchmarking	-14139
▁disadvantage	-14140
▁tarification	-14141
▁réglementaires	-14142
▁technologiques	-14143
▁établissements	-14144
▁contradictoires	-14145
▁euroméditerrané	-14146
▁rationalisation	-14147
[...]
